#version: 0.2
Ġ e
q u
u m
e r
Ġ a
Ġ s
i t
u s
i n
Ġ qu
i s
Ġ p
a t
n t
a m
o n
Ġ c
Ġ n
a e
s t
Ġ d
e m
Ġ m
o r
Ġ in
i c
u r
Ġ v
Ġ t
Ġe t
u t
Ġ i
r e
Ġ f
l i
e n
Ġe st
o m
e s
i m
Ġ h
u nt
o d
e t
a r
a n
i d
o s
e c
u l
e nt
Ġn on
Ġp r
i a
i b
o l
u n
qu e
č Ċ
Ġa d
e d
o c
Ġ re
Ġ l
s e
u d
Ġqu od
a c
a b
Ġ ut
e l
i us
a s
i am
Ġqu ae
i on
Ġe s
Ġs unt
er e
i l
o t
o p
Ġc um
a nt
Ġd e
Ġs u
a l
Ġ E
ib us
Ġc on
Ġ I
Ġ A
Ġe x
Ġqu am
Ġ S
Ġ C
i o
Ġa n
a g
om n
Ġes se
Ġ D
Ġd i
Ġ 1
Ġ omn
Ġm e
Ġqu i
Ġd ic
Ġi l
e st
i h
en d
Ġa li
t a
i ae
it at
Q u
i p
Ġp er
or um
Ġa ut
t er
Ġf ac
Ġpr ae
Ġil l
Ġ b
it ur
r at
is t
Ġ P
r a
i um
at ur
o b
ec t
Ġ Qu
i li
Ġs i
Ġs ed
om in
p er
Ġ g
n o
Ġe n
Ġc o
Ġ N
Ġi p
qu am
i r
en s
Ġh ab
Ġt u
Ġen im
Ġp os
c c
u it
e g
o st
Ġs c
i v
Ġe ius
u c
Ġqu id
Ġ M
Ġh oc
Ġp ot
ar um
g n
ae c
un d
e b
Ġ 2
is s
Ġc om
Ġ (
Ġa p
a re
Ġqu o
or t
Ġv er
Ġet iam
Ġs e
p t
Ġip s
an d
in a
Ġpos s
Ġaut em
Ġa b
ih i
Ġv el
Ġv id
it a
Ġ u
f ic
Ġm ihi
g o
im us
Ġ r
Ġ L
Ġ op
Ġ H
Ġs it
Ġi d
Ġe r
a v
er unt
el l
ion em
Ġn e
c t
Ġ R
Ġc a
Ġa m
ĠD e
ul t
Ġ F
Ġan no
em p
Ġp ag
Ġa t
Ġpr o
l ic
or e
Ġp ar
ih il
Ġt e
Ġ T
ion e
Ġpag ina
Ġin c
Ġc u
Ġali qu
Ġap ud
er it
Ġv ol
is c
et ur
Ġcon s
Ġi m
Ġ V
at us
Ġp l
Ġn ec
Ġqu a
Ġn ihil
Ġqu ia
Ġe a
li b
Ġt am
Ġe um
ib i
i or
Ġm ag
er t
ĠE a
un c
Ġf uit
ar i
es s
Ġpot est
Ġm a
Ġs ol
Ġ un
Ġt emp
. .
in g
Ġ Ġ
Ġ G
Ġa cc
Ġes s
Ġ B
us t
er um
Ġin t
Ġpr op
Ġsc r
u b
Ġco nt
Ġcom m
Ġe o
Ġm od
â Ģ
Ġs um
o v
Ġat que
Ġh aec
i g
in e
ul l
Ġf ili
ob is
Ġin ter
Ġf u
Ġ or
ĠE t
Ġre s
Ġ lib
er at
t um
or em
Ġh omin
Ġ [
b i
Ġs ec
Ġdi x
Ġs ic
e p
in c
Ġp at
Ġb on
f ect
0 0
li g
er i
o qu
in t
Ġre g
at um
Ġs t
Ġan im
r o
Ġ 3
r an
r i
Ġ ita
d e
r um
Ġc re
Ġm in
at e
Ġt ibi
Ġa r
l es
Ġomn ia
i ent
Ġc or
Ġn ost
u li
u pt
at a
Ġl eg
und um
v en
it um
er is
Ġf ec
Ġne que
ĠI n
unt ur
at is
Ġv en
Ġv ir
iss im
is i
er s
Ġ1 9
ab ul
Ġ O
a p
Ġa nt
Ġquid em
Ġl oc
Ġe rat
Ġ ,
it er
at or
Ġl oqu
Ġt er
i re
Ġd ol
Ġs p
cc les
Ġqu is
Ġa l
ant ur
Ġ us
Ġn um
Ġinc ol
Ġe go
Ġ oc
Ġs er
e at
Ġsu b
Ġp ost
Ġa ud
Ġm ult
ist i
Ġm ort
Ġ U
Ġca us
Ġ -
i fic
Ġ ob
Ġips um
end um
Ġpr im
Ġm an
Ġtam en
Ġomn es
Ġmod o
Ġ "
l e
Ġd om
Ġscr ip
es c
ur b
i i
f fic
e o
ĠD omin
ĠS ed
Ġn obis
Ġim p
Ġqu ibus
Ġvol upt
Ġn os
Ġincol arum
Ġan n
it as
er o
Ġmag n
ent ia
Ġcu ius
Ġd u
er et
a d
am us
ĠR om
Ġ o
Ġs im
is se
ĠA n
Ġess et
Ġn isi
r is
Ġsec undum
ud ic
al is
Ġn atur
Ġcomm un
x im
ion is
i at
i unt
Ġaliqu id
Ġqu em
Ġde b
re s
it us
Ġa g
Ġg en
p on
d am
a ud
Ġs em
Ġver o
Ġn ull
Ġ 4
at i
Ġa c
Ġ rat
i is
d ic
itat e
Ġi am
Ġpar t
Ġprae s
Ġer go
itat em
av it
c ip
t us
Ġv it
Ġv oc
c h
Ġp ut
Ġ urb
Ġ ist
Ġe am
g itur
i e
f f
Ġp ec
Ġant e
on iam
r ae
Ġill e
il e
Ġt r
ĠN on
Ġco g
Ġn unc
Ġt abul
ĠDe us
ent ur
or m
Ġqu as
Ġr erum
li us
Ġc ur
ia s
Ġhab et
Ġsu per
er n
Ġr em
Ġ Â
Ġs an
Ġca p
p e
ic ae
u x
s i
and o
at io
Ġh is
Ġip se
eb at
u i
Ġ1 8
Ġex p
n e
" \
Ġm al
Ġi udic
ant um
Ġe i
ĠĠ ĠĠ
ion es
Ġc iv
em us
u ius
Ġam ic
Ġver b
"\ "\
st it
at em
end i
Ġdix it
Ġi gitur
Ġdi v
Ġi ur
Ġd isc
d em
Ġe ccles
er c
Ġre p
Ġap p
Ġ âĢ
Ġn omin
Ġsic ut
a li
it ud
en e
Ġcu i
t or
o g
ul um
ul o
u g
at ionem
ĠS i
ran c
Ġd ec
ĠQu id
Ġsu a
Ġa s
Ġma xim
Ġd ed
Ġmort u
Ġp op
d it
Ġill ud
Ġqu oniam
se qu
0 1
itat is
e pt
Ã ¦
Ġill a
Ġomn ibus
Ġcom p
Ġd es
or is
Ġ is
it t
Ġme a
ing u
s um
an no
ic i
Ġint ell
Ġt ot
Ġquo que
Ġe orum
in em
Ġp u
Ġ2 00
r am
ub lic
r im
Ġco gn
Ġ 5
Ġmag is
ent es
ic um
Ġdic itur
Ġtemp ore
Ġ :
er a
ĠQu od
ĠF ranc
Ġs ent
Ġcon c
Ġser v
o nt
ic a
Ġh ic
Ġe os
Ġdi e
Ġomn is
itat us
Ġf ort
iss et
Ġre c
d i
Ġoc c
Ġposs unt
ir c
ent um
os c
Ġm ol
Ġcaus a
Ġl it
Ġg rat
Ġscr ib
qu id
Ġsem per
Ġa ct
Ġus que
e li
ĠRom an
e x
Ġcon f
Ġcor p
Ġs ine
Ġfac ere
r em
Ġtu a
Ġs int
Ġd el
Ġill um
ĠC h
Ġv os
om en
I I
Ġ Ð
Ġp ublic
ĠA t
i os
Ġin v
Ġi ust
i et
t in
r aec
Ġma ior
Ġe l
b us
Ġin f
Ġv iv
re t
qu it
Ġf id
Ġn ot
Ġc l
Ġsu o
Ġnum quam
ic us
h e
Ġposs it
Ġprae c
Ġse qu
or es
Ġqu os
Ġf rat
Ġn am
Ġe is
ĠA m
ĠC om
Ġmortu us
um que
Ġips a
Ġl ingu
il is
Ġmin us
ĠN am
Ġc ar
Ġsi gn
Ġlit ter
Ġ 7
Ġu bi
Ġin s
Ġdic it
Ġ '
Ġt en
Ġc ol
ur ae
Ġpl ac
Ġm is
Ġper s
Ġcre d
Ġm at
Ġl ab
Ġprae ter
Ġs ibi
Ġde f
v e
Ġ 6
at ione
Ġpr inc
Ġv obis
is p
Ġsol um
Ġsu am
Ġs ae
Ġm or
st ant
Ġn ov
Ġe p
Ġer it
Ġs ap
Ġ2 01
Ġfec it
ĠI ta
Ġvid e
Ġbon um
ur a
Ġop t
Ġd oc
Ġcon sequ
t i
l um
Ġh uius
Ġop p
Ġcommun e
er m
v it
ul a
Ġb ene
in is
Ġprae fect
i ens
Ġpro v
ent iam
s it
Ġf i
Ġex c
t o
Ġv is
o ed
an c
Ġquas i
u p
ili a
.. .
s us
Ġv al
ic et
end a
Ġmol est
Ġn eg
Ġme um
Ġres pon
Ġpr ob
Ġc irc
it ia
Ġp a
Ġali ud
ent iae
od o
Ð °
ĠL at
Ġc ae
Ġn omen
od i
Ġd omin
Ġin ven
Ġre d
Ġt antum
in o
Ġprinc ip
an n
Ġvid etur
Ġc ert
ĠA r
er em
Ġv est
and um
Ġ 8
ul ta
Ġm em
Ġprop ter
Ġf orm
Ġil li
Ġsum m
Ġf r
Ġs al
un ct
ĠDomin us
Ġpar s
Ġcont ra
Ġfu g
Ð ¾
Ġfac tum
Ġ j
l or
Ġal ter
Ġad h
ĠG raec
Ġu x
in i
ent i
or a
re h
Ġn esc
Ġqua er
ĠQu ae
Ġnull a
g lic
ul us
Ġpec un
v ers
) .
Ġa et
ĠI s
u e
Ġd uc
Ġt um
p ic
or ibus
im a
are t
Ġposs um
i x
ar ia
Ġnatur a
Ġmaxim e
Ġvol unt
Ġ J
e a
Ġre li
ĠDe i
on g
il l
Ġe g
ed it
Ġqu ando
an s
Ġsu um
Ġter ra
Ġsan ct
t ut
Ġ und
at o
Ġim per
Ġm und
Ġt ran
m on
ut a
Ġi us
ent em
er etur
Ġdic ere
om o
as s
Ġdi lig
itat ibus
Ġpraefect urae
ul is
Ġex t
ĠQu i
Ġin g
Ġg ra
Ġnec ess
ĠP r
ĠH oc
Ġill is
ĠDe o
es se
al e
isc op
ep it
Ġt est
it e
Ġ 9
ĠCh r
ect us
f er
Ġill o
Ġo ffic
o li
Ġprim um
Ġ1 2
glic e
Ġs us
it i
Ġtemp us
Ġfili us
Ġre bus
Ġab s
c r
Ġali quam
Ġsae pe
e qu
Ġpl ur
Ġintell eg
Ġcap ut
ĠCom itatus
Ġomn ium
Ġdi gn
er b
Ġreg ione
e per
Ġv ita
Ġpos se
Ġs atis
ut us
Ġf am
ĠA d
Ġre i
1 0
Ġex erc
ĠE ccles
"\"\ "\"\
Ġsap ient
Ġv ic
Ġs ens
Ġm ut
Ġquae dam
ĠM ar
Ġ it
ur um
Ġh on
i es
Ġt ab
Ġcog it
Ġun um
Ġhab ere
Ġvir tut
or d
Ġa it
Ġs aec
Ġacc ip
Ð µ
Ġh omo
ar is
Ġfac ta
Ġin quit
i qu
Ġh um
Ġme us
end o
it iae
Ġcogn osc
Ġhomin es
d um
m n
Ġtu um
Ġreli qu
Ġ1 7
Ġali a
Ġiur e
Ġf ut
ec ta
ĠE x
Ġ1 5
v is
Ġomn i
Ġ X
Ġi gn
Ġm ed
Ġvit ae
Ġt ra
Ġor d
Ġa ed
it is
Ġtu am
Ġapp ell
Ġfi eri
Ġp et
Ġin d
ion ibus
ĠAm er
Ġm ulta
Ġund e
cc e
Ġc et
Ġst ud
ĠĠĠĠ ĠĠĠĠ
ic e
ent e
Ġvel it
Ġips o
Ġloqu itur
l l
Ð ¸
er v
Ġpat r
it o
em o
1 2
Ġsu p
uc t
Ġver um
Ġ w
ili um
Ġh anc
Ġcon i
p os
Ġ ull
Ġ |
Ġl aud
Ġtu us
op h
Ġhab ent
ac t
reh end
er es
er ent
Ġ1 3
ĠH aec
Ġs en
Ġper tin
p ect
om odo
Ġp h
ĠU t
Ġl ong
Ġid em
Ġi is
ec um
ĠC um
Ġtu i
in de
ĠC on
Ġint el
st r
Ġurb s
id it
Ġst at
Ġcon stit
u um
in am
, "
Ġi bi
Ġg lor
Ġil lius
Ġb ell
Ñ Ĥ
Ġ od
Ġdisc ip
Ġprov inc
Ġmolest iae
Ġ1 4
Ġpr oc
Ġdol orem
Ġ1 1
Ġnomin e
v i
ĠC ae
Â »
ĠU n
an a
Ġsu ae
Ġis ta
u per
Ġt ant
Ġprop r
Ġfili i
Ġintel lig
Ġm ens
in um
ĠDe um
as c
ia nt
ĠF oed
Ġsub stant
Ġe m
ent er
p h
u erunt
Ġann um
Ġeccles ia
Ġm un
im o
Ġist e
i que
Ġop ort
Ġm il
Ġex ist
Ġdom um
Ġali is
Ġfac t
ĠL orem
Ġs ac
ra h
Ġomn e
Ġer ant
erm an
" :
ent a
Ġp ul
Ġhomin um
at h
ent is
u v
s a
ĠS an
ĠQu am
Ġadh uc
Ġconsequ atur
b it
ĠI ud
Ġprae dic
Ġ1 0
Ġa qu
Ġa per
Ġm uli
Ġfac i
Ġfac it
Ġloc o
ol l
Ġpot ius
ĠB r
Ġre x
Ġpec c
Ġpl us
Ġp o
ent ibus
Ġme am
Ġacc us
A n
a st
Ġl at
Ġcont r
Ġsu bi
Ġqu in
ã ģ
Ġdic ta
Ġsp ec
i f
Ġ1 6
are nt
ĠÂ ·
Ġtran s
l in
ĠM a
c umque
Ġsi ve
Ġvolupt atem
ĠQu is
Ġsign ific
um quam
Ġf al
Ġim m
it iam
Ġad m
Ġlib er
f fect
Ġd isp
Ġs oc
Ġd ub
ur g
Ġcu p
eb ant
ĠA b
ĠA l
ĠP at
ĠO mn
ab o
ir m
Ġop er
Ġun a
Ġre ct
ili us
âĢ Ŀ
Ġid eo
ĠC iv
ari i
od ie
Ġb e
iv ers
Ġ ost
at ionis
Ġp on
al em
Ġmem or
Ġomn em
Ġmat er
ĠCae s
Ġsu i
Ġop us
Ġa equ
it io
Ġt he
t em
Ñ ģ
Ġ K
Ġt unc
ĠP h
Ġnost ra
ĠA p
Ġde us
Ġfu isse
e que
ect um
1 4
Ġopp id
u o
ĠâĢ ľ
l o
Ġtam quam
Ġips i
Ġnost rum
Ġsim ul
an e
Ġt im
Ġsu is
Ġdi es
er int
Ġomn ino
Ġfu erit
j us
an i
Ġaed ific
Ð ½
Ġsum us
u erit
ĠAn no
id e
ĠI es
Ġtu ae
ĠG erman
Ġrat ione
Ġqu omodo
ĠSan ct
av i
Ġad i
Ġcum que
ĠC o
ĠS ic
itud o
Ġvolupt as
Ġqu ant
Ġpat er
Ġter ram
as se
ĠI o
Ġre gn
Ġser mon
il es
Ġn atus
Ġn emo
im um
ul os
Ġded it
issim e
Ġep iscop
l is
n am
i atur
r ic
ar ium
Ġita que
Ã ©
Ġbon a
issim um
E t
x it
cr ip
e v
u et
Ġd em
Ġmagn a
b ul
Ġdi ff
eb am
Ġfac tus
Ġscrip ta
Ġm et
od em
an o
in ae
an um
Ġposs imus
Ġverb a
Ġm ov
Ġex s
lib us
ĠFoed erat
Ġd ist
u a
id er
Ġloqu i
t ere
Ġh ac
an us
il icet
Ġpart e
1 8
an g
Ġcont in
Ġ ult
Ġn oc
Ġd et
Ġl uc
il os
1 3
v ert
id unt
Ġcon ven
Ġqu antum
l ar
s o
at ae
Ġf l
Ġhomin em
Ġrat io
ĠEccles iae
t e
t h
Ġt h
Ġcre atus
Ġs ing
Ġqu orum
Ġanim a
Ġdol or
Ġp or
Ġprae cip
Ġvolupt ate
t r
Ġd on
Ġpr od
ĠI uli
Ġper fect
% )
Ġquae st
al es
Ġad d
ux ta
Ġmal um
i orum
Ñ Ģ
in us
ilos oph
on e
Ġsc ilicet
Ġin quam
Ġdic tum
Ġsc ient
Ġe ffic
ur i
Ġa uc
Ġtr ib
en a
Ġmod i
ĠAmer icae
n um
re g
Ġf it
itat u
Ġess ent
ĠP l
Ġun ivers
Ġeccles iae
ĠFranc iae
1 1
Ġf er
Ġp ac
Ġaliqu a
ro g
i gn
Ġ W
Ġf or
Ġant iqu
Ġad vers
Ġdu o
1 9
Ġlib ero
Ð »
ĠE r
ĠT h
Ġtra d
li a
Ġb eat
I n
and i
on is
Ġv ult
ent ium
ib ile
Ġdic o
ĠH ic
Ġverb um
ĠFranc icum
1 5
Ġm ir
ic am
Ġcon d
em b
Ġv et
Ġar g
Ġe arum
Ġqu Ã¦
Ġd um
Ġpr ius
p lic
li m
ĠR eg
Ġprim o
Ġ {
Ġe lig
Ġqu ic
Ġm on
ac h
Ġposs ess
Ġanim i
) ,
Ġ %)
ar em
Ġmult o
Ġut rum
Ġcons ul
Ġdeb et
Ġe v
ior es
Ġquis quam
un g
le x
Ġcom itatus
Ġven it
Ġlingu a
im e
ar d
ab it
Ġaud iv
Ġgra v
Ġm and
Ġh unc
ot h
Ġdic i
Ġaud i
Ġnec esse
1 6
Ġpost ea
ĠE st
Ġme lius
Ġcom itatu
Ġanim o
Ġh aud
Ġrat ionem
Ġauc tor
ĠS p
Ġeius dem
tere a
ĠDomin i
ĠIta que
erb um
Ġpul ch
Ġe d
Ġl ic
Ġann os
Ġmis er
Ġsc ire
eb atur
An glice
n a
Ġc el
Ġm ot
Ġhab e
e i
end am
Ġea dem
c ur
ut um
Ġob s
Ġexp lic
Ġsequ itur
Ġfam ili
Ġam p
Ġgen ere
Ġrespon d
Ġph ilosoph
y s
Ġaet ern
1 7
Ġn ol
Ġsec und
or i
Ġt ert
unt y
ul p
Ġips am
Ġar t
Ġar bit
. "
Ġ Ã
Ġin stit
Ġh odie
ĠN ihil
Ġfili um
ĠRom ae
y pt
ur us
ĠCo unty
at iones
ĠC an
av erunt
Ġtu o
Ġrep rehend
Ġe cce
ab at
Ġex emp
ag in
eb it
ĠA nt
ili o
Ġsp ir
ĠCiv itatibus
Ġam et
Ġpers on
m o
Ġre f
Ġcol l
Ġred d
Ġe as
Ġi uxta
Ġdic unt
Ġu el
ĠFoederat is
h ib
l a
r as
on em
ic ip
Ġloc um
Ġc h
ut i
Ġsol uta
Ġcaus am
Ġdom us
Ġl ae
id i
Ġme o
ĠÂ «
Ġpossum us
Ġe odem
at ion
Ġill am
ali a
u is
re d
ĠP ost
Ġpro f
at es
ĠP rae
and a
ior em
Ġtemp ora
Ġcorp oris
ĠChr ist
2 2
ic o
ic is
ĠI d
er im
Ġf in
Ġper m
ĠIs rah
Ġb ib
Ġpar v
.. ..
itud inem
ĠA eg
Ġcog itat
Ġg aud
ar ius
Ġprae st
Ġpro fect
Ġmin ima
qu is
ĠG al
Ġhomin is
uet ud
Ġdic untur
Ġcirc a
qu i
Ġd iss
Ġnatur ae
ĠIsrah el
Ġ .
Ġa lic
Ġc al
ĠA li
i untur
Ġhab eat
Ġun us
Ġoport et
u ic
ens is
"\"\"\"\ "\"\"\"\
Ġlab or
Ġaliqu o
Ġprim a
Ġimp edit
Ġpecun iam
Ġdic am
ĠN unc
Ġcl ar
Ġep ist
ar io
on ium
ess it
ĠAn glice
Ġneg ot
ĠI ll
Ġan g
end it
er ant
Ġquam quam
itat es
Ġ200 0
ent o
2 1
Ġloc utus
Ġt ur
id ent
Ġl ect
Ġdic endum
l et
Ġdix i
Ġhum an
Ġ Z
ac ob
Ġman u
e h
ul g
Ġdic imus
Ġdol ore
isp an
m a
Ġfac iam
Ġcons uetud
Ġopt io
Ġe jus
Ġc an
" ,
Ġf inem
Ġven iam
eli m
ul ae
Ġpr om
Ġdic ens
Ġer unt
Ġdom u
m od
Ġc ust
Ġde p
ĠC ur
Ġess entia
id em
Ġl ux
ĠS c
Ġdic t
Ġips ius
o x
it u
Ġd en
ant ium
Ġer r
on s
Ġb re
Ġse x
Ġacc ep
Ġc op
Ġme ae
Ġat t
Ġmort em
ĠAeg ypt
ã ĥ
ist is
Ġse pt
Ġter rae
a us
m odi
on i
Ġd il
Ġ2 0
ĠChr isti
Ġdi u
Ġdi ffic
ir i
ĠÂ §
Ġexist im
Ġ umquam
Ġde i
Ð¾ Ð
Ġa v
et is
Ġre cip
Ġ &
ĠI m
Ġme i
) ;
Ġh ost
ĠE go
and ae
Ġaliqu ando
Ġleg e
Ġcert e
r os
Ġmagn am
l and
it ionem
Ġl icet
Ġdi em
Ġsim il
Ġpu gn
Ġelig endi
Ġvid entur
\ /
r ob
u ere
er ed
Ġt o
Ġhomin ibus
Ġplac eat
li ae
ĠI os
Ġmag ist
Ġnatur am
Ġiur is
Ġdel ect
Ġbell um
Ġt ecum
Ġinc ip
Ġtabul at
Ġsup ra
ĠP et
Ġver a
ep h
Ġgen us
Ġux orem
X X
Ġv ig
ere b
ĠI nt
Ġsal ut
Ġp ol
Ġe ff
ĠC ar
Ġpotest ate
p ar
Ġ on
Ġre per
Ġ2 2
Ġpa uc
an u
issim a
ire t
Ġpop ulo
Ġse u
Ġcorp us
Ġs per
Ġde inde
Ġprop ri
n is
Ġal iter
Ġali en
iss ent
Ġ y
Ġin dic
ĠS t
Ġtot um
Ġali o
Ġmult is
Ġtabul a
Ġhon est
i arum
ĠN ov
Ġpro xim
Ġmod um
ix it
ĠIes us
c us
Ġm i
Ġcon g
ip isc
ĠP er
Ġposs et
Ġacc id
Ġvit am
er am
im ur
Ġreprehend erit
. ,
u en
Ġme li
Ġ2 3
âĢ Ļ
Ġlib ert
Ġfug iat
Ġn ob
Ġu id
Ġpart es
Ġvoc em
Ġd esc
Ġtu is
Ġ200 9
Ġv elim
ĠM ag
Ġqu ot
ĠE p
ĠC at
io ec
Ġan d
Ġp ae
im is
ĠIud ae
Ġcup id
. )
er us
Ġf ur
Ġpot entia
Ġop in
unc ta
ioec es
al iter
Ġun o
Ġo f
2 0
Ġp ort
Ġb en
ĠEr go
Ġqua erat
Ġsumm a
emb ris
2 8
5 0
Ġm undum
Ġm itt
Ġips is
Ġma ius
Ġsus cip
ath ol
o que
ul am
and em
Ġmult um
Ġcogit ari
Ġ k
Ġn unt
ab itur
ĠA s
2 3
o u
ac cur
Ġsu cc
ĠA ut
ĠN ec
Ġquid am
Ġfu erunt
Ġiudic ium
Ġe qu
Ġ2 4
Ġing en
accur ate
t u
ic h
ect o
eb us
Ġpr iv
Ġl ac
Ġali ae
Ġhab eo
Ð° Ð
h en
us s
Ġfac iunt
Ġscrip t
Ġput o
Ġdisp ut
2 6
n i
Ġin im
Ġprae d
iv it
Ġlib ro
Ġfort e
Ġgrat iam
Ġarbit r
r ac
Ġsu os
ĠQu ia
Ġvol o
Ġcor r
II I
Ġdef in
Ġc r
Ġr og
res s
Ġfort asse
Ġpublic a
Ġfrat er
Ġit erum
2 4
u gn
ã Ĥ
Ġman us
Ġfr uc
at u
at ibus
ent us
Ġad ipisc
Ġre v
Ġcon v
Ġtemp oribus
Ġten eb
h et
p et
in ct
Ġc ulp
Ġf ere
Ġper ic
ĠQu o
ep ta
Ġprovinc ia
Ġrect e
l em
Ġa ur
Ġquae cumque
Ġali i
Ġprop os
Ġfec isti
Ġquic quam
l us
ul orum
Ġut i
Ġpu er
ĠUn de
c e
Ã ¡
ar iae
il em
iss imus
Ġop era
Ġ19 4
Ġter r
2 5
Ġpost quam
p r
Ġc as
Ġper d
ir um
Ġlab ore
Ġ <
Ġe ffect
er entur
ion i
ĠA ug
Ġ2 6
Ġor atio
i it
n atus
Ġ ;
ant es
Ġali as
Ġ19 9
N am
Ġ /
Ġa est
ĠN eque
Ġdom o
an ae
Ġ q
Ġm ecum
Ġnon dum
Ġinc idunt
r b
r on
itat ionem
ens i
ĠL ib
ĠĠĠĠĠĠĠĠ ĠĠĠĠĠĠĠĠ
er imus
Ġa ff
ĠH ispan
ĠSp ir
ĠD av
ta re
Ġvir i
Ġus us
Ġn ar
Ġm ar
Ġl ud
ĠH i
Ġpop ulum
Ġgrat ia
Ġfut urum
Ġa ug
Ġquod am
Ġfac ile
Ġhab it
Ġquibus dam
Ġpop ulus
ann es
if est
re n
ab is
Ġdi ebus
Ġpot uit
Ġaliqu od
Ġim ag
Ġhomin e
Ġi ac
Ġf em
Ġg est
Ġann is
Ġpertin et
Ġp ed
Ġn av
ic t
Ġtest im
Ġ2 5
Ġloc us
Ġpu ell
Ġsent entia
Ġval de
Ġrespon dit
Ġnesc iunt
3 0
Ġs on
Ġm iss
Ġh os
Ġut il
lib et
Ġcor am
Ġnull um
Ġcog no
Ġsequ i
Ġde um
Ġfac ti
Ġann i
Ġo ff
itud ine
v erunt
Ġ li
er d
Ġin i
end us
Ġinter rog
Ġviv ere
Ġlingu am
Ġform a
ic em
re c
Ġf oed
ĠS ept
Ġvid ere
Ġsan e
Ġverb is
Ġfort un
Ġlitter as
aret ur
ior a
Ġag ere
Ġsent entiae
ion um
Ġsu as
Ġ2 8
Ġscrip tum
Ġurb e
Ġam bul
ĠV erbum
ĠEt iam
Ġs in
ĠP a
Ġsaec ulo
Ġconi unct
it iis
ur is
Ġi uc
Ġpublic ae
Ġext ra
ĠAug ust
ĠDav id
r u
y r
Ġm erc
ic orum
Ġv eh
Ġad s
isc um
Ġpat rem
Ġscrip s
ĠDomin e
Ġrep ell
Ġintell ect
Ġmaior es
ant ibus
Ġca st
ĠV ol
Ġnost ri
l am
Ġd am
ĠA c
ĠN um
ost ol
Ġurb em
Ġdiv is
N um
N on
Ġd im
itat i
Ġdiv ers
Ġign or
Ġexs pect
p ici
ol og
Ġre lin
ĠI l
Ġme is
Ġlingu ae
Ġoppid um
Ġe ven
qu ir
ul it
Ġmund o
eper unt
Ġa ux
Ġn asc
Ġet si
Ġver s
Ġess em
Ġmult i
Ġdu x
ĠâĢ ĵ
ĠPr ov
Ġ ra
Ġh ered
an ia
os s
end is
Ġpart em
Ġpraes ens
Ġcae lum
Ġod io
ol a
Ġacc epit
Ġcomp os
Ġs or
it ae
ul ator
Ġill os
ĠÂ »
u isse
it h
Ġh uic
are s
Ġas s
Ġpop uli
Ġtot a
Ġull am
2 9
âĢ ¦
Ġanim ae
Ġcur a
am ur
Ġad f
Ġre lig
Ġvid eb
av e
Ġ3 0
Ġfid e
Ġvide atur
re nt
Ġper f
ist or
ĠP om
ust r
Ġfili is
issim i
Ġman ifest
Ġcorp ore
Ġmuli er
Ġs ust
ur r
Ġf abul
ĠI I
ĠD ec
Ġsoc iet
Ġmemor ia
o w
us c
Ġf ig
an is
Ġper ven
Ġbon orum
Ġ201 1
Ġadh ib
Ġqu ar
Ġp arum
Ġl um
ĠI acob
Ġhab uit
Ġpat ris
Ġscrip tor
Ġnull o
ont e
Ġsubstant ia
in qu
end ere
Ġv i
el li
ĠP ar
Ġ2 7
Ġor ient
Ġar ch
Ġstat im
Ġmund us
n it
Ð º
Ñ ĥ
er os
Ġa ffect
Ġt ut
en us
en se
ĠD ic
ĠP rim
ect etur
Ġsc h
Ġdix erunt
Ġnost ro
Ġord in
agin ta
un quam
Ġl a
ĠI p
ert im
ari is
Ġlitter is
. '
Ġe u
on ia
id ie
Ġre fer
Ġposs id
ator es
Ġfid em
3 3
r orum
ur am
ĠI un
Qu is
Qu id
Ġpar iatur
Ġaliqu is
Ġculp a
i endum
r ip
Ġp ret
Ġin iqu
Ġf re
ĠI anu
Ġdic is
Ġ2 9
ĠT um
ĠV id
Ġbon is
Ġleg em
Ġman um
Ġcomp ar
Ġfrat res
Ġmater ia
2 7
Ġc ens
Ġde o
iv a
Ġquid quid
Ġmal a
Ġ201 0
Ġnesc io
Ġalic uius
m us
p i
on d
Ġh ort
Ġre l
end ae
Ġar c
Ġmagn i
Î ¿
on iae
Ġv ia
Ġv ere
iss em
Ġamic itia
Ġcirc um
Ġpecun ia
Ġoffic ia
pect u
" ,"
Ġp al
Ġc unct
Ġu ol
Ġscrip sit
Ġsim plic
Ġtot am
ĠAt que
Ġdem on
Ġpossess ionem
Ġaudiv i
a x
ant e
Ġhab ebat
and am
Ġsol us
Ġas per
Ġp ass
al l
ĠN ull
ĠM os
Ġ2 1
Ġd are
Ġvid it
Ġu ero
Ġint ra
Ġbon i
Ġreg em
Ġnost ris
Ġval et
ĠLat ine
Ġtant a
S ed
r op
is ter
ar a
ec it
Ġnon ne
op t
Ġquam vis
Ġanim am
Ġas sum
ĠRoman i
Ġux or
Ġmund i
Ġcust od
ĠProv inc
it ione
st at
en n
ĠT he
Ġcons ectetur
Ġoc ulis
Ġsent entiam
quid em
Ġqu at
Ġd is
Ġm ent
ent ius
Ġnon n
Ġl e
Ġnum quid
Ġpraes ertim
ept um
Ġinv ent
Ġsae p
Ġsens us
Ġprovinc iae
o h
er g
Ġs y
Ġt em
Ġquae s
Ġan imus
Ġfac iat
Ġfac ilis
Ġreg is
Ġtur p
f ac
l ect
Î ±
Ġa gn
Ġp arent
ur e
Ġv inc
ab ile
Ġtemp oris
Ġ19 7
Ġquis que
Ġlitter a
qu od
Ġh i
ul c
Ġre t
Ġcons um
00 0
Ġfec i
i ebat
am en
Ġm er
Ġcre atur
Ġ19 6
Ġnum ero
Ġdomin us
3 2
Ã Ń
Ġquae so
Ġprop het
Ġcont ing
Ġmil it
e ant
u am
um b
Ġin de
et e
ĠM ed
Ġante a
ĠLat ina
Ġlae t
3 6
qu a
Ġpr imus
Ġg l
Ġsc el
ĠV en
Ġprincip io
Ġ isti
it am
Ġn at
Ġf und
im i
ĠC ic
Ġper pet
abul ator
Ġplac et
ĠQuam quam
Ġarg um
l ator
ĠI tem
ĠD ol
ĠQu a
ĠN e
und a
Ġist o
cr ib
g u
s c
Ġv iam
Ġv ix
ec h
ĠE cce
Ġposs int
Ġpl en
Ġfec erit
Ġaud ire
Ġdu ae
Ġeccles iam
Ġalter um
Ġdiff er
Ġaest im
Ġini ur
D e
Ġad ul
Ġl ex
Ġpot es
Ġdol ores
ĠU rb
bul ator
Ġpor ro
Ġn ati
Ġv ac
Ġf el
ĠS unt
Ġdic at
Ġsc io
ior is
Ġfili os
Ġgen er
Ġamp lius
Ġintellect u
n on
ut e
ĠC or
ĠâĢ ĺ
Ġprincip ium
ĠPat er
am p
ec im
rat us
Ġca pt
Ġcons ilium
Ġpa uper
Ġsal v
Ġsus c
Ġpropr ium
ĠIos eph
a y
Ġcon dic
Ġciv itatis
Ġdec em
ont ific
Ġexerc itationem
Ġcet eris
ĠIud a
r in
Ġd ata
Ġpl ane
ĠEccles ia
Ġpropr ia
ĠInt er
er emus
Ġs emp
Ġut ique
Ġex per
ep s
Ġpraes id
Ġconc ed
crip t
h a
u ae
Ġqu are
Ġn im
Ġt a
itat um
Ġaliqu em
ess us
Ġtestim onium
Ġc rim
oc rat
ĠE pic
ĠC l
Ġvid eri
Ġ3 3
Ġal b
Ġsign um
ĠIanu arii
l ac
r us
Ñ ĭ
Ġ Î
Ġt res
Ġf iat
Ġad v
Ġl ev
Ġvid eo
Ġpart ibus
H aec
Ġa quam
Ġv ul
es e
ab atur
ili bus
Ġhab emus
iv i
Ġver itatis
Ġsit um
Ġvir um
Ġante quam
Ġmis it
ĠBr it
Ġsubi ectum
Ġost end
Ġregn um
Ġutrum que
ã Ģ
qu ae
Ġh a
ab ilis
ĠI am
Ġprae m
Ġb est
Ġpro fic
Ġus u
res sus
Ġpecun iae
Ġaqu ae
Ġdist inct
Ġre stit
Qu od
Ġpotest atem
int i
Ġcel eb
Ġrelin qu
l eg
Ġv im
Ġt andem
ĠL uc
Ġhomin i
Ġnost er
Ġpost ul
Ġgen eris
Ġput as
Ġtest am
Ġit em
Ġecclesia st
Ġfre qu
r ibus
et a
ul e
ul li
ĠQu are
ĠT u
ior i
Ġloqu or
Ġpraes es
Ġurb is
Ġvolunt atem
C C
] .
Ġp en
Ġper t
Ġfili o
Ġcor de
Ġj ust
Ġben ed
Ġ ...
Ġm us
ur re
Ġt ac
Ġt alis
Ġh arum
Ġh istor
ĠA g
ĠF ac
Ġst ult
Ġnomin a
Ġten etur
Ġcet era
Ġang el
c um
e as
v er
Ġn o
Ġcomm od
Ġmagn um
d us
Ġ 0
Ġp ere
an iae
Ġquae que
ant ia
Ġcom ed
Ġcons ec
Ġamic itiae
Ġfug it
Ġvolunt ate
Ġsac erd
Ġpo en
ĠOmn ia
ĠEp iscop
ĠBrit ann
e atur
in ist
at orum
Ġd ia
Ġi r
ab unt
Ġde pos
ĠC ap
Ġfec erunt
Ġas c
Ġbene fic
eper it
Ġcorr upt
Ġsemp iter
Ġn unquam
re di
en iti
ĠC athol
Ġciv itate
itud inis
ĠIs rae
2 01
E x
à ´
it ias
on om
en im
ĠE n
Ġali us
Ġb land
Ġacc ed
Ġel eg
Ġsuscip it
i u
u isti
Ġf est
ĠE ur
ĠM o
Ġcaus ae
Ġ201 2
Ġull a
S i
i oc
id ic
iv e
Ġor b
Ġdes ider
Ġ200 8
Ġscrib ere
Ġhuius modi
Ġplur es
Î ½
at am
Ġf ore
ab ant
ĠR es
Ġcons ilio
Ġtabul ato
Ġact um
": "
ĠProvinc ia
o k
u ven
um us
or sus
id erat
ĠS al
Ġdub it
"\"\"\"\"\"\"\"\ "\"\"\"\"\"\"\"\
ut o
id ere
ĠDe inde
Ġbon o
Ġ19 8
Ġgen erat
si gn
Ġoffic ium
Ġoffic iis
Ġfut ura
Ġmens is
Ġprofect o
et iae
ag e
Ġco epit
Ġhab es
Ġam b
Ġqua d
Ġcomm odi
Ġ3 6
Ġvir tus
Ġmaior em
ta v
ra re
Ġpot erit
erunt ur
Ġanim al
ĠDomin o
Ðµ Ð
ĠIm per
a z
h t
Ġd orm
id erunt
Ġpr os
Ġali am
Ġtabul as
Ġverb orum
Ġel ect
Ġquaer itur
ĠCaes ar
ĠIuli i
ĠIsrae l
r ib
at ionibus
on um
ant em
Ġali um
ĠM in
ig in
Ġloc is
Ġdes erunt
Ġ200 7
Ġcae lo
ill a
Ġquin que
Ġsing ul
ĠPom pe
" .
l ud
Ġf lum
Ġsu ffic
Ġen s
Ġhab itat
ĠL ut
Ġcons ol
Ġpl ura
Ġcont em
Ġfu isset
ri x
Ġvirtut e
Ġind ig
Ñģ ÑĤ
c om
e am
m at
Ġ ot
Ġt oll
Ġprae t
Ġse p
Ġfili ae
ĠO r
Ġmal e
Ġnot a
Ġpraec epta
ĠAr ist
Ġglor iam
Ġfaci em
Ġbe atus
Ġsecund o
Ġpr ud
Ġma li
Ġprop e
Ġinter p
Ġ3 4
Ġser mo
ad em
Ġiudic io
Ġded isti
di gn
Ġel it
Ġsign a
Ġdomin e
ang eli
Ġan c
Ġfac ult
erum que
Ġal t
Ġsub s
Ġexp ed
Ġciv itatem
Ġiust itiam
Ġnot are
Ġquaer ere
Ġreliqu a
ĠOmn es
3 9
l y
Ġc ib
Ġc ant
ur sus
ĠS im
ens um
ita vit
ĠAn g
Ġact u
Ġopt ime
Ġexc ept
Ġlong e
iant ur
k e
Ġ ?
qu o
Ġd ioeces
ĠC al
eb antur
Ġver itatem
Ġqua erit
Ġcre dit
Ġmin or
Ġtr ia
Ġciv itas
Ġmaxim a
Ġscrib is
Ġsumm um
ĠGerman iae
¿ ½
ï ¿½
Ġd atur
iam us
Ġsc it
av erit
Ġsol a
Ġsec um
Ġleg atus
Ġocc up
Ġmor i
Ġsen atus
Ġerr or
h od
ab am
Ġali os
Ġop ere
Ġnost ram
Ġsp ect
Ġiust o
Ġinf in
Ġcl am
. [
3 7
Ġa u
im ae
Ġde x
Ġop erat
Ġcons ider
Ġ3 9
ĠDomin um
Ġiudic es
ĠRoman ae
ĠAt t
mod um
ĠEur op
a pt
Ġ iter
Ġv end
Ġre lic
il iter
Ġfac ies
ĠM at
Ġposs im
ĠL a
Ġsol v
Ġun ius
Ġpat re
Ġ18 5
Ġconf irm
Ġiust itiae
Ġform am
Ġext rem
Ġtab ern
Ġpol it
3 5
å İ
ic arum
Ġf irm
Ġcon vers
Ġg oth
Ġap ostol
Ġposs ib
Ġmin ist
Ġ19 5
Ġconc ess
Ġiust us
Ġplur ibus
ĠCon s
t is
Ġl oque
ud i
Ġfac ilius
ĠP ro
Ġess entiam
Ġput amus
ux it
Ġoper am
i z
Ñ ĩ
Ġin st
Ġde v
al a
ĠS to
ili i
Ġetiam si
Ġips orum
Ġsol lic
Ġven ire
Ġoc uli
Ġnecess itatibus
Ġbre v
Ġgoth ica
p s
r ag
Î ¹
er rim
Ġn ata
ĠA f
ĠS ec
Ġdic eret
Ġun am
âĢ Ķ
Ġor i
ios um
Ġcae l
Ġsapient ia
h o
i ore
Ġ x
ĠE s
ĠC ol
Ġill ae
Ġtu as
ĠM ihi
ĠR e
Ġob l
Ġscrip si
Ġdixit que
Ġrep et
Ã¦ c
Ġfid ei
Ġcirc iter
Ġbeat ae
Ġden ique
Ġiuc und
Ġqu e
ae d
ĠS am
Ġg entes
Ġpat et
Ġdef end
ĠSanct i
Ġult ra
Ġscient ia
Ġcupid itate
p p
Ï Ħ
er r
in es
em ur
ĠP ot
ob us
Ġips os
Ġven erunt
Ġpraes entium
Ġserv us
Ġeg et
Ġimper ator
Ġabs ol
Ġvirtut is
Ġfruc tum
Ġveh em
Ġre vert
ot a
ior ibus
issim o
Ġded uc
Ġdel ectus
Ġfid es
Ġdoc tr
Ġaper iam
Ġspec ies
ĠMa ii
Ñ ı
Ġf iunt
ot e
Ġcon str
ĠA cc
ell a
ĠG en
ĠU bi
Ġob i
Ġnull am
Ġpart icip
Ġiust itia
Ġsus pic
Ġadd uc
Ġexplic abo
Ġprofic isc
Ġ ort
Ġpr on
ĠI II
res si
ĠRoman a
ĠAt hen
Ġfrat rem
ĠMar t
Ġod it
Ġquant o
Ġadvers us
Ġmiser ic
tu or
ĠIl le
åİ ¿
0 5
h i
m is
o ur
s u
Ġs il
Ġs omn
it or
Ġc ult
ic ula
Ġh or
ĠP ol
Ġsed es
Ġca d
Ġpro hib
ĠT ur
Ġcomm end
Ġus um
Ġapp ar
Ġact us
Ġlitter ae
Ġsapient iae
Ġobs erv
ut is
Ġi uv
ab antur
Ġinc om
Ġea que
Ġprop ort
Ġmort e
Ġtot ius
Ġpublic am
Ġadi uv
Ġdemon st
A d
c irc
u us
u as
u imus
à «
it ium
at im
on ae
li v
ĠI t
ĠP ers
ĠL e
Ġleg it
Ġdom i
ali um
Ġrec us
Ġmor ibus
Ġnoc te
Ġmeli or
3 4
u isset
ä ¸
er ibus
Ġex ter
ub ern
Ġ3 7
Ġann orum
Ã ¢
Ġ Q
Ġpr orsus
Ġprae terea
ĠP is
ell um
Ġcons erv
ert um
ert ur
âĢ ī
Ġfili a
Ġinter fic
Ġleg es
Ġcommun ia
ios am
Ġalter a
ĠChrist us
Ġsalut em
Ġsch ol
x imus
Ġe dit
it es
Ġdix imus
Ġant ep
Ġsan gu
Ġrec ord
Ġlitter arum
Ġvest ra
Ġsens u
Ġmut ationem
Ġappell atur
Ġproc essus
Ġmun icip
Ġsaep ius
Ġloque b
Ġ om
Ġc ess
Ġm y
Ġh orum
id a
ĠS cip
ip p
Ġprae tor
Ġill ic
ĠN ost
Ġcons pectu
Ġoc ulos
Ġimp et
Ġgen era
Ġvoc abul
Ġist ud
Ġmal o
Ġcomp rehend
Ġserv i
Ġsubstant iae
c i
ur as
Ġcon p
Qu ae
Ġvel le
Ġcons c
ess or
âĢ ľ
Ġsum pt
Ġmort ui
Ġdeb ent
Ġpers pic
Ð¸ Ð
Ġsubstant iam
Ġvig inti
pici atis
e or
u itur
Ġ ov
er ius
Ġa eg
in ibus
Ġn em
ur o
aec ati
ĠH el
ĠV al
ust ra
Ġbon us
Ġreg um
Ġnost rae
Ġtr act
Ġ18 6
Ġdel eniti
Ġpraec epit
Ġconsequ untur
Ġduc imus
Ġaqu a
Ġfal sum
Ġtrib un
Ġunivers a
Ġsacerd ot
Ā Ā
Ġs is
Ġd y
Ġm ente
ab ilia
ĠS uper
Ġper itus
Ġpl erumque
Ġor n
Ġamic i
Ġmagis ter
Ġconc lus
ret ur
ĠX V
a u
Ġ ur
it ter
Ġin dign
ic es
ol us
Ġqua eris
Ġanim um
Ġdu od
Ġdu as
itt ere
Ġpu eri
di u
ĠRoman us
Ġnov um
ĠIta liae
erm in
Ġepiscop alis
ĠVol upt
i erunt
Ġ z
Ġs oli
Ġs ese
ur sum
Ġt urb
Ġi i
Ġcon fic
Ġill orum
Ġhab eb
ĠM irum
ĠL eg
ĠR hod
Ġacc ept
Ġmin ime
Ġleg is
Ġmult ae
Ġel ectus
Ġmem in
Ġfug a
Ġfact ionis
Ġinvent ore
m en
r ia
r ig
Ġc ec
Ġc ot
ut io
Ġcon dit
ĠM ult
Ġse par
Ġmag no
ient ia
Ġleg ibus
issim os
Ġ4 0
Ġlab orum
Ġnov i
Ġabs c
Ġpecc atum
ĠAli quam
' ,
in d
at ore
Ġn ub
Ġv ox
Ġi re
Ġvid et
Ġu ir
Ġag itur
Ġbell o
Ġdiscip uli
Ġaccus amus
Ġadm inist
ĠAl p
âĢĿ .
Ġmot us
ĠSpir itus
Ġquat tuor
Ġgl ad
3 1
4 8
Ã ¨
Ï Ĥ
em or
Ġm ont
ut ionem
Ġh ae
ent r
ere st
Ġprae f
ĠP ontific
Ġvid es
Ġu erbum
Ġpro eli
Ġ3 8
Ġnomin is
Ġmem b
Ġj udic
Ġalter ius
Ġvic tor
Ġperson ae
Ġpae ne
Ġterr arum
A t
r ius
Ġ os
Ġt y
et h
Ġex ig
Ġper cip
Ġprae pos
Ġu en
Ġint eg
de o
Ġimp ed
Ġag it
Ġvoc atur
ĠâĢ ¢
Ġocc ult
ĠCom m
Ġaccip ere
Ġmed io
Ġpac em
Ġpropri e
P D
Ġd ur
Ġm entem
Ġi uven
Ġre tin
iss a
ĠF ilius
Ġpat ri
Ġ3 5
ĠIn fer
Ġnull us
Ġmol l
Ġcert um
Ġaet ate
ĠPr op
ĠX X
Ġpae nit
Ġpere g
ĠCathol icae
circ o
a de
e um
u eris
ar t
Ġdi g
Ġam ore
Ġaliqu ot
ient em
Ġdec re
ĠIo annes
Ġspir itus
ĠIll ud
ĠÂ» Â»
Ġassum enda
Ġmiseric ord
d a
er ere
Ġn oli
Ġl ine
ĠI st
Ġper fic
ĠN o
ĠR uss
Ġfu erint
Ġsp es
Ġvolupt atum
Ġded i
Ġocc as
Ġcae li
Ġcogit are
Ġlect orum
Ġfruc tus
Ġimag o
. âĢĿ
n atur
er ta
Ġqu arum
Ġin qu
Ġt it
el es
Ġcon vert
ĠC uius
Ġu oc
Ġim agin
Ġvir o
Ġist is
icum que
Ġact io
Ġfal sa
nam icus
ĠPrim um
igin ta
C um
Ġqu um
Ġd o
ia l
ĠQu int
Ġg ubern
ens io
Ġvol umus
Ġmagn us
Ġverb o
Ġscrib am
Ġnot ae
ĠGraec i
Ġart ific
ĠZ en
Ġadipisc ing
Ġinterp ret
H oc
v ent
Ġ uit
Ġs ita
at orem
on a
Ġm ilia
ac ulum
ab or
Ġco ep
ell ae
Ġam or
ĠF eb
Ġtemp or
Ġfili orum
Ġinter dum
Ġor atione
Ġciv itates
Ġepiscop us
Ġcond ita
Ġtert io
Ġsust in
Ġagn osc
4 4
g a
p pe
s ent
t ae
Ġc ern
Ġm erit
ib ulum
Ġad eo
ĠD em
Ġdi erum
Ġfac ie
ĠM an
Ġven i
Ġloqu untur
Ġcommun is
Ġtr iginta
Ġ18 7
Ġdel ic
ĠÐ ¿
Ġinv icem
Ġfid uc
Ġpatr ia
Ġconsuetud ium
ĠPet rum
' .
v ol
Ï ĥ
er as
ar n
Ġsu ff
Ġdic atur
rat um
ect ae
iv um
ĠV el
ĠV erum
Ġqua ereb
Ġcont emp
Ġmin ister
issim is
Ġman ibus
Ġsim ilis
Ġmaxim um
Ġvolunt as
Ġtab u
Ġglor ia
Ġsignific at
Ġsermon em
Ġcoll eg
Ġsept em
Ġadipisc i
Ġdy namicus
n us
n ae
p l
Ġ ore
is us
Ġp isc
Ġh as
Ġcon stat
ĠS equ
Ġqui ppe
Ġvid emus
Ġu b
ĠB o
Ġpublic us
Ġplac uit
Ġpers piciatis
Ġconven it
Ġbland itiis
4 0
Ã ³
Ġs od
im entum
Qu i
ra ph
Ġlib ri
Ġ3 1
Ġsp em
Ġvoc e
Ġiudic ia
Ġdisc ess
Ġconc up
Ġcar n
Ġhon or
ĠAmer ica
Ġbe atum
ĠCaes aris
lar itas
Ġfortun a
qua quam
L orem
m in
Ġqu oc
is it
at os
Ġc entum
Ġd issim
an quam
ab iles
ĠI ust
rat a
ect ura
ĠM et
ĠV ir
ert us
Ġdol orum
Ġvolupt ates
Ġdu os
Ġ4 8
Ġcap it
Ġocc id
10 3
Ġsaec ulum
Ġord ine
Ġquaest io
Ġalb um
Ñ Į
li am
Ġquod dam
Ġdic entes
Ġsc imus
ĠT emp
Ġqua ero
Ġnihil o
Ġloc i
Ġob lig
Ġdu obus
ad modum
Ġpec uli
Ġdec lar
Ġocc ident
Ġdomin o
Ġord inem
ast i
Ġadvers um
Ġparv a
Ġdam n
A r
a in
Ġe nt
ut em
ĠA lex
ob iscum
Ġg reg
ĠN umquam
Ġhab etur
Ġab und
Ġexp et
Ġtot o
Ġfrat ribus
Ġabs que
Ġpraecip ue
Ġfamili ae
Ġy ou
Ġarbitr or
Ġrepell endus
Ġadul esc
Ġdistinct io
I V
U t
a uc
c ta
Ġ á
Ġd ap
Ġin itio
re p
Ġad mon
ĠD uo
Ġab i
Ġacc ess
Ġmult os
Ġimp rob
Ġamic us
Ġinv id
Ġviv it
Ġmat rem
Ġvide antur
Ġvis um
Ġvest rum
Ġdign um
Ġit in
ĠOmn is
Ġorient alis
Ġdap ibus
4 6
b at
m odo
ic os
Ġt ale
Ġi ub
Ġf ing
Ġre quir
ĠP y
ra vit
ĠN emo
ient es
Ġintell ectus
ios e
Ġinf er
Ġcred o
aria nt
? "
r it
Ġ â
Ġ Ñģ
on es
on ius
Ġv entur
li um
ol is
ĠS y
Ġfac iet
Ġposs is
Ġu er
ĠT er
Ġanim ad
Ġsp onte
Ġvolupt atibus
Ġ4 6
Ġ18 9
ept us
Ġocc urr
Ġnecess aria
Ġsapient iam
Ġluc em
Ġpulch ra
Ã «
Ï ģ
on us
Ġh odi
ec onom
Ġl ap
ant i
Ġfac eret
Ġne quaquam
ult us
ĠIn s
Ġist am
Ġtr ist
Ġapp et
Ġpraec ed
Ġins ip
Ġux ore
Ġsanct i
Ġexerc itus
Ġstud io
Ġull o
Ġfact ae
Ġsermon e
Ġdet ermin
tr ib
Ġlabor iosam
Ġhos p
Ġe le
Ġm om
Ġin uen
Ġh uc
Ġh eres
ar b
ib ilis
il le
Ġsu av
ĠI V
ĠD ixit
ĠQu omodo
ens a
Ġhab ens
ĠM ich
und em
Ġ4 5
Ġamic um
Ġamic is
Ġdiv id
ĠâĢ Ķ
ios us
Ġopp os
Ġinven ire
ĠMar c
Ġspec ie
Ġquant a
Ġpropri et
Ġnob iscum
Ġcas u
Ġcunct is
Ġuol unt
ĠFeb ru
- -
3 8
S a
i ebam
l ina
n ull
o gn
Ġa re
in arum
Ġqu alis
Ġd er
ut ae
re ct
ar ch
an am
ia c
ab untur
Ġquo ad
Ġid circo
Ġcons ili
ov ers
Ġdix isti
Ġal l
Ġnum erus
Ġimp oss
Ġsim ili
Ġsim ile
Ġ4 7
Ġist um
Ġel em
Ġopt imum
Ġpatr ibus
Ġsermon um
Ġed uc
Ġhabe ant
Ġepist ulam
Ġsimil iter
ĠLut etiae
e unt
r ud
r ot
Ġ å
in dic
Ġp res
ar g
an os
Ġex hib
ĠP ic
ili ae
Ġquid quam
Ġu erum
ert e
Ġint r
Ġprop terea
Ġfu erat
inc idunt
Ġpat i
ap h
Ġo lim
Ġdeb eat
Ġapp are
Ġpa ulo
Ġpatr iam
ĠAp r
Ġcogitat ione
ĠEurop ae
? ?
D atum
n unt
Ã ®
Î µ
Ġa uct
Ġa eque
Ġc uncta
Ġf e
ar c
ul as
ĠS u
ĠS ol
ĠQu oniam
Ġver itate
Ġam are
Ġinter ret
ĠO ct
Ġnum erum
sum us
Ġgrat iae
Ġnot um
Ġsequ untur
Ġcognosc ere
ĠÃ ¥
Ġcong reg
ĠIun ii
4 9
Ġn atum
Ġm alis
ac ed
ĠC ont
Ġhab eret
Ġvid ebatur
Ġ3 2
Ġar b
Ġquem admodum
Ġciv itatibus
Ġexc ell
Ġdil ect
Ġvehem enter
Ġmoll itia
8 6
p lex
Ġv obiscum
Ġt incidunt
il lim
Ġde orum
Ġali orum
ĠQu em
ĠN omen
eb o
Ġr ursus
ĠV ale
ient iam
Ġaud it
Ġdeb itis
Ġ18 0
ĠâĢ ¦
Ġel oqu
Ġcontr overs
Ġauctor itate
Ġmot um
Ġpol lic
Ġarch it
2 00
I ta
Ġqu ale
Ġm are
Ġprae b
Ġb apt
iss um
ĠF ort
ĠT ro
Ġpl eb
Ġlib ris
ĠIn c
ĠRom am
avit que
Ġtabul is
Ġgrat ias
Ġnov a
Ġmolest ias
Ġprincip es
ĠSanct um
Ġquic quid
ĠPrae terea
ĠChrist o
Ġ *
Ġp re
Ġm ore
li o
Ġpr ot
ab ilem
ĠE b
est as
Ġver itas
ell us
Ġsol et
Ġacc eper
Ġmod us
Ġst ip
ator is
Ġdol oribus
Ġcaus is
Ġserv um
Ġpraec ept
Ġsapient e
uct io
Ġtant o
Ġmun us
Ġscient iae
Ġprius quam
Ġspir itum
ĠNull a
us quam
Ġc athol
Ġf ab
id um
Ġad ven
ab ili
Ġcon stant
ĠS um
ĠS it
ĠS em
Ġvid i
Ġid que
Ġpar ia
Ġint erest
Ġinter f
Ġlib eri
ĠO m
Ġvit ium
Ġtabul ae
Ġcap ite
ios a
Ġfrat re
ĠIta lia
inis ter
Ġeffect um
Ġrepell at
Ġlum en
ĠCic er
ĠAlex and
m et
Ġ Y
Ġ lig
Ġe quidem
Ġqu er
or s
un e
Ġad or
ĠN os
Ġpos itum
ĠH ab
Ġsol o
Ġrep udi
Ġinven itur
Ġquaer imus
Ġpo ena
ĠAl b
Ġmemor iae
Ġcorrupt i
i rat
å ¸
Ġv ex
ar unt
ul erunt
ed ere
ant is
Ġsu orum
ĠS ch
Ġper c
Ġpro g
ĠT ar
Ġor ationem
Ġlib rum
Ġlib enter
Ġar d
ĠO b
Ġmult ip
Ġprim is
Ġquem quam
pon itur
Ġsem en
Ġpop ul
Ġocc aecati
Ġact ionem
Ġsap iens
Ġinven i
Ġreli quit
Ġvirtut em
Ġsubi ecto
Ġregn i
Ġexemp lum
ĠChrist um
ĠAegypt i
Ġmiss us
ĠAc adem
Ġparent es
i em
Ġe dic
in as
Ġp rec
ia lis
el a
Ġde fic
ect i
ens es
iss es
Ġr om
ell o
ĠR ep
Ġacc idit
fect um
fect us
ĠRom a
Ġrec ta
Ġaet atis
ass et
Ġdilig enter
Ġfaci endum
Ġbe ata
Ġoppid o
Ġaetern um
ioeces is
Ġeven iet
Ġori unda
4 7
8 8
m i
ul lius
il lum
ot us
ĠI dem
Ġdic amus
Ġb elli
ra v
ĠM e
Ġvid erunt
Ġam at
ĠB ib
Ġprop on
Ġdix erit
Ġfec isse
Ġloqu ar
Ġimp l
Ġcommun i
Ġgen uit
Ġiudic em
Ġdiv ina
erc ule
Ġdomin um
ĠIes u
Ġperic ulo
Ġpropos itum
Ġsy ll
Ġimposs ibile
I T
I ac
b y
o go
Â «
Ã ¶
Ġ )
er alis
Ġqu al
Ġn usquam
Ġin p
ic ta
Ġv indic
om et
ĠC n
Ġdi i
Ġposs ent
ĠL ig
Ġcu b
ep iscop
ient ibus
Ġ19 0
Ġamic o
Ġdisc ere
Ġfr uct
ill am
Ġdilig it
Ġpertin ere
Ġpo et
Ġcogno vit
Ġli gn
ĠDec embris
ĠUrb s
ĠIt al
ĠOct ob
r y
Ġs at
ae pe
Ġm ense
Ġin ius
Ġad dit
ag ina
atur a
Ġsc is
Ġab iit
Ġam ant
Ġdix isset
Ġscrib it
Ġmor s
ĠAr ch
Ġsanct um
Ġsaec uli
Ġpertin ent
Ġadm itt
Ġdisp os
ĠK al
Ġaudiv it
Ġsper o
Ġcr ud
ĠĠĠĠĠĠĠĠĠĠĠĠĠĠĠĠ ĠĠĠĠĠĠĠĠĠĠĠĠĠĠĠĠ
Ġquad r
Ġexped ita
p at
s ec
Ġd a
Ġd at
Ġm end
Ġin sign
Ġv ulg
ar iam
ent io
ĠE v
ir em
und o
Ġer ud
Ġer ga
ĠT ex
Ġcons ist
Ġlib eris
Ġcuius quam
Ġconf us
Ġpraeter itum
Ġprov ident
Ġneg leg
Ġform ae
Ġj am
ĠGraec iae
ĠJ oh
ĠAmer ic
Ġcontr aria
ĠMa xim
Ġoper ibus
Ġmir um
Ġlic eat
Ġprofect us
ĠIp sum
Ġcreatur a
Ġdex ter
eor g
Ġconcup isc
Ġhodi ern
E st
Ã ª
us que
Ġin n
es imo
ĠI bi
ĠS ocrat
ĠQu ibus
Ġpot erat
Ġne f
Ġqua dam
Ġreg e
Ġo econom
res sa
Ġtr ibus
Ġsan cta
Ġamic os
Ġamic itiam
Ġcui que
ram mat
Ġinf irm
Ġpraec l
Ġcar itas
Ġvis us
ĠLat in
ĠLat inam
Ð¾ Ð»
Ġimper ium
Ġplur imum
Ġlaud antium
Ġstat u
ĠIuli us
Ġalien um
Ġsucc ess
Ġaux ilium
M ont
h em
i episcop
v ar
ï ¼
Ġ =
er re
Ġs ort
Ġd idic
Ġin m
id es
ac ta
el is
ĠE l
Ġper hib
Ġfac io
Ġprae par
Ġu is
ĠV est
Ġcomm emor
Ġreg es
ator ibus
Ġmagn ific
Ġcomp et
Ġ200 6
Ġconf it
Ġpraec lar
Ġsumm o
Ġsumm am
Ġintelleg ere
Ġstud ium
Â» .
Ġfer re
Ġsecund a
Ġdiffic ult
erus alem
Ġasper natur
ĠRes pon
ĠAlp ibus
1 00
o en
Î »
Ġp ess
Ġn imis
Ġv iae
Ġh ora
ol ae
un a
Ġl aus
Ġcon dem
Ġquam diu
eb as
ĠH odie
Ġvol uit
Ġres pic
Ġar m
Ġsem el
pe x
Ġdiv itiae
Ġiur a
Ġapp aret
ĠÐ ²
Ġnam que
Ġprinc eps
Ġ201 6
ĠJ es
Ġing redi
Ġgra d
Ġdolorem que
Ġaccus antium
Ġscient iam
Ġpauc is
Ġnim ium
ĠFebru arii
O mn
l u
Ã ł
Ġe c
Ġa er
Ġp ap
Ġf inis
im am
Ġre vers
Ġde os
al t
ĠD uc
Ġdic as
ĠN orm
Ġsc iam
Ġer o
Ġtemp orum
Ġess es
Ġfili am
Ġdu plic
pon ere
ĠRoman um
Ġfr ig
Ġexerc itum
Ġtra dit
Ġglor iae
Ġmet u
Ġalic ui
Ġped es
ĠSept embris
Ġpret ium
er er
Ġa urum
Ġm isi
or qu
Ġv ad
Ġi b
li d
Ġh inc
an em
end as
Qu am
Ġfac ias
itur us
ĠQu in
Ġu erb
ĠL ingu
ĠT e
Ġreg no
issim ae
Ġtr ium
Ġsanct ific
ĠIo h
Ġfl ag
Ġdon ec
Ġperfect um
Ġtert ium
Ġincip it
Ġtestam entum
] ,
t io
Ð ²
in ia
Ġn ut
Ġn ig
Ġet c
Ġi oc
id o
ĠD el
Ġdi ut
est ig
atur um
ĠQu ot
ĠM ol
ĠL ab
Ġinc red
Ġleg ere
Ġvir g
Ġserv it
Ġcar o
Ġcar nis
Ġord o
Ġmuli eres
Ġimm o
Ġdub ium
Ġref ert
Ġclar am
Ġdiffic ile
Ġutil itatem
Ġconting it
ĠPontific atus
Ġcontemp l
Ġanimad vert
Ġinterret e
4 5
m um
Ġn upt
Ġv inum
Ġt alem
re icae
Ġf un
od uct
ĠE rat
ĠS ex
itat io
Ġprae stant
itur um
Ġhab ebit
Ġat tin
Ġpotest as
ĠB or
Ġreg io
Ġleg atum
Ġfec isset
Ġcur ae
Ġexp ugn
Ġiust um
Ġubi que
Ġvirtut es
Ġappell antur
ĠTh reicae
Ġmand ata
Ġauctor itatem
Ġhonest um
Ġeffect us
Ġlum ine
ĠNost ri
å¸ Ĥ
5 9
F ranc
d uc
h op
m e
n s
Ã ¼
É Ļ
Ġ }
in s
Ġc it
Ġi ud
el icet
ta vit
Ġper g
Ġg r
und us
and us
Ġer am
Ġte x
Ġint u
Ġprop inqu
Ġloc a
Ġob tin
Ġcuius que
Ġdeb ere
Ġdeb emus
Ġmortu um
Ġlat ine
Ġmemor iam
Ġpuell a
ĠAugust i
Ġcib um
, '
4 1
a k
d in
e k
n es
y l
Ġ æ
st in
en c
Ġad opt
ac tus
Ġdic ant
ip sum
Ġfac is
Ġprae di
Ġg entibus
ĠM al
Ġam oris
isc i
Ġcons ent
Ġres ist
ient e
Ġven iunt
Ġdeb etur
Ġexp rim
Ġdes ign
Ġcogn itionem
Ġ5 0
Ġrec eperunt
Ġmaior a
Ġcl er
Ð° Ð½
Ġvest ri
ĠGraec e
Ġoffic io
Ġfam ilia
Ġsen ect
Ġdub io
ĠCaes arem
ĠAp ostol
Ġoppid a
Ġmet us
ĠReg es
Ġperm itt
ĠNov embris
Ġteneb ris
ĠNum quid
Ġrecus andae
Ġom itt
ĠHel v
ĠNorm ann
H ic
a i
á ½
Ġe undem
er ae
in n
Ġd atum
Ġt ene
ut ione
Ġf av
Ġf ons
oc h
ot um
Ġsu us
Ġcon cip
Ġdic ebat
Ġsi ue
Ġhab ita
Ġpos uit
iv is
Ġpot entiam
Ġvid eretur
Ġne quit
Ġor ationis
Ġob liv
Ġprim am
Ġ18 8
Ġind uc
Ġcet eri
Ġtrans l
ĠSic ut
Ġcust odi
Ġlibert atem
Ġquar to
ĠSto ici
ĠRhod ano
Ġarchit ecto
Ġrepudi andae
? '
C laritas
I X
N ihil
b urg
Ã ´
Ġa go
Ġp asc
on am
ent orum
ant iam
ĠS erv
ĠS yr
ĠC unt
Ġali ena
Ġg entium
Ġinc id
Ġcons ult
ĠV os
Ġsol is
Ġcre sc
ĠO p
Ġsub t
Ġman et
Ġman cip
Ġist ius
ern ia
og raph
raec e
Ġcred unt
Ġneg at
Ġpa st
Ġintelleg o
ecta re
Ġdiscip ulos
arent ur
Ġcr uc
ĠSept entr
Ġra p
Ġconstr uctio
ĠPis o
Ġnem inem
Ġsuff rag
Ġquoc umque
P r
n ic
p agina
Ġ ï¿½
Ġin h
Ġt ali
Ġt anquam
ol o
Ġex st
ĠD i
ĠT unc
ĠV I
ĠV er
Ġtemp lum
Ġres urre
Ġdom est
Ġact ione
Ġten ere
Ġmat rim
Ġsens um
Ðµ Ð½
Ġhum ana
Ġcognosc it
Ġdiscip ulis
Ġmil itum
ĠCaes are
ĠPh il
ĠAp ud
Ġaetern a
Ġtert ia
Ġnegot ium
ĠIll a
XX X
Ġnonn ull
Ġduod ecim
C h
v a
z e
Ø §
Ġa iunt
in ium
ae mon
or ia
Ġv an
Ġv ari
os e
ant o
ĠC irc
Ġtu os
ĠM ont
und ia
Ġint ro
ĠEt enim
Ġinf ra
Ġcl aus
Ġcred ere
Ġfi eret
Ġred uc
ann is
Ġalter i
Ġalter o
Ġvirtut ibus
Ġmed ia
Ġpatr iae
Ġsup plic
Ġem pt
Ġost endit
ard ia
Ġspir itu
ĠPrae s
ĠAegypt o
Ġmagist rat
Ġproxim o
Ġfoed us
Ġpron unt
Ġloqueb atur
ĠÂ»Â» Â»
A l
E R
I acob
f or
r upt
Ä ģ
Ġe ae
it ionis
Ġp ud
Ġp as
ic tus
ab le
as i
ion s
ĠE um
Ġdic endi
ĠP or
Ġvel let
ĠV ide
Ġsol ent
Ġsp on
Ġdu xit
Ġvit ia
Ġrem an
Ġdes in
Ġrec ed
ĠRoman orum
ĠÐ ¸
ĠÐ ½
Ġcol lig
Ġvide amus
Ġdoc et
ill ae
Ġeg estas
Ġnecess arium
Ġdign issimos
Ġconstit u
Ġaqu as
Ġmuli erem
Ġperson a
Ġdesc end
ĠHispan icum
Ġnasc itur
ĠVid etur
ĠThe od
Ġconsum m
Ġvul n
Ġfrequ enter
ĠTur c
a ur
m an
Ġa us
it em
is que
Ġp ict
on io
Ġd ulc
Ġin str
ar o
un que
ab us
ĠS en
ĠS ax
ip ot
ĠN esc
und i
Ġu i
Ġim b
ĠG eorg
Ġlib ros
Ġpart ic
Ġcui quam
Ġcomp l
Ġintell ex
ĠAr v
Ġsanct orum
Ġaccip i
Ġign is
Ġconstit uta
Ġproc ed
Ġadm irat
Ġquant i
ĠTh om
ĠLib ero
Ġsor or
Ġvi ol
Ġsimplic iter
Ġdiffer entia
Ġfel ic
ãĢ ģ
ĠSec undum
ĠMart ii
ĠTex iae
8 2
H ispan
Ġ +
Ġp ell
od um
an orum
ol e
Ġut untur
ant a
Ġde str
al lic
ĠA ustr
ĠS ent
Ġvid elicet
ĠL ectura
ĠT usc
Ġsol e
ĠB e
Ġcont ent
Ġcor d
Ġleg i
Ġnatur alis
Ġcommun ic
Ġac ta
Ġpart im
Ġnomin atus
Ġdec lin
Ġpu erum
ĠRoman is
ĠÐ º
ĠGraec is
ĠJ ud
Ġius sit
Ġtest is
Ġreliqu um
Ġpet i
Ġquaest ionem
qui esc
Ð¾Ð ²
Ġteneb rae
ĠCic ero
Ġpen itus
"\"\"\"\"\"\"\"\"\"\"\"\"\"\"\"\ "\"\"\"\"\"\"\"\"\"\"\"\"\"\"\"\
Ġadminist rat
. ]
u f
er ia
ae n
ol um
Ġcon st
ĠS in
ĠS ac
ĠC amp
Ġb r
omin us
ĠH en
ĠH uius
ĠF ret
ĠB el
Ġanim alia
Ġfec imus
Ġincol ae
ad a
Ġ4 4
Ġexc us
Ġvolunt atis
Ġvirtut um
Ġconi ung
Ġproc ul
Ġprod uc
ĠPl ac
Ġcoll oqu
Ġch r
Ġdil ectus
Ġdim itt
ow n
ĠMos es
Ġiniur iam
Ġcot idie
5 6
7 0
] [
b o
h or
r om
r ium
v al
Ġqu andam
at ium
Ġc aec
Ġm atur
or ium
Ġt alia
Ġh unt
ent issime
Ġut ile
ĠA ene
ĠS ab
ĠD um
ip s
Ġfac to
Ġg ign
iv ae
ĠM C
Ġpot eris
Ġpot entiae
Ġvel ut
ĠH eb
ĠH uic
Ġne x
Ġess entiae
ĠB al
Ġcomm ut
ĠNon ne
og en
sequ i
Ġintell ectum
ĠAt qui
Ġinf orm
Ġsal tem
Ġux ores
Ġintelleg i
Ġconstit uit
ĠAb rah
ĠPat rem
ĠSanct us
ation i
ĠPet rus
Ġargum entum
ĠOctob ris
Ġiud ex
l av
m ata
u ers
y ri
Ġe andem
Ġp un
ic as
Ġv icus
es per
ar ibus
ec erunt
ĠA em
ĠC ras
Ġper fer
Ġb arb
Ġg rammat
Ġpot uerunt
ĠL ud
ĠF uit
Ġnum er
Ġoc ulus
Ġoc tav
Ġcaus as
Ġ4 9
Ġcap ere
Ġamic orum
Ġact iones
Ġcred imus
Ġnov am
iens is
iti arum
ĠPat re
ĠIes um
Ġcontin entur
Ġpor no
Ġfor o
Ġcel erit
Ġcoll oc
Ġperic ulum
Ġpal am
Ġpauper t
Ġpolit icarum
Ġsod alis
Ġcarn em
Sa int
Ġsimili que
Ġappare at
Ġcondem n
ĠArv ernia
b a
s al
à µ
it y
it os
Ġp e
at ia
at ius
Ġc av
Ġn ud
Ġf at
ĠE odem
Ġper cus
Ġfac iant
ĠP ap
Ġg er
Ġpos ita
Ġsc and
Ġeius modi
eb unt
ĠL oth
ĠR erum
ub i
Ġcont end
Ġsec us
Ġreg i
Ġven iat
ĠO cc
Ġimp os
Ġimp ort
Ġillum in
Ġbene vol
Ġdomin i
Ð¾ ÑĤ
pos s
Ġmun ere
Ġsing ulis
Ġprod est
Ġnol ite
Ġeff ug
Ġexcept uri
Ġinst rum
Ġdemonst rat
ĠPic ardia
P rae
a il
c is
u erat
Ã ¤
Ï Ģ
Ġqu int
on o
Ġd ile
Ġv ixit
Ġf iant
un iae
ant iae
ĠA ct
ĠC et
ĠC ui
itat a
Ġposs em
Ġr ogo
Ġam itt
Ġvol uerunt
Ġreg ionem
Ġman s
Ġnos se
ĠAn d
Ġrat iones
Ġurb ibus
Ġmal ed
Ġ5 6
Ġconc ord
Ġins ula
Ġrespon sum
ĠGraec os
Ġius ta
Ġmed ium
Ġproc ur
Ġmens es
Ġsac ram
ĠAl iter
ĠAp oll
ĠPl at
Ġpac e
Ġmi ra
Ġlac rim
Ġnar rat
Ġperf ecta
Ġfig uras
Ġsempiter num
ĠNo e
Ġmultip lic
Ġattin et
ĠBor uss
d o
t am
Å į
á »
er no
Ġs o
Ġc at
or y
Ġin est
Ġet enim
ent ior
Ġl o
ĠA quit
ra verunt
iv id
Ġpot ui
ĠF T
Ġma j
Ġor ig
Ġar ma
uli el
Ġvir is
Ġloc uti
ire s
Ġdol ere
Ġsp e
Ġoc to
Ġaud ac
iat io
Ġrat ion
Ġurb es
Ġsuper b
Ġapp lic
Ġpu ero
Ġins id
Ġdef unct
Ġnesc it
Ġtran se
Ġhon orem
Ġ17 9
Ġign osc
Ġoport ere
Ġfl uv
num er
Ġev angeli
Ġaudiv imus
Ġlic ebit
Ġdesc rip
Ġlac us
ĠPa ulus
Ġtem per
Ġá ¼
ĠNormann ia
Hispan ice
7 9
@ Ą
A li
P ost
V I
a h
h on
o ec
p ot
ä »
Ġn ulli
Ġm ox
Ġm onte
Ġf ine
ol v
Ġl eo
ac i
ac tum
ab imus
il li
ĠD iet
Ġme as
itat ur
ĠP raec
Ġsed is
and is
Ġvid eat
ĠT amen
isc us
Ġpl an
Ġpl ant
Ġfu i
Ġlib erum
Ġdix isse
Ġman ere
Ġsem et
Ġpraes entia
Ġvoc ant
Ġput ant
Ġdiv itias
Ġdes iderat
Ġdoc t
sit an
Ġcert o
ĠJ o
Ġimper ii
Ġsus p
Ġconi ug
ĠCon f
ĠAp p
Ġnoc t
Ġth es
Ġtrib u
Ġpac tum
Ġvet ust
Ġmot u
Ġpraest are
ĠIm mo
Ġsimil itudinem
Ġben ign
Ġmanifest um
Ġvul go
à« ¨
Ġfiduc ia
Ġmom enti
ĠApr ilis
by ter
Ġcrud el
Ġcelerit er
4 3
c a
l end
m itt
p ta
s ed
u os
y c
y n
Â Ń
Ì Ħ
Ù Ī
at to
Ġc ito
Ġm entis
ib ilia
oc k
ĠC umque
ĠD om
ĠD ie
Ġco eperunt
Ġhab itavit
eb amus
Ġver bi
Ġips ae
Ġat trib
Ġpl ena
ov e
Ġfec eris
Ġven isset
Ġvir os
Ġvoc avit
Ġput a
Ġexp ect
Ġcomp ut
ĠRoman os
Ġdoc tor
Ġabs ur
Ġhon ore
Ġmed ioc
Ġstud ia
Ġw ith
Ġlong ius
Ġintellig i
Ġintellig ere
Ġpecc ata
Ġimm ort
ĠIuli a
Ġhabe am
Ġnunt ia
Ġcas us
Ġgest a
Ġnav ig
Ġaffect us
Ġbapt iz
ĠOm ne
ĠMC M
4 2
5 7
A T
C ur
d om
p a
t on
Å ĵ
Î º
Ð ¿
ä º
Ġc entes
Ġd abo
or sum
ic ulum
Ġf auc
es iae
un ae
ĠQu ir
ens em
ĠM aria
Ġ( -
ell e
Ġcu jus
ĠB en
Ġreg ionis
eris que
Ġloqu imur
Ġmagn ae
Ġmagn itudo
Ġput at
Ġcur sus
Ġciv ium
Ġeccles iis
ĠFranc icus
Ġsent ire
Ġgrat is
Ġinv oc
Ġcl ass
Ġ7 0
Ġpers uas
Ġopp ugn
Ġprob are
Ġfr ustra
ĠMar cus
Ġord inis
Ġdisp lic
Ġrect um
Ġdem um
Ġdist ingu
Ġpor ta
Ġmon st
ĠPost ea
Ġaccep imus
Ġav ar
Ġhost es
ĠCat ala
Ġconv iv
ĠSpir itum
Ġarch iepiscop
Ġdemon str
Ġnat os
ĠCap ut
Ġasc end
ĠEn n
Ġsubs ist
Ġextrem um
Ġdoctr ina
Ġmy st
E go
i atis
u erint
y d
Ä «
Ð ´
Ð ¼
Ġ Ä
Ġ é
Ġ umb
um entum
Ġf rum
ar s
id erit
Ġad sum
ac k
Ġut inam
ĠS oc
ĠS aepe
Ġomn ipot
Ġme os
Ġdic endo
ĠQu ando
ĠN isi
ĠM ulta
und e
Ġver ius
ĠL ae
Ġer is
Ġam o
Ġun quam
ep i
issim am
Ġob t
Ġ4 3
ont o
di xit
Ġfr u
reh ens
Ġsanct us
Ġimper io
Ġing ressi
oli a
Ġdign itate
Ġexerc itu
pect um
Ġliber os
Ġcup io
Ġmater iae
ĠPh ara
ĠPh aed
Ġtrad idit
ĠAnt ioc
Ġrev oc
Ġfem inae
Ġmer idi
Ġadul ter
ÑģÑĤ Ð¸
Ġinfin itum
ĠCatala uniae
U S
d en
i en
r ica
Ñ ħ
it orum
am entum
Ġf ra
Ġh Ã¦c
ar er
ul arum
Ġl en
ĠE z
ĠD ioecesis
Ġme orum
ta x
ĠQu orum
ili or
Ġposs ibile
Ġvel is
ine at
Ġven erit
Ġsim ilia
Ġsim plex
ĠAn glic
ĠAn nis
ĠÐ ļ
ios i
Ġmaior is
Ġpraec eptum
Ġlingu is
Ð¾ ÑĢ
ĠCon c
Ġtant ae
ĠFoed eralis
Ġconven ire
Ġpulch r
Ġfamili ar
Ġperson am
Ġperm an
Ġbib endum
Ġgaud io
Ġcal am
Ġconsuetud o
Ġopin or
Ġrev el
pr ice
Ġimag inem
rin sec
Ġfauc ibus
6 0
a ut
x erunt
er ium
Ġa ffic
Ġp iet
Ġn it
Ġn uper
Ġin quis
Ġv as
ut rum
Ġi unct
ar ing
ed i
ant er
ĠP ort
iss emus
Ġvol ut
ĠV II
Ġacc ur
ĠB est
ĠB eat
Ġcont um
ran s
Ġsp lend
ĠU N
Ġob iit
Ġman e
Ġ4 1
Ġpraes um
Ġvoc ari
stit it
Ġsicut i
Ġpop ulos
Ġserv os
Ġgrat um
Ġfrat ri
Ġdoc uit
ĠLat inae
Ġsaec ula
Ðµ ÑĤ
Ġlong um
Ġtant i
Ġpo eta
Ġmov etur
Ġeffic itur
Ġmand atum
Ġpulch errim
Ġrespond ens
Ġredd ere
Ġgaud ium
Ġnegot io
Ġconsuetud inem
Ġcop ia
Ġinim ic
Ġpuell ae
Ġamb ig
Ġcontem n
Ñĩ Ð°
Ġcael orum
Ġproport io
Ġchr isti
@Ą ą
I C
m ae
u er
v id
Ġ $
Ġs ter
Ġc am
Ġc od
or p
Ġin op
Ġv ade
om m
il itate
ĠE ph
ĠC am
ĠC erte
Ġb ore
ĠP ublic
ect io
Ġtu orum
Ġvel uti
Ġvid imus
ĠL u
ari os
ess et
ĠG uliel
Ġcomm ent
Ġcomm itt
ient iae
Ġnost i
Ġprim ogen
Ġpraes entem
Ġvoc es
Ġiudic are
Ġdes id
Ġ5 7
Ġsent io
Ġserv o
Ġscrib o
Ġviv unt
Ġcar ne
Ġdef ens
Ġtra h
ĠCon sequ
Ġpropr iam
Ġadm ir
ĠPat ris
Ġth at
Ġaudi erit
Ġphilosoph us
Ġexemp lar
ation um
Ġdiss er
Ġepist ula
Ð¾Ð ¼
Ð°Ð ¿
Ġnar r
Ġra dic
Ġir r
Ġpossib ilia
Ġobi ectum
Ġmunicip ium
Ġmend ac
T or
g uis
s on
Ġqu icumque
ur n
Ġf erm
Ġh ave
os a
Ġad t
ot ae
ĠA ch
ĠC el
Ġdic eretur
end os
Ġhab eri
Ġr u
erit as
Ġvol uerit
ĠĠ Ġ
Ġsub l
Ġag endum
Ġist ae
Ġciv es
ĠRoman o
Ġmaior ibus
Ġing ressus
Ġaccip it
Ġsubi ecta
Ġaequ um
Ġluc et
Ġfor nic
Ġantiqu a
Ġphilosoph iae
Ġdiss ensio
ĠAegypt um
Ġhonest e
Ġ/ /
Ġcogno v
Ġiuc undum
Ġcast ra
Ġfig ura
rop ter
Ġpoen am
Ġbenefic ium
ĠMo ys
ĠImper ii
Ġantep on
Ġquadr aginta
ĠMol est
ĠEz ech
6 7
E cce
c it
e us
m ut
v el
Î ·
er ter
in vent
Ġp ign
Ġc ent
Ġd id
em pt
Ġf ont
Ġh ercule
Ġre de
se l
Ġquod cumque
ĠI gitur
ĠC ant
Ġsi g
ĠM us
eb is
Ġquo quo
Ġu ide
Ġu iu
Ġr id
ĠH is
ĠF ab
Ġaliqu i
Ġcons on
ĠV is
Ġun i
Ġint us
Ġnost ros
Ġsim iles
Ġ4 2
Ġpraes enti
Ġput et
ux erunt
Ġdiv in
og allic
Ġcorp ora
rem o
Ġ6 9
Ġrespon de
Ġux oris
Ġduc e
Ġdign a
Ġpet ere
Ġind ivid
An no
Ġfal s
Ġbeat i
Ġvet eres
Ġpossess io
Ġart is
ĠGal li
Ġatt end
Ġalien o
Ġ194 6
Ġsin ist
Ġmerc ed
olog iae
Ġnasc untur
Ġsociet atem
Ġiniur ia
ĠArist ot
ĠAf ric
Ġpereg rin
. :
h n
i k
m p
r ici
Ġ Å
qu ot
Ġs tare
is iones
Ġp ontific
Ġc and
Ġc erta
or am
Ġt ol
Ġf ung
im ini
Ġpr odi
Ġad eptus
il itatis
Ġfac erem
Ġb is
no v
iv o
Ġver sus
Ġvel lem
Ġvid isset
Ġr ob
Ġcons iderat
ĠV ic
Ġint ent
Ġbon ae
Ġven en
Ġmult as
Ġdu abus
Ġmaxim am
entes imo
eli um
ĠÐ ´
Ġten et
Ġ201 3
Ġopp rim
Ġexc el
Ġprincip ia
Ġsanct o
Ġnecess ario
Ġlaud em
Ġsen atu
Ġlong a
Ġpropr io
Ġmun era
ĠGerman ia
Ġdon um
Ġeffic it
Ġfor sitan
Ġfin ibus
Ġcan on
Ġaccep i
Ġdefin itio
ren ae
Ġdis per
Ġlaet itia
ĠEpic uri
Ġno uit
rius que
ĠInfer iori
ĠAquit ania
c ere
e f
e u
r icus
Ġ ë
Ġ Ã¦
Ġs ect
it iones
on ii
Ġt ang
re al
li x
Ġh om
ent iis
Ġre dem
ac ula
il itas
ĠI ap
Ġex aud
Ġper se
Ġill uc
Ġsc iat
Ġquid d
ĠM iss
Ġap t
ĠR hen
ĠV III
ĠEa dem
Ġma iorum
ĠB urg
âĢ ĵ
ig ht
Ġinter esse
Ġres id
Ġpat res
Ġdol oris
Ġ- -
Ġman sit
Ġcommun em
Ġurb icula
Ġciv is
Ġdec ern
Ġ5 9
Ġconf ess
ĠÐ ¾
Ġpers ec
Ġpraeter ita
Ġvide or
Ġconsequ i
Ġpraefect us
Ġduc ere
Ġgra dus
Ġull um
Ġconstit utum
Ġpraedic atur
Ġfaci atis
Ġfaci ebat
Ġquin qu
ãģ ®
Ġaequ o
ĠPh ili
Ġsing ula
Ġperfect io
Ġexemp lo
ĠPost quam
Ġcorr ig
pr oduct
Ġquar tum
ĠIp se
Ġceleb r
Ġpert urb
Ġdev or
ĠEs se
ĠEb or
ĠJoh n
ĠPhaed rum
V III
b est
n de
y m
Ġ ol
Ġ urg
Ġe b
Ġs ag
Ġs imus
Ġs ati
Ġp om
Ġp eperit
on ensi
Ġv ar
Ġl ectus
ab ar
ĠE ius
ĠA ud
ĠS el
Ġdic ebant
itat ione
Ġb l
ĠP al
Ġco h
Ġhab itus
ĠM il
ĠM aced
Ġpot erunt
Ġpro fer
ĠT ert
ĠT orqu
Ġinc on
ĠB er
Ġor ta
Ġres crip
Ġlib erat
eri is
Ġfec erat
ĠIn de
ĠO pt
Ġter m
dic t
ug iat
Ġcomp lect
Ġins ulae
Ġmem ini
Ġsal us
ĠUn ivers
Ġcontr ario
Ġepiscop i
quis que
Ġtur pe
Ġlux ur
Ġbre vi
âĢĻ .
ĠAs s
Ġdivers a
âĢ¦ ]
Ġorb em
Mont real
ĠJes us
poss ibile
Ġvolut pat
Tor onto
G raece
g e
r uc
y mn
Ð ±
Ġs urg
at er
Ġc en
Ġf lor
et um
ar r
id ae
Ġl orem
ac ti
Ġut riusque
il itatem
ĠE quidem
ĠC re
Ġg em
no x
Ġhab entur
ĠM erc
Ġpot ens
Ġpot issimum
Ġver t
ĠH er
Ġer ip
Ġpro i
Ġcons ens
ari orum
Ġma ximus
ĠG rat
Ġacc essit
inc ip
Ġmin orem
ĠO ffic
Ġmult itudinem
rae sent
Ġexp os
Ġciv ibus
Ġnomin ibus
Ġfort itudo
Ġinv estig
Ġiust ific
Ġfrat ris
Ġalter am
Ġaet atem
Ġgra vis
Ġsatis fac
Ġsens ibus
Ġph ys
Ġdiscip ulus
Ġdiscip lin
Ġmater iam
Ġrespond ere
Ġfin es
ĠGal liae
ulg ate
Ġy our
Ġcong ue
Ġfem ina
Ġquaes itum
Ġminist rorum
ĠMich ig
ĠAbrah am
ĠLud ov
ĠLoth aring
5 1
8 0
C on
M ar
a libus
u jus
v m
á ¿
Ĩ ĳ
Ġa ere
Ġp urg
Ġc m
Ġm ari
Ġh eb
id ium
ec c
ent u
Ġut ero
il a
ot o
ĠS a
ĠS us
Ġper i
iss is
Ġcom pon
Ġcons ilia
Ġacc om
ĠB ene
Ġcont ig
Ġcor rum
Ġnum eri
Ġag am
Ġhabet is
Ġdisc ed
Ġconf id
Ġcol or
Ġcert us
Ġform as
Ġnecess itate
Ġreliqu erunt
Ġsup p
Ġdiscip lina
Ġintellig it
ĠCiv itatum
lo ad
Ġcontin et
Ġpac to
Ġobs ec
Ġobs cur
Ġparv ulus
Ġang ust
iret ur
Ġaccid ens
ĠHi er
Ġaug ue
Ġvalet ud
Ġcrim en
Ġflum en
Ġau fer
Ġantep os
Ġabsc ond
ĠVir g
Ġoccident alis
ĠQuir ites
Ġcontum eli
5 3
8 9
D ixit
L ib
o f
Ġ lim
Ġc ave
st i
Ġd abit
Ġm ores
or ta
Ġt ard
Ġi ra
Ġi ratus
ar us
Ġre qu
ĠD isc
Ġdic emus
Ġb y
Ġg essit
Ġeius que
Ġop eris
av erat
ĠR em
Ġam orem
ĠF al
Ġpar iter
Ġpar oec
ĠB on
Ġinter c
Ġar tem
Ġleg imus
Ġdol o
Ġsem in
Ġpu p
Ġ5 1
Ġconf er
ĠÐ Ĺ
Ġ7 6
Ġmat hem
Ġdoc ere
Ġval e
Ġpa x
ĠAr g
Ġsanct ae
Ġtran si
Ġmut are
Ġconi uncta
Ġglor i
Ġexist imo
Ġtrans f
Ð½ Ñĭ
th ag
Ġvult is
Ġamp li
Ġcop iae
Ġcong ru
Ġequ um
Ġaux ili
Ġperven it
Ġmilit es
ĠEpic urus
Ġcontem pt
Ġpraet orem
Ġcael est
Ġty ran
Ġpres byter
ĠAcadem iae
Ġsyll ab
var ic
ĠHelv et
ĠMCM L
ĠUN IT
E T
M an
N unc
O N
P rim
a se
s k
y p
Â §
æ ľ
Ġa ustr
Ġp eper
Ġm o
ur es
Ġv ine
Ġi rac
li go
ib ili
ol it
ĠS il
ĠC ato
ip so
orum que
Ġfac imus
ĠN ap
Ġhab itum
Ġhab ebant
Ġvid ent
Ġid one
Ġim it
Ġpotest is
ĠG a
ĠG u
Ġloqu etur
Ġloqu eris
Ġter ris
Ġsub ito
Ġmult arum
Ġdisc ern
ĠâĢ Ŀ
Ġnomin i
ene x
Ġdec ess
Ġcomp lex
Ġdes ert
Ġocc ur
Ġpublic e
Ġquos dam
Ġ6 0
Ġ201 4
Ġconsequ ens
Ġinven it
ĠAr d
ĠJ os
Ġing red
ĠPr imus
Ġdign itatis
ĠMar iae
Ġstud iis
Ġstud ebat
ĠCon stant
Ġspec iem
Ġfamili as
Ġpraest o
Ġatt ing
Ġmagist ratus
Ġingen io
Ġscript is
Ġdivers is
Ġsociet as
Ġdex t
ĠQuint us
ĠIns ula
Ġcontrovers ia
Ġfra ud
Ġmathem at
( '
G erman
I nt
L at
R es
i atum
s an
Ä ĵ
ç ļ
Ġ um
Ĭ ¤
Ġp anem
Ġn orm
Ġin numer
Ġv ici
Ġt ales
Ġf orum
Ġf undum
et us
ul ch
un icip
Ġut itur
ĠI up
Ġex pon
ĠS ub
Ġdic ti
Ġper dit
Ġill ust
itur a
atur us
omin e
Ġhab ui
Ġver ae
ĠR ec
ĠR eli
Ġma iore
ĠB as
Ġ[ âĢ¦]
Ġreg iones
Ġst up
Ġar s
Ġoc ulorum
Ġsub d
Ġmult itudo
Ġmort is
Ġdom ibus
Ġag unt
Ġrep ugn
Ġded ic
Ġmortu o
Ġcogn itione
Ġ5 2
Ġ5 4
entes que
ĠAt l
Ġinf am
Ġmis erum
isp rud
Ġvest ig
ĠGraec ia
Ġsens it
Ġpet o
Ġsac ra
ĠQuis que
Ġcontin uo
Ġmon ast
Ġmand uc
Ġepist ulae
Ġfaciam us
Ġaff irm
Ġcogno vi
Ġperpet uum
ĠInter rog
Ġnim irum
Ġbened ic
ĠEpiscop us
Ġdioeces is
Ġedit ae
Ġproeli o
ĠEv angeli
ÑĩÐ° ÑģÑĤÐ¸
ĠÐĹ Ð°Ð¿
) :
7 7
A b
V II
c o
h er
v s
z a
² ł
å ħ
ì Ĭ¤
í Ĭ
Ġ ç
it ibus
in os
at ed
Ġm eret
ar y
que b
ab iliter
Ġdic tus
est us
Ġper sequ
Ġprae varic
Ġg raec
Ġco eper
iv us
Ġquid dam
ĠM on
eb ar
Ġu al
Ġop ponitur
ĠH om
Ġinc lud
inc eps
Ġreg ibus
Ġar ti
ap ropter
Ġter min
Ġal bus
esc it
Ġpart is
Ġput es
ern a
Ġdiv inum
Ġrep raesent
Ġdes per
Ġ5 3
Ġplac ere
Ġvis a
... ]
Ð¾ Ð½
ĠGraec orum
Ġnesc iebat
Ġeg reg
Ġdilig entia
Ġ9 8
Ġplur ima
Ġdign us
Ġaccip iat
Ġmed ic
Ġw e
act enus
Ġprovinc iam
ath ed
Ġpon it
Ġtim ere
Ġdiff erunt
Ġult imum
Ġcond imentum
Ġgrav ius
Ġamp l
Ġexemp la
Ġprof ess
Ġnegot ia
Ġaccep ta
Ġpauc a
ĠMos ellae
Ġacced ere
Ġanc illa
ĠAthen is
ĠProp ter
Ġpereg r
ĠPy renae
ĠSocrat es
ĠÐĹÐ°Ð¿ ÑĩÐ°ÑģÑĤÐ¸
²ł ìĬ¤
íĬ ¸
²łìĬ¤ íĬ¸
N isi
S ic
s ic
Ñ İ
å ®
um entis
Ġs el
it le
Ġqu alem
Ġc ras
Ġc amp
Ġv ent
Ġv esc
Ġi act
id ia
oc a
oc r
Ġre di
al itas
Ġcon l
ĠA dam
ĠS int
ĠC a
Ġ1 00
Ġsc ito
ĠM is
arum que
Ġse v
Ġvid entes
av is
ĠF ilium
Ġinter n
Ġor nam
Ġlib era
oqu in
Ġreg ionum
Ġcre ata
Ġar te
ĠIn d
Ġven erat
Ġus ur
Ġvit io
Ġsan guis
Ġded erit
Ġcorp or
Ġcar itate
Ġ7 9
Ġnov it
Ġprov id
Ð° ÑĤ
Ġplur is
Ðµ ÑĢ
Ġintellig itur
Ġem end
Ġtrans fer
Ġfal l
ĠSic ilia
Ġsermon es
Ġprod uct
oth ec
Ġhabe atur
Ġbib ere
Ġvig il
Ġon us
Ġquot idie
Ġingen ium
Ġaux ilio
Ġorient ali
Ġnonn umquam
Ġhistor iae
Ġdia b
ĠAtt ico
Ġrelic ta
Ġsil v
ĠScip io
PD F
Ġline a
Ġoccident ali
ĠLig eris
Ġlign um
Ġinn oc
Ġprodi erunt
Ġë ²łìĬ¤íĬ¸
ĠLotharing ia
Ġaustr alis
5 5
I tem
O R
T he
e z
x i
Ã ²
Î ¼
Ñ Ĩ
Ø ±
á º
Ġ ul
Ġs ursum
Ġc ed
Ġn a
Ġn ullius
Ġin u
Ġin ut
Ġv esper
Ġi un
ar emus
Ġquae sumus
rat ur
ĠP os
ĠN az
uc h
ĠM or
Ġpot ero
Ġab b
Ġvid erit
Ġu era
ĠL ond
ĠR ub
Ġpar iet
Ġcons ue
Ġmod erat
00 3
Ġvir orum
Ġaud io
ĠU r
Ġprim ae
Ġmagn itudine
Ġdu orum
Ġdeb eo
res sum
Ġag rum
Ġcap i
Ġiur isprud
itud ines
Ġdes ertum
Ġ200 5
Ġnov em
Ġfam a
Ġind ustr
Ġw h
Ġw as
Ġ| |
Ġpraedic antur
Ġlat inam
ĠCaes ari
ĠFoederat arum
Ġth is
Ġperfect ionem
Ġquaest iones
Ġeffic ere
Ġconsul es
Ġgaud eo
Ġunus quisque
Ġlabor avit
Ġsept u
Ġ194 5
Ġvideb itur
Ġpossid et
ãĢ Ĥ
Ġtestam ento
Ġangel us
201 5
Ġmemb ra
Ġpraecl are
Ġpap a
Ġthes a
8 4
I N
P age
U M
c uius
p sit
t t
Â °
Ñ Ī
à ¤
Ġs enex
in orum
Ġp unct
on y
Ġc are
Ġd ari
Ġin an
Ġv ias
Ġv ariis
Ġt ulit
Ġi uli
en as
es ima
unt ia
ar it
ec i
ul atus
Ġpr em
Ġpr ol
Ġre dit
ĠI ov
ĠA qu
ĠD es
Ġb as
rat i
quam ur
Ġhab erem
iv am
Ġpot erant
und is
eb itur
Ġvid etis
Ġop eri
av imus
ĠF r
ĠF orm
ĠT ub
Ġcons id
Ġcons pic
Ġcont entus
Ġcomm ov
Ġpat itur
Ġst atum
Ġloqu ere
Ġsp ons
Ġoc t
le v
Ġimp on
Ġcuius dam
Ġas pic
di et
Ġopt imus
Ġinven erunt
Ġ8 0
Ġeg ressus
Ġ12 9
Ġdign itatem
Ġaccip iunt
Ġpertin uit
ĠUn um
Ġaper t
Ġcontr arium
ĠSanct o
Et iam
Ġmov et
ard in
Ġphilosoph i
Ġaetern itate
Ġnol o
ulp a
Ġart ic
Ġclar itatem
ĠCar olus
Ġproxim um
ĠAut em
Ġingen ii
Ġinim ici
Ġ199 9
Ġmar t
Ġfortun ae
Ġasper iores
Ġment ionem
Ġplen um
Ġconsec utus
Ġorb is
com p
ï¼ Į
Ġgrad u
own load
Ġaccur ate
ĠAtl ant
i ani
l at
o us
u ia
å ı
Ġ à«¨
Ġm ass
Ġin esse
ic ia
Ġv ulp
ut h
ut ionis
Ġf as
li ane
en i
Ġl arg
ĠE lis
Ġex itum
ĠS ap
ĠD ion
Ġdic es
Ġper v
ist ae
ili am
Ġsed ul
Ġhab entes
eg o
Ġsc i
ĠM el
Ġca li
ĠT re
Ġtemp est
Ġmod is
Ġsec utus
Ġst ell
ient er
Ġven io
ĠO c
Ġdeb uit
Ġrat ionibus
Ġist uc
Ġiudic ii
Ġdiv inae
Ġcogn itio
Ġpublic um
Ġviv endum
Ġdicit is
Ġmor itur
Ġfi x
Ġcae ter
Ġj uxta
Ġimper diet
Ġnecess itas
Ġvirtut i
Ġpul v
Ġoper atus
tr ue
Ġvult us
ĠReg num
Ġhabe amus
ĠGal lia
Ġhost ium
Ġsimil itudo
Ġpugn a
Ġaccid erit
âĢĻ ,
Ġuid etur
Ġson um
Ġscriptor es
Ġsch ola
Ġscel ere
Ġvac ua
ĠIoseph us
Ġbest iis
Ġecclesiast icae
Ġau f
Ġappar uit
Ġconclus io
Ġuir tut
Ġpercip i
ĠInfer ioris
Ġmisericord iam
Ġintr od
?? ??
Ġdexter am
Ġperhib eret
Ġmatrim onium
Ġcord is
Ġarchiepiscop us
invent ory
ĠBurg undia
Ġaccom mod
çļ Ħ
. Â»
S c
i ata
n g
s ur
Ã ±
Ġ `
Ġs ab
Ġs ta
Ġp ur
am a
am enta
Ġd imis
em a
Ġm ob
or k
Ġt el
Ġi ung
Ġf il
Ġh er
Ġh ii
Ġh actenus
Ġad ept
ĠE sa
ĠC oll
Ġdic etur
Ġali arum
Ġfac illim
Ġg ess
ĠM er
Ġab omin
Ġer ub
Ġaliqu os
isc ere
ĠG o
ĠB ab
Ġinter dic
Ġreg ula
ro nt
Ġprim i
Ġnos met
Ġag i
Ġpraes c
Ġvoc at
Ġput are
Ġtabul ar
Ġcur r
Ġcap iunt
Ġexp l
Ġciv ili
Ġeccles ie
Ġnomin avi
Ġinv enta
Ġnot itia
Ġcred id
Ġpraeter ito
Ġ6 6
Ġopp ort
Ġval ere
Ġvest ibulum
ill us
ĠAd m
ĠX I
ĠX II
Ġcet er
Ġconi un
Ġod ium
Ġadi ung
ric es
ev o
ang u
Ġantiqu ae
Ġbeat am
Ġexplic at
ĠIos ue
ĠCat il
ĠIudae i
Ġaur es
ĠPom pon
Ġle vis
Ġmilit ibus
ĠVen et
ĠCl aud
ĠPot est
Ġtribun alis
Ġimagin es
ĠIust o
ogn osc
Ġder el
Ġcompet it
ĠIoh annes
rinsec us
Ġiurisprud entiae
8 5
A m
d es
f ex
h uc
i Ã¦
l er
l ine
n er
r id
r oc
s unt
u atur
v erit
v ille
Ù Ħ
å Ī
Ġ osc
Ġe unt
in k
in ii
nt abul
ae qu
ae que
ic ere
Ġv ect
Ġt ellus
en ae
Ġh eri
os se
ec erit
ul aris
Ġre nunt
Ġl us
ĠE os
Ġex itus
Ġfac ite
iss ae
Ġver am
Ġvid ens
Ġvid eris
Ġvid endum
Ġvid ete
Ġr is
Ġr ust
ĠL ong
ĠH inc
Ġne pot
ĠF inn
ĠT ibi
Ġcons u
Ġcons crip
Ġpl or
Ġinter fect
Ġor ator
eri es
Ġpost er
Ġmult orum
ĠU s
Ġag imus
Ġag ri
Ġsuper ius
ali z
Ġis dem
Ġconc lud
Ġdie i
Ġdicit e
Ġ6 3
ĠIta liam
Ġexc og
ĠGraec a
Ġux ori
Ġaet as
Ġext ran
Ġoffic ii
erb a
Ġexerc it
Ġreliqu is
Ġfut uri
Ġspec ia
Ġfal lac
Ġbe ate
ĠGerman icus
Ġtrib ul
Ġauctor itas
ĠÃ ł
ĠAnt onius
Ġcal c
Ġhuman itas
Ġproxim e
Ġmeli orem
ĠSpir itu
ĠHi erusalem
Ġutil itatis
Ġscrips isse
Ġsust ent
Ġrefer re
Ġsaep issime
Ġturp is
Ġret t
Ġfacult atem
Ġdatur us
Ġschol am
Ġperspic ere
Ġabsc on
Ġinterf uit
ĠFret o
àµ į
ĠAntioc h
ĠPhili pp
Ġarti fex
ĠDion ys
C ar
d isc
m ent
p it
s ch
é ĭ
Ġe quit
Ġa e
Ġs urre
Ġqu icum
Ġp end
Ġp urus
Ġn ationes
em ent
en ique
id is
Ġsu ad
ĠE o
ĠA v
Ġquam uis
ĠC aec
ĠC ast
ter um
Ġprae tere
itur g
ra que
Ġpos uere
ĠM ort
Ġpot uerit
eb untur
ita vi
Ġr isus
Ġr hon
Ġsit us
av a
ĠF lor
ĠF ilio
Ġsol ebat
ull a
Ġbon am
Ġreg im
Ġnost rorum
Ġleg o
Ġleg ata
Ġ19 18
Ġman uum
Ġann us
entia s
Ġvoc atum
Ġcur am
Ġexp lor
Ġexp edit
Ġeccles iarum
Ġdec imo
Ġtot us
eli x
Ġinv entum
Ġmaior i
Ġpraec eper
Ġcar m
Ġsign is
Ġ7 5
Ġvide os
Ġprob arent
Ġ8 9
Ġfr om
ĠQuae dam
Ġdilig entissime
Ġvic tus
ĠEx erc
Ġbell a
Ġsac ri
Ġmuli eris
Ġimm ut
ĠSanct ae
Ġepiscop o
Ġmov eri
Ġult ima
Ġconven iat
Ġsing ulos
ĠPl anc
ĠPl ato
Ġpulch rum
Ġaetern am
Ġref eruntur
Ġredd et
Ġprom itt
Ġdep rec
Ġbre vis
Ġaccid ere
Ġdesc rib
ĠMag ni
Ġlac inia
Ġiac et
Ġfoed eris
ĠPrim o
opt ion
Ġment itum
ĠCl od
ĠBritann ia
Ġprud entia
Ġsangu ine
Ġaeg rot
Ġvictor ia
ĠComm un
ĠIst e
Ġdiscess imus
eunt e
Ita liane
Ġnex us
Ġperfer endis
Ġquint o
atto os
ĠEnn ius
ĠGuliel mus
6 4
A R
C or
I o
N ec
S t
T emp
b um
n iae
p end
Î ¯
Ġ \/
er io
in ati
Ġqu ales
at as
on ec
Ġm edit
ut ate
Ġf erunt
Ġf ert
Ġf oris
op ere
ĠS at
ip at
ĠQu os
ĠN or
eg it
ost oli
Ġquo libet
Ġposs emus
Ġab est
Ġop es
av eris
ult ur
emp e
Ġaliqu ae
Ġvol ui
Ġacc eperit
ĠB av
ĠB ellum
Ġor itur
eri que
Ġleg ati
ven it
abul a
Ġter re
ire nt
Ġaud ita
Ġaud itum
Ġscrib endi
ĠCh al
tin am
Ġ7 7
Ġins ulam
Ġmat re
Ġmat ris
Ġ201 5
up id
Ġinven iuntur
Ġred dit
ĠIs a
Ġduc es
ill is
Ġdilig ere
ĠPr incip
Ġ12 0
Ġvic t
Ġcognosc itur
Ġmil le
Ġfact urum
ĠPh ilosoph
Ġantiqu os
Ġhabe as
ĠId us
Ġcop iis
Ġpauc i
Ġopin ione
Ġpuer os
ĠHispan iae
Ġiac ulis
Ġoff end
Ġrel ati
Ġbened ict
ĠEpiscop i
Ġir asc
Ġort us
Ġov es
Ġoccas ionem
ĠZen onem
ĠÐ¿ ÑĢ
Ġoccurr it
Ġinsip iens
ĠFort asse
Ġdiut ius
ĠPor ro
ĠThom as
Ġmendac ium
Ġredem pt
ĠâĢĿ .
unicip ia
Ġvulp utate
5 2
C om
E N
M ag
P h
a uit
o od
u at
Ã İ
Ð ·
Ù ħ
æ Ĺ
it etur
us ta
in io
Ġp are
on ice
Ġc epit
Ġn ou
Ġd iam
Ġm os
or io
Ġin itium
Ġt w
en um
es is
id am
Ġad im
Ġad ol
Ġl ug
ac um
il eg
ot am
al itatem
Ġex cip
Ġex ilium
ĠC ali
ĠD an
ĠP ont
Ġg e
Ġg ens
Ġco el
Ġhab erent
Ġsc itis
Ġpot uisse
Ġver i
Ġver ec
Ġr idic
Ġam en
Ġam bit
ĠF ilii
Ġma er
ĠG ab
Ġcont urb
Ġcomm erc
Ġinter im
Ġfu imus
Ġst atus
ient ium
Ġloqu atur
Ġquis quis
Ġput em
ali ae
Ġsent iat
Ð° Ð»
ĠLat inum
Ġvest ris
Ġ8 6
enti arum
reh endi
Ġtran sit
Ġius su
Ġdilig entius
Ġintelleg it
Ġsaec ulorum
Ġaccip e
Ðµ Ð»
Ġconstit ui
Ġpropr iae
ast is
âĢĿ ,
Ġpon d
Ġexs p
Ġunivers is
Ġantiqu is
Ġaudi erunt
Ġrespond erunt
Ġconsuetud ine
ĠNov i
Ġopin io
ĠPa ulo
Ġexspect o
Ġiniqu itatem
Ġquat enus
Ġtem pt
ĠUrb es
Ġfel is
Ġha eret
Ġdia lect
Ġdepos itum
Ġpros unt
ĠSim iliter
Ġspect at
Ġextrem a
Ġmisericord ia
Ġpraecept is
Ġincred ibile
Ġmira retur
Ġexcel s
ĠSel ectae
ĠBer ol
Ġsedul itatem
Ġrhon cus
' s
8 7
R om
S T
b erg
c on
Ã º
Ġs eg
in ius
am in
am ini
Ġc ense
Ġd isi
Ġt et
Ġt ul
ut am
Ġi ei
li qu
im os
os um
ul pt
ul ari
Ġad esse
ac ulo
el op
Ġde est
ĠI X
ĠA ur
Ġex h
ĠC red
Ġdic enda
Ġfac inus
ĠP D
Ġco erc
iss us
Ġvid isti
ĠL am
ĠH anno
ell is
Ġam is
Ġpag inam
ĠT ri
ĠV erg
ĠV ultur
Ġsol emus
Ġacc eperunt
Ġcomm odo
Ġsec ret
Ġreg ionibus
Ġcre de
les imo
Ġloqu endi
Ġloqu aris
Ġmagn is
eret is
Ġquem que
Ġag ric
Ġac quir
Ġeam que
Ġrem itt
Ġmal orum
Ġdiv es
Ġpop ulorum
Ġserv are
Ġten u
Ġmis eri
Ġ6 5
... )
Ġrespon di
ĠAr ab
Ġquaer eremus
Ġplur imi
Ġdign i
Ġlaud e
Ġfact is
if y
Ġadm odum
Ġsermon is
Ġexs ist
Ġconven iunt
Ġeffic i
emb er
Ġobs c
Ġsecund am
Ġparv um
Ġindic ia
Ġequ us
Ġinim icus
Ġmar itus
Ġgest arum
Ġsor orem
Ġmulier ibus
Ġaffect um
Ġvere or
Ġparent ibus
Ġpraesid io
Ġmus icae
Ġgenerat iones
ĠImper ium
ĠPompe ius
ĠOr din
Ġtabern aculum
Ġsangu inem
Ġhabeb is
Ġitin ere
ĠDixit que
Ġib idem
ĠLingu a
Ġnig rum
ĠHen ricus
Ġomnipot ens
Ġferm entum
ĠMolest iae
Ġdid ici
Ġsati et
Ġmeret ric
Ġiei un
6 9
I d
g ypt
h el
i erit
p ere
t ol
w e
Ð ³
Ø ª
â Ĩĳ
Ġe un
Ġe uis
it are
on dam
Ġc iu
or o
Ġt ent
Ġi f
Ġf unct
Ġest is
od e
id us
Ġpr idem
Ġl ep
ĠE li
Ġcon j
ĠI udic
Ġex im
ĠS T
ĠS er
ĠS ar
ĠS PD
ĠC ass
ĠC aus
Ġdi rig
Ġill as
Ġsed em
Ġcom edit
ĠL ic
ĠH a
ĠR ex
ore et
ĠT en
ĠT ra
Ġaliqu ibus
Ġess emus
ĠB a
Ġor o
ran g
Ġcor da
Ġant ec
Ġmult itudinis
Ġimp le
Ġcuius cumque
Ġdeb es
Ġtr in
Ġ200 2
Ġ5 5
Ġconf und
ĠCh ana
Ġpublic o
Ġplac erat
Ġmis era
Ġnov ae
Ġsap ere
up ta
Ġpa ulum
Ġprincip ibus
Ġ8 5
Ġintelleg itur
ĠEccles iam
Ġstud iorum
Ġsup pon
act io
Ġglor ific
": [
Ġaqu arum
Ġquin ta
Ġdisp ens
Ġoper atur
Ġpon ere
Ġpon itur
crip tum
Ġnoc tem
Ġdon a
Ġvult um
Ġcond idit
Ġarg entum
ĠReg ni
Ġmiser os
Ġredd idit
ĠGal lic
Ġincip iunt
Ġopin ionem
Ð°Ð ·
Ġscript ura
Ġarbitr ium
Ġaur ibus
Ġperd uc
rent ur
De us
Ġpraem ium
Ġhistor ia
Ġpoen it
Ġsuffic it
Ġoperat ionem
Ġconcess um
Ġimperator is
ĠXV I
Ġpraepos ita
Ġinqu antum
Ġuit a
Ġmerit o
Ġstip ul
ĠTar rac
Ġedic tum
ĠAmeric anus
Ġcit ius
Ġresurre ct
ĠÐ½ Ð°
ĠBel g
Ġtranse unt
Ġcentes imae
German ice
Ġseptu aginta
ĠBab yl
Ġeuis mod
, [
k r
o ut
p iter
x erit
Ġa f
us a
Ġc athed
Ġn atae
ae t
ae us
Ġv arius
Ġt ort
re tum
om e
es ne
Ġh end
an ne
Ġad j
Ġre n
Ġl up
il d
Ġde g
Ġde pon
ĠS atis
Ġdi is
Ġme h
Qu o
ĠP op
ect is
Ġquid que
ĠM ess
Ġab st
Ġr ub
Ġr het
ĠH ort
ĠH eli
ell am
ult um
ĠF rat
Ġpro ut
Ġpro inde
ĠT r
ĠT im
Ġinc end
Ġvol ebat
isc e
Ġcons ilii
ĠV oc
Ġpotest atis
ĠG re
ĠB onum
Ġprop ius
Ġeo que
Ġ[ ...]
Ġanim arum
Ġcre avit
Ġar mis
ient is
Ġleg itur
ĠO st
Ġloqu eretur
Ġsub j
esc ere
Ġimp rim
Ġcommun iter
Ġag at
Ġvoc ibus
Ġrem iss
Ġciv em
Ġciv ile
Ġiur i
ĠQuid quid
Ġmortu is
Ġdes unt
Ġcogn ita
Ġsent iam
Ġsent entiis
Ġfort is
Ġocc idit
Ġscrib erem
Ġcorp oribus
ios is
ret iva
Ġcl aud
Ġins c
Ġ6 1
Ġvide amur
Ġmolest um
Ġprob atur
Ġvest ram
Ġ9 9
Ġdign itas
Ġsapient em
Ġappell ant
Ġsen ator
Ġlong us
Ġ14 0
Ġproc ess
Ġintellig entia
Ġmens a
Ġpecc ato
Ġsignific atur
Ġost ium
ĠIo ach
Ġdist rib
Ġluc e
Ġdon avit
Ġprod esse
Ġref orm
Ġhuman ae
Ġsimil em
Ġmagist ri
Ġsucc essor
Ġconv al
ĠLib er
Ġquodam modo
Ġped ibus
Ġeven it
ĠIacob us
Ġpret io
Ġvinc it
Ġhi em
Ġdiffer entiae
Ġasc endit
ĠPompe i
Ġdoctr inam
Ġvocabul um
Ġnem ini
ĀĀ ĀĀ
ĠVolupt atem
ĠSu ec
Ġservit utem
ĠDiet ae
Ġbore ali
ĠAristot eles
Ġantepos uerit
ĠEsa u
disc retiva
ĠHanno ver
ĠChana an
6 3
C o
E ntabul
M a
O L
P ater
b r
h inc
s am
v ariant
Ï ħ
å ľ
Ġ !
Ġe idem
Ġs ax
Ġp oll
on ibus
em in
ic tum
re pt
om an
im enta
ia re
ol ite
ĠA et
est a
ĠN ob
ens us
Ġhab uerit
Ġcom per
Ġvel int
Ġvid ero
Ġu ere
ĠH ung
Ġer os
ĠR ect
ĠG ad
Ġsec uri
Ġven iret
isi i
Ġsp oli
esc unt
Ġnatur ale
Ġcommun ibus
Ġrat ionis
Ġpart ium
cip it
Ġmal itiae
Ġrep ut
Ġmaxim o
Ġmagis que
Ġsent it
Ġocc isus
Ġgrat issimum
Ġinf eros
Ġfid el
Ġmis erunt
Ġpers onis
Ġ6 8
Ġmor iens
Ġnov issimo
iens es
Ġval eat
ĠGraec ae
Ġeg it
Ġeg ressi
Ġquando que
Ġsaec ulis
Ġfut uro
Ġ15 0
ĠX en
Ġw eb
act is
Ġsen atum
Ġ11 9
Ġmil es
ĠBr utus
Ġpecc are
Ġlat ina
ãģ Ħ
ĠQuis quam
Ġsignific ant
Ġsoc iis
Ñģ Ðº
Ð½ Ð¾
Ġadi unct
ĠIo as
Ġluc tus
Ġfer endum
Ġexplic ari
Ġch ar
let um
ĠCur abitur
Ġaccep isse
Ġsept entr
Ġhost ibus
Ġdelect at
Ġvig esima
Ġsalut is
ĠMag na
Ġquot iens
ĠIudae os
Ġfur or
Ġfur tum
Ġmitt o
Ġterr itor
pr op
Ġson us
Ġinterrog avit
ĠAugust us
Ġcens es
ĠMos en
Ġnonn ulli
Ġfacilis is
Ġfest in
Ġhabitat ores
Ġpraet ore
Ġincom mut
Ġcomprehend erunt
Ġcec idit
Ġcoep i
Ġsustin ere
Ġpisc es
Ġele v
ĠCont ra
ĠVest ibulum
Ġtrium ph
Ġflag it
ĠCirc a
Ġabsur dum
Ġobsec ro
ipat et
ĠTarrac onensi
7 8
C an
C ap
G en
O X
S al
e ff
f l
n ec
n ia
p ost
r erit
Ã §
ä ½
æ Ī
æ ĸ
Ġ #
Ġ >
Ġ ~
er amus
Ġa str
Ġs ord
Ġqu endam
Ġqu ondam
Ġp est
Ġc Ã¦
Ġc erv
Ġd ant
Ġd aemon
ic k
ic iam
ic ulo
Ġt end
et i
ar am
an as
ib iles
oc t
Ġut er
ion alis
il v
ĠE m
Ġcon uen
Ġex stitit
ĠD iv
Ġme arum
Ġdic et
Ġdic erem
Ġb o
ĠP oss
ĠN obis
ens ium
Ġhab uerunt
uc hi
ĠM D
ĠM ass
Ġap ta
Ġver is
Ġu ult
ĠL aced
ĠH ae
ĠH omin
ĠH unc
Ġinc ogn
ĠV t
Ġpl ag
Ġpl erique
Ġlib entius
ient i
Ġus quam
Ġincol um
Ġag untur
Ġac quis
Ġpraes entibus
Ġvoc antur
Ġexp ul
Ġiur id
Ġdisc rim
Ġapp os
Ġconf ite
ĠÐ ¼
Ġeis dem
Ġpraeter mitt
Ġneg are
Ġcae lis
ĠAr t
Ġsumm e
Ġsal vi
Ġfug ere
Ġimper atore
Ġ9 0
10 88
Ġhum ani
Ġfut urus
Ġign em
Ġcet eros
Ġ14 9
Â» ,
Ġmun eribus
if end
Ġost endere
Ġthe olog
ĠIo annis
Ġcond itum
Ġauctor es
Ġcel er
Ġart es
ation alis
Ġprof essor
ĠPrae sent
Ġdiss ol
Ġnegot ii
ĠSc io
Ġdict ae
ereb at
ĠPer ipatet
Ġmitt ere
Ġsucc ed
Ġsin u
Ġscrips isti
Ġcast ris
Ġhered em
Ġprophet a
ĠDol or
Ġdiffer entiam
ĠCor ne
Ġta libus
Ġjust o
Ġstult us
Ġamb o
Ġsep ultus
Ġanc illam
Ġanc illae
Ġx x
ÏĦ Î¿
Ġort um
Ġcad ere
ĠSuper ioris
Ġur na
Ġfiduc iam
Ġele ifend
ĠCicer onem
Ġlig ula
Ġfruct u
Ġconsist it
Ġgr and
ogallic e
Ġsinist ram
ĠIup piter
Ġhend rerit
ĠLaced aemon
I l
P l
T h
V ol
c em
c unque
j a
o z
r arum
t itle
u ad
Ġc anc
ae v
ae ter
em iae
Ġm it
Ġm aris
or us
Ġin j
Ġin l
Ġv endit
Ġi ug
re v
Ġf ict
om ach
ar on
Ġpr Ã¦
ol d
Ġad p
Ġut endum
Ġde inceps
Ġdi rect
Ġper ag
ĠP u
ĠP ac
ĠQu apropter
Ġco ha
ĠN ic
ir o
iss o
Ġr ursum
ĠL us
ĠH e
ĠH erm
Ġpar a
Ġpar em
Ġpar ata
Ġcons oc
âĢ º
ig it
Ġfili as
Ġlib id
Ġbon os
Ġst ir
Ġst rep
Ġmin ores
Ġmin imum
Ġleg ato
Ġaud iunt
ĠU tinam
Ġcaus arum
ii i
Ġdeb eant
Ġvit uper
Ġput andum
Ġist orum
Ġtabul arum
Ġrem ot
Ġcap ta
ux i
Ġdiv inam
Ġdec ima
Ġscrib as
Ġsequ atur
Ġcar ere
Ġpraeter itis
Ġrespon s
ino esiae
Ġsumm i
ĠGraec o
Ġnesc imus
Ġquaer enda
ĠIs ra
Ġdilig at
Ġdilig unt
Ġrei ecta
Ðµ Ðº
ĠEx c
Ġ15 9
ĠUt rum
Ġmens ibus
Ġpul s
Ġregn avit
Ġmet rop
Ġdet er
ĠReg ione
Ġpossess ione
Ġphilosoph orum
Ġinstit utum
Ġexemp l
Ġexemp lis
Ġcogitat iones
ĠIll inoesiae
Ġhuman is
Ġhuman itatis
Ġcan is
Ġdict is
Ġerr ore
Ġsex to
Ġdiffic illim
Ð¾Ð ¹
ĠIos iae
Ġmeli ora
Ġlibert ate
ĠAs ia
Ġequ o
ĠHispan ia
Ġson o
Ġsy n
Ġturp ius
Ġcreatur ae
Ġprophet ae
ĠCor p
Ġcapt us
Ġsusc epit
Ġadv entum
Ġbest iae
Ġbenefic io
ĠSal v
Ġot ium
Ġquaerit is
Ġinfin ita
Ġbrev iter
Ġiuv ent
ustra li
ĠDem ocr
ĠSequ anae
Ġspecie i
Ġauct ore
Ġpas sus
ĠAustr iae
ĠAss yri
Ġcali dum
ĠPD F
Ġeun uchi
1088 36
6 2
6 8
= =
A C
A N
D U
D ol
I am
O V
b e
b l
h oc
h ac
h ab
l t
s erunt
u k
z i
Ã ¥
Ï Ĩ
ç Ķ
Ĩ gypt
Ġs inc
am e
Ġn is
st em
Ġd ere
em ini
Ġm orem
Ġm enti
Ġm ix
Ġt or
ut iones
Ġf us
li othec
en is
Ġh ist
et t
Ġpr ior
Ġad uers
Ġre us
Ġre st
Ġl es
ab itis
Ġut raque
ĠI deo
ĠC r
ĠC y
ĠC as
Ġali bi
Ġfac iens
Ġprae pon
rat io
ens ibus
Ġpos ui
uit u
Ġsc ulpt
ĠM ur
aec enas
Ġ( ...)
Ġvid erentur
ĠL itter
Ġpro u
Ġpar atus
ĠT ib
Ġinc or
Ġinc ertum
Ġqua erunt
Ġsol es
ĠB OX
Ġcont ul
Ġinter sit
Ġres pectu
ri i
ire n
Ġal lig
Ġdu p
Ġdeb it
Ġnull ae
Ġvoc ati
Ġtr ip
Ġrem ed
Ġrem ov
Ġmal us
Ġamic itiis
tor es
ici endis
Ġ5 8
Ġrec essit
Ġrec ognosc
Ġmol lis
Ġgrat a
Ġdel eta
Ġlab orem
Ġprov oc
ill o
Ġsanct is
ass em
Ġaccip itur
Ġreliqu i
ĠEx emp
Ġign omin
act ae
Ġsubstant iis
Ġpraedic ta
Ġ10 9
Ġlat ere
ãģ §
Ġ16 9
Ġtim ore
Ġaedific avit
Ġadi ut
Ġult rici
Ġconsul atum
Ġphilosoph ia
ĠÃ Ĩgypt
ĠAnt e
Ġdep ut
Ġrecip iunt
Ġmagist rum
Ġiuris dict
Ġpropri is
Ġaccid entia
Ġlibert atis
ĠMag ister
Ġdefin it
Ġmar it
Ġconiunct io
yr r
Ġrelig ionis
Ġvideb antur
Ġsociet ate
ĠNull am
Ġquaes ita
Ġgener ale
Ġjust itiam
ĠEn im
ĠAng liae
Ġvend idit
Ġrelic tum
Ġiucund ius
Ġincom mod
ices imo
Ġturb a
Ġcec iderunt
Ġcot idi
ĠMult i
Ġventur a
Ġtrist itiam
Ġauct orem
Ġdifficult ate
hop ify
ĠBe atus
ĠCamp ania
Ġbr ach
Ġmeridi em
Ġsag itt
ĠPyrenae orum
ĠAtlant icorum
éĭ ¼
Ġultrici es
6 1
7 3
A L
I ron
V ulgate
b er
f orm
m ag
p rae
p ublic
y th
´ ì
Î ¬
Ñ Ħ
Ġe quis
at enus
Ġm ig
Ġv illam
Ġv ires
ut er
Ġf ul
Ġh erb
ar ias
id io
ec un
ib ilem
Ġad nunt
ed e
Ġl una
ac umque
Ġut ilia
el uia
Ġde a
Ġde esse
Ġde orsum
ĠE d
ĠE am
ĠE orum
ĠS atur
ĠS ine
ĠS cript
Ġ1 12
Ġdic eres
Ġb ov
atur ae
ĠN a
Ġips as
Ġop pon
ĠR ob
Ġca dit
ĠT ol
ĠT est
isc o
Ġpl erisque
Ġacc edit
Ġcomm or
ĠEt si
Ġlib ere
Ġdix erimus
inc ta
ri que
Ġnost ras
Ġ19 19
ĠO ri
Ġloc orum
Ġal tare
Ġsub ic
Ġsub lim
Ġdom ic
Ġcommun es
Ġdeb eret
Ġvoc as
Ġput atur
Ġurb ana
Ġcap ita
Ġapp rob
itud ini
Ġdec ed
Ġact is
Ġinv as
Ġlitter am
Ġcred idit
Ġcred iderunt
Ġpraeter quam
Ġ6 7
Ġ201 7
Ġ201 8
Ġopt ima
Ġprob ari
Ġprincip iis
Ġdilig entiam
Ġ9 4
ĠChr ys
Ġsapient is
Ġmut ari
Ġhon oribus
ĠX XX
Ġaed ibus
Ð¸ ÑĤ
pos uit
Ġem an
Ġmil lesimo
Ġaper ta
Ġliber orum
Ġaequ alis
Ġaedific ia
Ġadi uncta
crip ta
Ġpraecip io
Ġeffic iunt
Ġtrad itum
Ġconsul em
Ġscire t
Ġphilosoph is
Ġaetern itas
Ġspir it
Ġref ertur
Ġcal um
ĠAli quid
Ġhuman itate
Ġdil uv
Ġhost em
Ġreper iuntur
Ġproxim i
Ġlibert as
Ġ194 7
ĠHi erem
Ġhabit are
Ġsententia s
Ġhered itatem
Ġfabul ae
Ġtut el
Ġla oreet
Ġtem ere
Ġargum enta
ĠDol ab
ĠDol orem
Ġcapt iv
Ġcondic io
Ġpraesid ium
Ġfrequ ent
Ġpert ineat
ok s
ĠSal om
Ġconcess a
Ġobl itus
Ġvocabul a
itter et
Ġpaenit entiam
Ġdecre tum
ĠSem per
Quam quam
Franc ogallice
enc ia
ĠSax oniae
ĠAem ilia
Ġillumin at
ĠMoys es
Ġnorm am
Ġsacri fic
Io annes
Ġadol esc
" ;
' ;
1 000
A p
A nt
C ic
D P
E r
H X
O r
b is
e y
e amus
e fac
r iae
v imus
w w
Ã ¹
Ä Ļ
Ù ĩ
Ġ ÑĤ
qu ia
it et
Ġp us
Ġp anis
on ias
Ġn ox
Ġn au
ae i
st or
Ġin sequ
ur ia
ur arum
Ġt eg
Ġi anu
Ġf ov
Ġf ate
om a
es i
im as
Ġh il
ul d
ul are
Ġpr ist
Ġpr av
el unc
ot t
Ġde stit
ĠI us
ĠC ain
ag og
ĠD rus
Ġali unde
Ġali oquin
ĠN eg
Ġpos uerunt
Ġsc iunt
ina vit
Ġu est
ĠL oc
ĠH istor
ĠR est
Ġam ari
Ġinc lin
Ġsol eo
.. ...
Ġacc um
Ġres c
Ġreg ina
Ġfec erim
Ġvir go
abul um
ĠO I
ĠO l
Ġsp elunc
Ġaud isset
Ġmult itudine
Ġob v
Ġmagn itudinis
Ġcuius libet
Ġnatur aliter
Ġdeb itum
Ġag as
Ġvoc um
Ġpec ora
Ġcur sum
Ġcap iat
Ġdiv itiarum
og le
Ġdec ret
Ġdec lina
ĠQuod si
Ġserv is
Ġel abor
Ġnot itiam
Ġ7 1
Ġ7 3
Ġ7 8
Ġcred ibile
Ġdef endere
Ġopt imi
Ġpraefect ura
Ġmolest us
Ġprob ata
Ġinven iri
Ġred ire
ĠAr c
Ġvest ro
ĠGraec us
Ġtest es
ĠAd huc
Ġcognosc i
Ġappell avit
Ġunde v
Ġconi ur
Ġstat ua
Ġpraedic atum
ĠBr ute
Ġmov eatur
Ġvet erum
ĠEst ne
Ġhabe atis
Ġnol uit
Ġinstit uta
Ġperson arum
Ġbib it
Ġclar a
Ġang eli
Ġsex aginta
Ġcop ias
Ð¾Ð ´
Ġ< /
ron ae
Ġhabit ant
ren s
ĠAugust inus
Ġveh icula
Ġdam num
urr it
Ġfabul am
Ġperven ire
Ġtut o
Ġarc am
Ġperpet uo
lac k
Ġpostul at
Ġitem que
ÐµÐ ¼
Ġcant us
ĠCal v
ĠMat er
Ġapostol ici
ĠAf rica
Ġsomn o
Ġschol ae
Ġindign um
Ġpeculi o
Ã« l
Ġdivid itur
Ġoctav o
Ġirr itum
Ġpign us
Ġmerced em
ĠArd uen
cuius que
ĠIov is
Ġconsu libus
Ġrelati ue
ĠCali for
ĠBerol ini
ĠIsra Ã«l
. ;
5 4
A ct
H odie
I ll
K i
M unicipia
V ariant
c id
d iv
i enda
l ent
p iam
p ro
p ectus
s h
Ã »
ç ´
Ġ è
um enta
Ġa em
Ġa ustrali
ae um
Ġd arem
Ġm ur
Ġm asc
Ġm ach
ur s
Ġv ali
Ġv aria
Ġv ariant
Ġt un
Ġi ri
Ġf ertur
Ġf ront
es que
Ġh e
ar at
an ct
id s
Ġad itus
ed o
Ġl iter
Ġl unae
ud um
ĠA x
Ġex or
Ġex ire
ĠS ov
ag or
ĠD a
ĠD u
Ġdic antur
Ġdic erent
Ġfac erent
Ġprae stit
Ġb ac
ĠP tol
ĠQu asi
per et
Ġg ymn
Ġco eperit
Ġhab enda
Ġtu arum
Ġsc iendum
uc ta
Ġpot u
Ġab duc
Ġab stin
Ġr um
ĠH ac
ĠH anc
Ġid est
Ġne quam
ĠR ev
ĠR ei
ĠT it
Ġnihil um
ert i
Ġsol am
ĠB ar
ig i
ient ur
Ġleg at
Ġleg ionibus
Ġsp atio
Ġincol unt
Ġpost ulo
Ġpost remo
Ġob nox
Ġimp ud
ad es
Ġag is
Ġgen erum
Ġac ies
Ġnunc up
ern um
pe xit
Ġciv itatum
Ġdec et
Ġas inum
Ġcomp rob
Ġconc ub
Ġconc ept
Ġserv ire
Ġrec ept
ĠCh ar
Ġviv ific
Ġsequ ens
Ġcar itatem
Ġcar din
Ġins cript
Ġten uit
Ġcred entes
Ġ6 2
Ġopp ress
Ġexc lud
anc e
Ġprob atum
Ġprob ationem
Ð° ÑĢ
ĠAr men
Ġ8 2
Ġ8 4
Ġ8 7
reh ensum
Ġeg redi
Ġtran qu
Ġnecess itatem
Ġreliqu os
Ġmed iae
Ġpatr on
Ġaccus are
if ex
Ġtrans g
Ġost endam
Ġtim or
Ġaedific ata
ide as
Ġadi un
Ġepiscop um
Ã© n
Ġdet est
Ġpraecip ua
Ġvet us
Ġdum tax
Ġart ibus
Ġfin ita
Ġbre ve
Ġdiu ers
Ġindic at
ĠIudae is
Ġmitt am
Ġpraed ia
Ġoff ens
Ġcompos itum
Ġrelig ionem
ĠPar s
Ġarc u
Î¿ Î½
Ġcrim ine
ocrat icae
Ġbened ixit
Ġdubit amus
Ġindig entia
Ġtoll itur
ĠEurop a
ĠCol osse
Ġperspic uum
ĠXV III
Ġur bi
Ġretin ere
Ġpaenit et
Ġabund antia
ĠTer ra
ĠInc olae
Ġcathol ica
Ġfab ric
Ġpoet ae
Ġuerb a
Ġmagistrat ibus
ĠNesc io
Ġpercus sit
Ġbenevol entiae
Ġorig inem
ĠPhara o
Ġsig no
Ġtort or
Ġincor rupt
Ġdumtax at
? Â»
A P
E S
L ingu
P er
P ro
e ae
i ur
i ol
i etur
i eri
r ari
v o
v ae
v eg
x isti
y si
Ã ¬
Ä ĥ
Î ³
Î ´
Ġ ÑĢ
Ġp el
Ġp ub
Ġp ress
at iva
Ġc arum
Ġc ith
Ġd ot
or g
Ġv t
Ġt al
Ġt ag
Ġh ujus
od us
et iam
Ġnon o
Ġad l
Ġad est
el us
Ġde stin
Ġcon atus
ĠI b
ĠS aec
ĠC ot
ĠC upid
ag es
omn e
Qu ia
Ġb ut
ist it
ĠP od
ĠP lin
uc tum
Ġse ipsum
ĠL ex
ĠH am
Ġer imus
Ġpar lam
ĠT am
Ġinc ho
Ġtemp lo
ĠG er
Ġmod est
ig h
ine ant
Ġinter fectus
Ġpat rum
Ġpat ef
Ġanim os
ĠIn dic
Ġven eris
Ġven ientem
issim as
Ġ19 20
Ġ19 33
Ġloqu ens
Ġoc ulo
Ġmult us
Ġscrip to
Ġdu i
ĠAn sel
Ġag g
Ġag enda
Ġac erb
Ġtabul am
Ġmal itiam
Ġeccles ias
Ġrep per
ĠâĢ ¹
Ġas sign
Ġpu erit
Ġcogn itum
ĠFranc icae
ĠFranc iscus
Ġconc epit
Ġrec uper
Ġgrat ul
ĠRoman iae
Ġconf ec
Ġcorp ori
rem a
ios ae
Ġviv i
Ġviv at
Ġnot andum
Ġcl ari
Ġten eri
Ġplac itum
Ġpers uad
Ġlab oris
Ġdef l
Ġ6 4
Ġmor ta
Ġnov o
Ġnov us
Ġval eas
Ġinven imus
Ġinven iat
Ġfr ug
Ġnesc i
Ġduc em
Ġplur imis
ĠMar tin
Ġcogit o
Ġ17 0
ĠEx p
Ġaqu is
Ġaper te
Ġpecc atorum
Ġcontr ist
ãģ «
Ġsignific are
ĠAl t
Ġpon am
Ġaequ ales
Ġdiff in
Ġdiff ert
Ġev ac
ard us
Ġinstit utus
Ġinstit utis
Ġcogitat ur
Ġprom pt
Ġprom otus
Ġerr orem
Ġsept imo
Ġrecip it
ĠPet ro
Ġreper ire
Ġuid eri
Ġdisput are
atu or
Ġlud um
Ġambul are
Ġmerc es
Ġignor at
Ġvers antur
Ġfabul a
Ġfabul as
ĠDec isiones
Ġmer uit
Ġfest um
Ġflum ine
Ġflum inis
Ġsuffic ere
Ġunius cuiusque
Ġproficisc itur
ĠPers arum
Ġdecre ta
Ġtit ulum
Ġgubern ator
aph at
aph ys
ĠAlexand er
ĠĠĠĠĠĠĠĠĠĠĠĠĠĠĠĠĠĠĠĠĠĠĠĠĠĠĠĠĠĠĠĠ ĠĠĠĠĠĠĠĠĠĠĠĠĠĠĠĠĠĠĠĠĠĠĠĠĠĠĠĠĠĠĠĠ
Ġdexter a
Ġoeconom iae
ĠLatin os
Ġrevers i
Ġomitt am
"\"\"\"\"\"\"\"\"\"\"\"\"\"\"\"\"\"\"\"\"\"\"\"\"\"\"\"\"\"\"\"\ "\"\"\"\"\"\"\"\"\"\"\"\"\"\"\"\"\"\"\"\"\"\"\"\"\"\"\"\"\"\"\"\
Ġdile xit
Ġdefunct us
Ali quam
ĠSoc iet
Dixit que
ĠJos eph
Int er
comp are
Ġmass a
cem odi
ĠSov iet
7 4
? âĢĿ
A ut
C ont
c or
c re
m er
n unc
p g
r icae
s et
s ilv
u al
Å Ļ
á ĥ
Ġ Ø
Ġ Ã©
Ġe uen
er ra
Ġa st
it ania
us ce
Ġn erv
Ġn atu
Ġd aret
Ġt an
Ġt attoos
re e
re xit
Ġf atum
Ġf iet
Ġf oll
et ae
an y
ec imo
Ġre nov
Ġre iciendis
Ġl iturg
Ġut atur
Ġut rique
ĠI on
ĠI an
ĠS e
ĠS ara
ĠC ong
ĠC la
ĠC laritas
ĠD ico
est i
Ġper p
Ġprae dit
ĠP ag
ĠP enn
ĠQu antum
Ġg entem
Ġhab itura
iv oc
ĠM ath
Ġse i
ĠL aud
ĠL ev
ĠH Ã¦c
erunt que
Ġne qu
ĠDe f
ĠT rans
Ġinc lus
Ġaliqu et
ĠV nde
Ġma y
Ġma uris
Ġsol itum
ĠB ulg
Ġsum itur
Ġfu issent
erat ionem
Ġbon itatem
ro que
Ġleg unt
Ġven ias
Ġloc up
Ġloqu endo
Ġsp atium
Ġal leg
Ġsub ter
Ġaud eo
Ġob j
Ġob sequ
Ġscrip tus
Ġnull is
Ġvit iis
Ġcur are
Ġsuper iorem
Ġsuper ioribus
ui que
Ġciv itati
Ġdec ip
Ġdec eat
ĠQuid am
Ġded isse
Ġmortu a
Ġdes er
Ġsent iunt
Ġconc ilium
Ġrec ens
Ġrec epit
Ġscrib itur
Ġscrib endum
ios o
Ġinv entus
Ġiust i
Ġviv entem
iens i
Ġfi ebat
Ġmolest ie
Ġcert iorem
Ġvest er
ĠGraec iam
Ġquaer endum
Ġaet atibus
Ġ9 7
Ġhon ores
Ġtab ell
ĠX III
Ġaed es
Ġ11 8
Ġem ere
Ġfact io
Ġdub itatio
Ġoppid i
Ġaedific avi
ĠIo ann
Ġdet rah
Ġpac is
ĠPost um
Ġdiss ent
Ġalic ubi
Ġnegot i
Ġlect ores
Ġaccep isti
Ġexistim es
Ġon line
ĠIudae orum
ĠNec ess
Ð°Ð º
Ġpraed est
Ġdefin itionem
Ġdefin itione
Ġ199 1
Ġped em
Ġutil itas
Ðº Ð°
Ðº Ð¸
ĠIp sa
ĠNull us
Ġ197 4
Ġret ro
quae que
ĠAg rip
Ġdia p
ÐµÐ ¹
Ġpros per
ĠMin ore
ĠPompe io
Ġfacult as
Ġoperat io
Ġinterfic ere
ipp us
Ġmont em
Ġdelic iis
arn ationis
Ã³ n
Ġitin era
Ġcongreg ati
Ġpraeclar a
ĠLingu ae
ĠQuot quot
Ġanimadvert i
ins ula
Ġadopt ionem
Ġpraedi orum
Ġsenect ute
Ġaus us
ĠJud a
Ġmatur itatem
Ġpe ius
Ġscand aliz
ail able
ĠCant u
ĠDisc ip
Ġredi it
Ġusur p
ĠLond inii
ĠFr ider
Ġsab b
Ġstrep itum
OV E
/ /
I O
P i
U bi
e is
g er
l iter
n as
t amen
w s
{ "
} }
Ï ī
Ù Ĩ
Û Į
ä ¹
å ¤
å į
Ġ Ñĥ
er entia
it ionibus
us ae
in ar
in itatis
is a
at iae
Ġn or
Ġm ac
Ġin ha
ic iae
Ġt z
Ġi umentis
Ġf en
Ġf ast
en na
an ensi
os i
ul es
Ġpr a
ol s
un i
que st
iam ur
Ġquae si
ion ali
Ġsu ave
al itate
ĠA ll
ĠA lia
ĠC le
ĠD o
Ġ1 10
Ġme que
Ġdic entem
Ġdic ebatur
Ġper uen
Ġfac ili
ĠP ed
Ġsed ere
Ġsed ens
Ġg ent
Ġhab ebam
Ġsc itur
uc ius
Ġpot ent
Ġpot uisset
Ġap ostoli
Ġse ver
and as
Ġvid erat
Ġr ip
Ġop tin
Ġer rare
ĠR osc
Ġca erim
ĠF in
Ġvol um
Ġvol ueris
Ġcons uli
Ġim o
Ġnihil ominus
ĠG ali
ig inti
Ġfu eris
Ġor ci
Ġpat rim
Ġreg ia
Ġreg ioni
Ġmin ore
Ġsp ectare
eat rum
ĠU x
Ġvolupt atis
Ġnos c
Ġdu plex
Ġag atur
Ġpraes idem
Ġput abat
Ġcur su
Ġiudic o
Ġamic a
Ġsua de
Ġmaxim ae
Ġfort uit
Ġiust e
iet is
Ġel ecta
Ġviv o
Ġpossit is
ĠAm or
ĠAm en
Ġcred idi
Ġerit is
Ġexc lus
Ġval ent
Ġneg ant
Ġprob andum
Ġinven ies
Ġprincip em
Ġvest rae
Ġj us
Ġnesc iebam
Ġduc it
Ġund ique
Ġgra dum
Ġnecess itatis
ĠPr oc
Ġabs ente
Ġintelleg atur
ĠAd d
Ġsapient es
Ġvic it
Ġhum ano
Ð¸ Ñı
Ġlaud atur
Ġdiscip l
Ġdiscip ulorum
Ġtant am
Ġoport ebat
Ġmil itiae
Ġfact am
Ġsac r
ĠQuam vis
ĠBr utum
Ġpo Ã«
Ġimm edi
Ġadm inister
Ġoper ari
Ġost ensum
Ġsermon ibus
Ġult rices
Ġnoc ere
Ġdet err
Ġfl am
Ġpraecip uum
Ġadd ere
Ġtrib uit
ĠPl us
ĠW est
Ġev an
Ġed ere
Ġlic eret
Ġlae tus
Ġfin it
Ġprofect i
Ġdiffic ilius
rob rium
ĠPet ri
Ġsper are
Ġnunt ios
Ġequ itum
ĠHi eros
Ġnav is
Ġpuell am
ĠPa ulum
Ġads crib
Ġdivis it
ĠIl li
Ġadf lic
Ġrefer ri
Ġarc a
enn io
enn ium
Ġargum ento
Ġadv oc
Ġecclesiast ica
Ġangel o
Ġsacerd os
Ġpoen ae
ĠPompe ium
Ġsep ulc
Ġpossib ili
ĠAcc ius
Ġproport ion
ĠLe vi
Ġconsc ientia
Ð¸Ð ¹
Ġaeg r
Ġglad io
Ġiuven is
Ġiuven es
ĠRuss iae
ĠDem ocraticae
ĠVel it
Ġelem entum
Ġbapt is
ĠCicer onis
ĠItal icus
ĠDuc atus
Ġvari et
Ġintellex i
ĠTusc ul
ĠCet erum
ĠBoruss iae
Ġ$ (
ĠPublic ae
product s
ĠMichig aniae
Res pon
ĠGo ogle
ĠNor veg
ĠAssyri orum
Ġaccum san
C L
D ec
L a
N ov
N eque
S hop
d io
d ecim
f iles
g en
l it
p ote
t ione
Ð ¹
Ġ à´
Ġs id
in et
in iae
Ġp udic
at rix
on c
Ġn il
em per
Ġt av
Ġt ri
re x
Ġf o
om b
ar ae
id isse
Ġnon g
un um
ed erunt
Ġl og
ac ia
ab ilius
Ġes ur
ere a
ot r
Ġsu g
ĠE g
Ġcon fect
ĠA aron
ĠS m
ĠD am
rat ionem
ĠP yrr
ĠQu ic
Ġsi quidem
ĠN unquam
Ġhab entem
ĠM osc
und ae
iss i
Ġab l
Ġu obis
ĠL XX
Ġop erum
ĠH ad
ĠF or
Ġpar atum
ĠT oll
Ġvol es
isc ons
Ġsol em
ĠG r
Ġess endi
ĠB ur
ĠB eth
Ġprop in
Ġcomm in
Ġsum atur
ov ie
ig er
Ġres crib
erat io
Ġdix eris
Ġdix issent
ep isti
Ġmin oris
Ġven isse
Ġven iens
ĠO tt
Ġsub m
ific a
Ġob st
Ġob oed
Ġdom ui
Ġimp ut
ad i
Ġag ris
Ġpraes entes
Ġpraes crib
Ġtr istis
ĠĠĠĠ Ġ
Ġciv ilis
Ġdiv ulg
Ġdisc essit
Ġrep let
Ġpu eris
rim i
Ġconc ili
Ġinf lam
Ġviv et
Ġfid elium
Ġ7 4
Ġmor bo
Ġhuius cemodi
Ġprov erb
Ġexc lam
Ġmolest e
Ġprob itatis
Ġcirc uli
ĠLat ini
Ġinven io
erem ur
Ġ8 3
Ġfr ui
Ġcontra h
Ġduc ta
ĠJ acob
ans iae
Ġext rinsecus
Ġtest ific
oli um
Ġsatis f
Ġappell at
Ġappell amus
Ð¸ Ð½
Ð¸ Ð»
Ġpatr onus
Ġw ill
Ġlaud es
Ġprovinc iarum
ĠUn a
Ġmuli ere
Ġfaci enda
Ġspec ial
Ġaedific ationem
ĠGerman ici
ĠSanct orum
Ġsing uli
Ġantiqu orum
Ġcond uc
Ġquic k
Ġconsul e
Ġgrav ida
Ġaudi eris
Ġtert iam
ĠAnt onium
Ġcogitat ionem
Ġgaud ere
Ġdep end
Ġdict u
Ġaccep isset
Ġrecip iat
Ġdelect ari
Ġeff ig
ĠSt ud
Ġnunt ium
Ġculp am
Ġ199 0
Ġnar rare
Ġconiunct i
Ġiuc unda
Ġdivis ionem
ĠIl lum
Ġquar ta
Ġtut ela
ĠMos i
Ġargum ent
Ġangel um
Ġdesider ium
ht t
Ġdorm ivit
Ġconsol ationem
Ġot io
Ġsep ulch
Î¹ Îº
Ġsumpt us
Ġ186 6
Ġsacerdot es
Ġinteg r
Ġinteg rum
Ġoccult um
ĠComm ent
Ġagnosc ere
Ġub icumque
Ġiub et
ĠMich ae
Ġpropriet as
Ġfe ugiat
ĠRep ell
Ġintu ens
Ġconsumm ationem
ĠPap a
Ġfluv ius
ÙĪ Ø
Ġpulcherrim a
Ġster ilis
ĠEzech iae
Ġcand id
Ġtol er
Ġquinqu aginta
ĠEbor aci
queb atur
ĠAdm inister
Ġge omet
Ġxx x
Vol upt
Ġnis l
ĠAx onae
! "
5 8
6 5
7 1
E D
E a
I S
M ihi
P s
c d
f r
g et
h ic
h aec
j pg
l r
m ium
n ot
n ihil
p ort
r unt
s hopify
t s
t ur
u el
v am
v ide
w n
Ã ½
å ±
å ¹
å Ĳ
Ġa is
Ġa uri
Ġqu atuor
Ġp i
at que
at ui
am ento
Ġd anda
Ġin ept
ic tor
Ġt t
Ġt og
Ġf ini
ul s
ia b
un s
Ġad fer
Ġre quiesc
il oqu
Ġde lib
Ġde ven
ĠE i
ĠE arum
ĠA it
ĠS ina
ĠC ro
Ġdic to
end orum
Qu oniam
Ġfac in
Ġprae l
Ġprae dam
ĠP ub
ect or
Ġco op
Ġco eg
ĠN as
eg oria
ĠM uli
eb urg
Ġu eritas
Ġr utrum
ĠL iv
ĠH or
ĠH omo
ĠR ed
Ġam antur
Ġam ph
ult or
Ġat qui
Ġpar vis
ĠT err
Ġvol at
ĠG ra
ĠG reg
ĠB ello
ust um
Ġor g
Ġor are
Ġor atore
Ġsec ur
eri i
Ġst omach
ri et
Ġcre atum
ven iet
ĠO pp
Ġpost r
Ġimp ot
Ġimp end
Ġag ens
Ġvit Ã¦
Ġput avi
Ġtabul q
Ġtabul w
Ġtabul z
Ġtabul ator
Ġsuper ior
Ġ18 13
Ġapp rehend
og is
Ġas pectu
Ġrec ess
irc um
Ġconf orm
Ġcorp orum
Ġpublic i
Ġpublic is
Ġnot am
Ġcl av
he um
Ġlingu arum
Ġexc it
ĠLat inus
Ġinven erit
Ġred itus
Ġimper fect
Ġius s
Ġgra vi
Ġintelleg am
10 82
Ġexerc itatione
Ġvic esimo
Ġtab h
Ġtab j
Ġtab ull
Ġtab up
Ġtab lu
Ġhum anum
Ġcognosc imus
Ġreliqu isti
Ġmed icam
Ġind ulg
Ġstud iosus
Ġconi ectura
ĠUn ionis
ĠFoed er
Ġoport eat
Ġsac rae
Ġaqu il
Ġaper tum
Ġaper ire
Ġaper ti
ĠBr uto
Ġ16 0
Ġliber am
Ġliber ius
Ġsoc ium
Ġoper ae
14 50
ĠGerman i
Ġmov eat
ang el
Ġfl uct
Ġanima libus
Ġperfect us
Ġev ident
Ġaudi ebamus
Ġfamili am
Ġfamili aris
Ġsecund us
Ġart ium
Ġbib am
Ġpraest at
Ġhuman itatem
Ġdict urum
Ġatt ul
Ð¾Ð ³
Ġuid et
Ġdesc endit
ĠAs c
rac ch
Ġperd idit
Ġeffect u
Ġlud us
Ġfortun am
Ġhered itatis
Ġsor ores
Ġaffect u
ĠDic it
ĠIun o
Ġcircum s
ĠProvinc iae
Ġdis pon
Ġquaes ivi
Ġ197 2
32 16
Ġscel erat
Ġscel eris
Ġfund us
Ġplen am
Ġiniur iae
Ġta ub
Ġadv entu
Ġbest iam
Ġmus ica
Ġangel orum
Ġcommod um
Ġbenefic ia
ĠMo ab
Ġorb e
ĠSim on
Ġapostol us
ĠAcc us
Ġvocabul o
Ð¸Ð ¼
ĠVolupt as
Ġuir tus
Ġglad ium
Ġmemb rum
At que
Ġmisericord iae
Ġuit am
Ġmerit um
Ġtabu k
Ġtabu al
ĠPy thag
Ġâ ľ
Ġconsili is
Ã® s
Ġpollic itus
Ġpleb e
ĠMe lius
Ġnef as
ĠRespon d
Omn ia
Ġsenect utem
Ġinh abit
Ġvan itas
ĠAene an
ĠDum iatis
ĠCras sus
ĠPlat onis
Ġfluv ium
Ġprimogen itum
ĠConsequ atur
Ġquidd itas
Ġcoh ort
Ġcomplect itur
ĠMerc ur
Ġtyran n
Ġiuli anus
Ġsurre xit
ĠBav ariae
ĠIsa ac
Ġmeh ercule
ĠHieros ol
cd n
* *
< /
A S
A c
a f
e os
e antur
f uit
h am
i el
k a
k ing
l ae
m am
m enta
r uit
t ionem
u erim
v ir
w a
Ä ±
Ä Ľ
Ù Ĭ
à ·
Ġs ob
Ġs ess
it ius
it ion
in ter
Ġqu om
Ġqu ing
on go
Ġn acti
Ġn empe
Ġd atus
Ġd antur
em et
Ġm oli
Ġin stant
Ġv ae
Ġt q
Ġt s
Ġt rec
Ġt ba
re st
Ġf eri
en o
es op
et em
an es
an iam
os y
ent ina
ol am
un us
Ġad rog
Ġre qui
Ġl ongo
Ġut cumque
el ph
il us
ot is
ĠE u
ĠA per
ĠD E
ĠD ub
ĠD ors
ĠD olia
Ġdic ebam
ta or
Qu are
ip h
ip pe
Ġper vers
Ġill arum
Ġb u
ĠP ecun
ob rem
Ġg abulator
Ġco inqu
Ġco opt
Ġco aeter
ĠN oli
Ġhab itu
Ġsc iens
iv amus
ĠM ut
ĠM inister
gn osc
eb atis
Ġse pe
pt um
Ġvid eret
Ġr abulator
ĠH on
Ġid ea
Ġam isit
ĠF l
Ġat bulator
ĠT y
Ġinc ircum
Ġaliqu as
Ġpl uv
Ġun ic
ĠB rix
Ġfu erant
Ġor iuntur
Ġres erv
ep isse
Ġst r
Ġcre vit
Ġmin im
Ġleg um
Ġleg istis
Ġven er
Ġven imus
Ġnum eros
Ġmagn opere
Ġo ur
res c
Ġag ro
Ġvoc avitque
Ġput arem
Ġtabul stor
Ġtabul agor
Ġtabul taor
Ġcur rent
Ġexp rob
Ġapp rop
Ġcomp ell
Ġserv orum
Ġfort ior
Ġrec eptum
Ġscrib endo
Ġdel eg
ĠÐ ±
ĠÐ ³
ĠÐ ·
Ġfid elis
Ġsequ enti
Ġfrat rum
Ġcar men
Ġ7 2
Ġcol ore
Ġmis erat
Ġdef uit
Ġvide ant
Ġexc ed
Ġvis u
Ġneg as
Ġ8 1
Ġduc tus
Ġmund anum
Ġtran st
Ġgra ve
Ġ9 1
Ġ9 5
Ġsapient i
Ġmut avit
Ġtab il
Ġtab uo
Ġtab bulator
Ġtab ultor
Ġcognosc at
Ġreliqu ae
ĠX IV
Ġlaud at
act e
Ġ13 0
Ġmil li
Ġsac c
ath a
ĠIud as
Ġsubi ectae
ãģ Į
Ġtrans m
Ġsoc ius
Ġdub ito
ĠAb ram
Ġpon i
Ġpon atur
Ġaedific are
Ġcontin eri
Ġadd ita
Ġantiqu i
Ġtrad ere
Ġtrad itur
Ġmir abile
Ġarg u
Ġev id
Ġgrav itate
Ġrespond et
Ġphilosoph iam
Ġtert ius
Ġclar us
Ġnegot iorum
Ġprom isit
Ġrecip i
Ġhost is
ĠIos aphat
Ġtabulat r
Ġtabulat od
Ġtabulat ir
Ġtabulat ro
Ġtabulat tor
Ġtabulat pr
Ġtabulat kr
Ġtabulat lr
Ġsalut e
Ġpauc os
Ġtabula for
Ġtabula otr
ĠEp ist
Ġnunt ius
Ġinim icum
Ġpraed a
Ġpraed ium
Ġarbitr io
Ġarbitr antur
Ġperic ulos
Ġperd ere
Ġhabit et
Ġmiss a
Ġhered es
Ġcompos ita
Ġadf irm
Ġfabul ator
ĠDic itur
ĠPrim a
ĠVid esne
Ġcunct ae
ĠMed ia
ĠVen iam
Ġcondic ione
Ġta h
Ġta ulator
Ġta abulator
ĠEpic uro
CC CC
ĠAg e
ĠCap it
Ġbland it
Ġeleg ant
iu ers
Ġtabulato f
Ġtabulato or
Ġfacult ates
ĠCal isii
ĠMat th
Ġpolit icorum
errim a
Ġabsol ute
Ġlegit ime
Ġcess avit
Ġquaereb am
Ġtabu ator
Ġub er
Ġpeculi um
Ġent ia
ĠTer rae
Ġacceper is
Ġimpl eri
Ġfruct ibus
ĠArch id
Ġhodiern a
Ġduplic em
Ġtex tus
Ġconsult o
ĠSeptentr ioni
ĠTurc iae
ĠFret i
Ġlacrim is
Post quam
Ġpulchr itudo
Ġdisser endi
Ġsatisfac it
Ġdisciplin ae
ĠHier ony
ĠNap ole
Ġul ter
Ġtabular or
ĠCatil ina
Ġtw bulator
Ġcathed r
Ġuter que
Ġcanc ell
Ġcardin alis
ĠPod ii
Ġclari fic
ĠPenn silv
Ġtav ulator
Ġtt abulator
Ġtabulq tor
Ġtabulw tor
Ġtabulz tor
Ġtabulator r
Ġtabj lator
Ġtabull ator
Ġtabup ator
Ġtablu ator
Ġtaub lator
Ġtabuk ator
Ġtabual tor
" )
" ]
, ,
7 2
7 6
8 1
B rit
L e
M irum
O M
c ae
d oc
l ed
o i
o y
r od
r iter
y or
y lator
Ġe vers
Ġp oc
on iis
Ġc li
Ġn as
Ġm el
Ġm ess
Ġin ert
Ġin possibile
ic it
ur os
Ġt bulator
Ġi u
ar iter
ec a
un am
un ic
ed er
Ġl ub
Ġl angu
ac es
Ġut roque
as a
as h
Ġquae libet
ĠI N
ĠI oram
Ġex eunte
ĠS per
ĠS pe
ĠC og
ag o
ag esimo
ĠD eb
ĠD ix
ĠD enique
Ġdi rimi
Ġper n
Ġper ierunt
Ġb al
ĠP aen
ra st
ect ione
Ġhab endi
Ġtu eri
Ġsc iant
Ġcom itia
ort uus
Ġab ulator
Ġvid isse
Ġu os
Ġr ost
ĠL ep
ell entesque
Ġne ut
ĠR atio
Ġam andi
ĠF DP
ĠV itae
Ġqua eri
Ġtam que
ert o
Ġsol ere
ing s
ĠB uc
ĠB oh
Ġcont ex
Ġsum ps
ig en
Ġst et
Ġanim alium
Ġcre b
Ġcor rect
ator i
Ġter ras
Ġdol um
Ġdol entes
Ġus i
Ġus ui
Ġnum m
Ġman eat
Ġimp lic
ad is
ris que
Ġdeb ui
res sit
Ġac ie
Ġpraes ente
Ġpraes cript
ie w
Ġcog ita
Ġquas dam
Ġcap itis
Ġ18 10
Ġ18 15
Ġ18 50
Ġmal itia
Ġmal lem
Ġei que
ug a
Ġmaxim is
Ġdes it
Ġ200 3
Ġfort em
Ġscrib e
Ġconf ort
Ġinv is
Ġviv eret
Ġviv erra
Ġcl em
ĠCom p
Ġcred erent
Ġdoc tus
Ġdoc ti
Ġconsequ at
iens ium
Ġpa ul
odo x
ĠLat inis
Ġvest ras
Ġj e
ĠGraec um
pic ere
Ġvolunt ati
Ġtest ibus
Ġ9 6
Ġabs unt
Ġintelleg erem
Ġmut uo
Ġtab lator
Ġtab ylator
Ġaccip iens
Ġfut uram
Ġcet erae
Ġlong inqu
Ġstat uam
Ġconstit utionem
Ġglor iosum
Ġoport uit
ĠBr undis
ãģ ¾
Ġideo que
Ġtim e
Ġtim eo
ĠSic iliae
Ġdem in
Ġmov ens
Ġcontin etur
ÑĢ Ñĥ
Ð» Ñĭ
Ð» Ñı
Ġbeat iorem
ĠReg no
Ġgrav ior
Ġinstit uit
ation s
ĠPrae ter
Ġparv uli
Ġgaud et
Ġcal icem
Ġepist ola
Ġrecip ere
Ġhost e
Ġmagist ratum
Ġtabulat ot
Ġsper at
Ġy abulator
Ġindic avit
Ġtabula or
Ġtabula ator
Ġtabula yor
Ġnob ilis
ĠMag num
ĠIudae a
Ġmitt i
Ġequ os
Ð°Ð ¼
Ġrog avit
Ã¡ s
Ġcas um
Ġnav es
Ġli quid
Ġads unt
Ġnasc i
Ġvideb is
Ġmanifest e
Ġtut or
uram entum
Î¿ ÏĤ
Ġ196 1
Ġfund o
Ġexper tus
Ġpen es
ĠEpiscop o
eatur ed
Ġtabulato e
Ġelect io
Ġsep ult
Ġconsider andum
ĠMat ronae
Ġiucund e
Ġcult um
Ġprohib et
Ġsangu inibus
ĠScip ionis
ipp iae
Ġcomprehend it
Ġconsc ientiae
Ġtribun us
Ġsacerdot um
ĠLeg e
Ġnub ere
Ġmont es
Ġperfic i
Ġoccas ione
Ġconvert it
Ġtabu ulator
Ġhonor ific
ĠTemp us
Ġá ½
Ġtrist itia
Ġall eluia
Ġpre dic
ĠSum ma
ĠTar qu
Ġpraecl arum
Omn es
Ġnut r
Franc ice
Ġpast ores
Ġmagistrat u
Ġimb ec
ĠGeorg ius
Ġmaj or
Ġimmort ales
Ġpersuas um
Ġconviv ium
ĠLu ke
Ġcognov issent
Ġfont em
Ġperse v
ĠMiss iss
Ġconsens u
ĠLudov icus
ĠSa ul
Ġdesert o
ĠReli qu
Ġpulv inar
ĠColl eg
Ġfacillim e
Ġexercit uum
Ġexsp ectare
ĠCaus a
Ġconval lis
Ġmetrop olit
Ġdomic ilium
ĠCalv orum
ĠArduen na
ĠColosse um
Ġtag ulator
Ġtan ulator
Ġtz bulator
Ġimmedi ate
Ġtabh lator
Ġevident ius
Ġtq bulator
Ġts bulator
Ġtba ulator
ĠDors orum
Ġtabil ator
Ġtabuo ator
Ġtah ulator
' );
8 3
A cc
N e
O m
S ec
b et
g raph
h us
i anum
k s
l os
at ive
on ica
Ġn ib
Ġd ati
Ġd rac
Ġd abis
Ġm aria
Ġm ilibus
Ġm oen
or ter
Ġin lum
ic uli
Ġv ino
ut urum
Ġf a
Ġf asc
Ġf rang
li ps
et si
id ius
ec essor
Ġpr idie
ia le
Ġad quir
oc inium
Ġre fic
Ġre trib
Ġl av
Ġquod que
ab ilibus
Ġut or
al og
ĠI urae
ĠS anto
ĠC ardin
ĠC DU
Ġ1 01
Ġomn im
est im
Ġper l
Ġprae fer
Ġb i
rat is
ĠP o
Ġg ran
ĠN er
ĠN im
ir st
ir emus
Ġquid vis
ĠM en
ĠM inus
iss io
Ġcom es
ort um
Ġver itati
Ġse ips
and os
Ġvel lent
Ġvid erem
ĠL ang
Ġop ibus
ĠH S
Ġsit u
Ġne pos
Ġca utum
Ġam atur
Ġpar c
Ġpar i
ĠT antum
Ġinc orp
erit is
ĠV erba
Ġqua que
Ġqua libet
ari e
Ġsol itudine
ĠB at
ĠB ern
Ġint entio
Ġscr ut
ig mata
Ġor ans
Ġres p
Ġreg ul
ri e
ven iens
Ġneque unt
issim orum
Ġ19 29
ĠO s
ĠO per
ĠO rb
Ġsp atia
Ġus uram
Ġaud iam
Ġaud ite
Ġaud istis
Ġmagn itudinem
Ġsim p
Ġcommun itatis
Ġpraes ent
ch e
Ġiudic atum
Ġiudic abit
Ġdisc endi
Ġrep os
Ġrep reh
Ġded erunt
Ġmortu os
Ġcomp let
Ġ200 4
Ġocc ulta
Ġinf l
Ġfid eles
Ġsequ etur
Ġins uper
Ġcol umb
Ġplac ent
Ġcred itur
Ġpraeter m
Ġvide am
Ġopp robrium
Ġfi erent
Ġval eant
Ġmolest a
Ġneg et
Ġprob arem
Ġred di
Ġ8 8
Ġcontra dic
Ġquaer ens
Ġnatura libus
Ġius iur
Ġ9 2
Ġ9 3
fer am
Ġabs ens
Ġfam ae
Ġcogit amus
Ġaccip iam
ĠX IX
Ġsup pos
Ġlong am
Ġconstit utione
Ġod erit
Ġfact urus
Ġfaci endi
Ġlat inae
Ġsubi ecti
ãģ ¦
ãģ Ļ
Ġspec ulum
Ġsignific atione
Ġost ent
Ġdiff erent
Ġluc is
vert ere
Ġeffic iuntur
ĠW h
Ġantiqu um
Ġantiqu itus
Ð» Ð°
Ġvult u
Ġvet eribus
Ġgrav es
Ġmand avit
Ġphilosoph os
Ġnol unt
ĠNihil o
ĠAnt onio
Ġperson as
Ġcogitat io
ĠAli ud
Ġlabor o
Ġdep rehend
ãĥ ¼
oni z
Ġdil uc
Ġav unc
ĠIm p
ĠNov um
Ġnob il
Ġuid entur
ĠMag nus
ĠCat onem
ĠAs iae
ĠAs per
Ġpriv ata
Ġpriv atis
Ġinim icorum
ress ed
Ġpropos ito
Ġnav ibus
Ġutil itates
Ġconiunct um
Ġscrips erunt
Ġscrips eram
Ġdam natus
Ġignor o
Ġhered itate
Ġcompos itae
Ġrelig ione
Ġfabul arum
Ġsociet atis
ĠDic endum
Ġiniqu itate
Ġle ve
Ġmilit aris
Ġgener ibus
Ġgener alis
Ġha eres
Ġrestit uere
Ġcommod ius
Ġsingul ari
Ġpraet ex
Ġprud entiam
Ġprud entiae
Ġmori etur
Ġsolv ere
Ġ195 7
Ġrepet ere
Ġdoctr inae
Ġadduc am
à« §
Ġinterfic iam
Ġimpet us
Ã¨ s
Ġjudic ium
ĠDem et
Ġsod ales
Ġdissim ilis
ĠMet ellum
Ġventur um
ĠIns ulae
Ġoppos itum
Ita que
ĠTro iam
Ġlig no
Ġquer ela
Ġprec es
Ġsyll ogis
Ġduplic iter
ĠDel ph
Ġdiut ur
Ã¼ r
ĠHelv etiae
Ġtene atur
ĠSyr iae
Ġvuln era
Ġui uit
Ġbarb ar
Ġinstrum entum
ĠBoruss iam
Ġapplic atione
ĠJo annes
Ġnuntia vit
äº º
Ġcod icem
Ġvenen atis
ĠMichig anensi
Ġinut iles
Ġvesper um
ĠRub en
Ġindustr ia
Ġoct og
ĠOc tav
ĠNob eli
ĠRect e
Ġweb sit
Ġiurid icae
Ġdere liqu
Ġianu am
ĠCalifor niae
Ġdetest abili
ĠSaec ulo
Ġlocup let
Ġquick Shop
Ġcoopt atus
ĠPaen insula
ĠMississ ippiae
Ġnib h
1 12
A s
E n
F ac
I m
N ull
S p
T u
U T
V est
] :
d ius
e lius
l ov
l og
r or
r ing
r Ã¦
t en
v eris
w ord
y t
y st
Å ¼
Î ¸
Ï ĩ
à ¶
qu et
qu ando
um m
it ioni
Ġqu estus
Ġp uncta
am que
am ina
Ġc aret
Ġn oll
Ġd as
Ġm ou
ic itur
Ġv il
Ġv ana
Ġv illa
Ġt orqu
en am
Ġh ar
Ġh are
id iae
ul at
ul isti
ol eo
un quid
Ġad ire
Ġad pet
Ġre tr
Ġl uct
ud et
Ġut eb
Ġut imur
ant as
ĠE dit
ĠI uven
ĠI terum
ĠA T
ĠA ed
Ġex alt
ĠC ulpa
ag us
ip ublic
Ġper it
Ġprae est
ĠP R
ĠQu as
ĠQu Ã¦
Ġg ut
Ġco actus
ĠN ot
ĠN olite
und iae
Ġap tum
ort ium
Ġver us
and arum
Ġr aro
ĠL em
ĠL eo
ĠL icet
ĠH ar
ĠH isp
av ero
av isse
Ġca er
Ġam as
Ġam aret
ult i
ĠF ili
Ġinc idere
ĠV ia
Ġqua lia
Ġeum que
Ġma x
Ġsol ebam
Ġsol lem
Ġun is
Ġun icum
Ġun iuers
Ġtemp la
ĠB arc
ust ae
Ġmod icum
ov iae
Ġfu issemus
Ġor at
erat ione
Ġpat iuntur
Ġst il
Ġanim antium
Ġleg atorum
Ġven iet
ers on
Ġ19 22
Ġser u
Ġpost erius
Ġmult am
Ġmort ale
Ġann unt
Ġmagn as
Ġcommun ione
Ġpraes entiam
ch i
Ġist ic
Ġtr it
Ġsuper fic
Ġ18 48
Ġamic itias
Ġdisc ord
Ġrep ud
ug h
ug it
Ġas inus
Ġmaxim i
Ġocc is
Ġlit ig
ios orum
Ġviv endi
he us
ĠCom itatu
Ġins ol
Ġcol orem
Ġcred endum
Ġdef er
Ġdef orm
Ġmor iendum
Ġnov is
ĠIta li
Ġprob at
Ġcae s
Ġdomin a
Ġred im
Ġj uramentum
Ġnesc ire
Ġquaer eretur
Ġext it
Ġext end
Ġnecess ariis
Ġnecess ariam
Ġfam es
Ġvic es
Ġreliqu o
Ġfut uris
Ġpet unt
Ġw ork
Ġlaud ibus
Ġconstit uitur
ph us
Ġexist ens
Ġ10 3
ĠBr uns
Ġpecc atis
ãģ Ł
ĠMa ximus
ĠCiv itates
Ġaequ itate
ĠK ansiae
Ġaedific ium
Ġcontin u
Ġperfect e
Ġmir abilia
Ġmir aculum
Ġmon str
Ġmon ach
Ġgrav iter
oth er
Ġaudi endi
Ġaudi ebant
Ġlic entiam
Ġnol uerit
ĠAnt on
ĠAnt ecessor
Ġepist ulas
ĠIll o
Ġhuman am
Ġdep rav
Ġsex us
Ġsex ta
ĠAegypt ii
ãĥ ³
ãĥ »
Ġexistim are
ĠIm possibile
Ġpugn are
Ġmagist ro
ereb atur
Ġalien is
Ġsucc essit
Ġpriv atus
Ġlac um
Ġscript urae
ãĤ ĭ
Ġrev erter
Ġaur is
Ġpuer orum
Ġ199 4
Ġiac ere
Ġgest um
Ġutil itate
Ġoff er
ĠNum erus
Ġdivis ae
Ġrelin quam
Ġvideb imus
Ġpossid endam
Ġcircum stant
Ġsimplic is
Ġpass io
Ġcustod iam
Ġquaes ivit
quod que
Ġlaet itiam
Ġfund amentum
ĠDol ore
Ġsalv um
Ġrelinqu itur
Ġeleg it
Ġsingul are
ĠArist onem
Ġconsider are
ĠCons ilium
ĠPot ius
Ġparticip atione
Ġsomn um
ĠPol it
Ġmy th
ĠScip ionem
Ġsumpt u
Ġconfic i
Ġnub ibus
Ġos sa
Ġty pi
Ġimagin ibus
ĠZen o
Ġcern itur
Ġadulesc entia
Ġrequir itur
Ġuer itatem
Ġelem enta
Ġcontrovers iam
Ġprog ress
Ġinsign e
Ġsort e
pex i
Ġuerb o
Ġsupplic io
Ġspon sus
ĠTheod isc
Ġconst et
Ġpaupert atem
Ġscand al
Ð¾ÑĤ Ð»Ñĭ
Ġdile xisti
Ġevangeli um
Ġsemet ipso
ĠÄ Į
Ġfrum entum
ĠÐļ Ð¾Ð»
Ġpiet ate
Ġvas a
ĠAch a
ĠMoys en
Ġuide atur
ĠOffic ia
Ġperi erat
Ġtransi it
Ð½Ñĭ Ðµ
Ġcongru amus
Ġoccur rent
Ġerub esc
Ġexpl an
ĠUs que
Ġfallac iloqu
Ġpraeceper at
Ġeman cip
Ġgymn as
ĠNecess itatibus
ĠQuic quid
ĠOtt oman
Ġâľ ¿
Ġunic uique
ĠPennsilv aniae
Brit onice
Ġiusiur andum
Ġfallaciloqu ae
, .
6 6
7 5
9 9
B o
C ulpa
D omine
R eg
S it
S im
d ia
e ar
i anus
j e
k t
m b
n or
p is
r io
s ae
u ada
Ã ĥ
Å ¡
Î Ń
Ñ į
ä ¼
æ ĺ
Ġ 000
Ġ ÏĢ
er antur
Ġa es
Ġs et
Ġs entias
is e
at ic
Ġc ereb
Ġn uc
Ġn upta
Ġd og
or iae
Ġin eb
ic ium
Ġt ib
Ġt itio
Ġi e
Ġf oc
Ġest o
es p
ia les
ib it
ib at
un eburg
Ġad sequ
Ġad di
Ġre deo
ac c
ac o
ac em
ab as
el lig
as ph
Ġde fectus
ĠS h
ĠC ent
ĠD oc
est um
Qu a
Ġfac itis
Ġfac ientibus
Ġill inc
Ġill ustr
ĠP an
ĠP res
ĠQu ippe
Ġsed e
Ġg erere
Ġhab u
uit as
eg er
Ġsc irem
iv erunt
iss ionis
Ġquo vis
Ġab sit
Ġmihi que
ĠL ac
ĠL ug
av erint
ĠR atione
ĠR uf
ĠF at
Ġpag i
Ġpag inis
ĠT rin
Ġaliqu anto
erit o
Ġvol u
Ġvol uisse
ĠV ind
Ġma i
Ġsol utum
Ġun ct
Ġun itas
ĠB erg
ĠB apt
Ġcomm is
Ġsum pta
Ġsum psit
Ġinter val
Ġor a
Ġsec retum
Ġbon itas
Ġst abilis
Ġcre are
Ġcre ati
Ġmin ora
Ġmin ori
Ġleg atis
Ġven isti
Ġvir ibus
Ġ19 14
Ġ19 25
ĠO n
Ġpost eris
Ġaud imus
Ġaud itor
Ġ- ,
ific em
Ġquibus cumque
Ġo liv
iat i
Ġag etur
Ġsem it
Ġvit iorum
Ġput averunt
Ġput abam
Ġrem ans
ne que
Ġiudic is
Ġiudic et
Ġiudic as
Ġiudic iis
Ġdiv inis
Ġdiv itiis
ĠQuid em
Ġmaxim as
Ġmortu orum
ĠFranc ica
Ġfort iter
Ġconf ido
Ġdel e
ĠÐ ¡
Ġnot us
Ġfrat ern
Ġcar c
Ġten ent
Ġten entur
Ġcol unt
Ġlab ores
Ġconsequ itur
Ġprob o
Ġtantum modo
Ġform id
Ġfr ag
Ġadh a
Ġduc ibus
Ġsanct os
Ġing ressa
Ġplur imae
Ġintelleg unt
Ġdign issim
Ġfam e
ĠMar it
Ġhon oris
Ġcogit andum
Ġcogit abam
Ġunum quodque
Ġaccip iuntur
Ġcognosc etis
Ġmed ius
Ġappell atus
Ġappell ata
erv a
Ġpatr oni
Ġ13 9
Ġsen es
Ġintel ligo
Ġproc ons
Ġ11 1
Ġ11 5
Ġintellig endum
ĠSan e
Ġaper it
Ġsubi ectus
Ġquin decim
ãģ Ĺ
Ġsignific atio
Ġsignific ationem
ffect us
Ġpon e
Ġpon dus
lo w
ide libus
ĠGerman iam
Ã© s
ÑĢ Ð°
Ġunivers o
Ġmir or
Ġvet eris
Ġelig ere
Ġed ita
Ġredd itur
Ġuel ut
Ġfin itum
Ġprofect um
ĠGal liam
ĠAli ae
Ġden ot
Ġden uo
Ġaccep istis
Ġsept ima
land ia
Ġpugn avit
ĠCar thag
Ġcupid itas
Ġfur ti
Ġport us
Ġk al
Ġconv entus
Ġteneb ras
Ġaur o
Ġlud is
pici ens
Ġvers ibus
Ġra pt
Ġhered itas
Ġsor oris
Ġcens ent
Ġhort um
Ġhort us
all y
opt ions
ĠThe oph
Ġcreatur is
ĠNe w
Ġostend itur
Ġrestit u
Ġtestam enti
Ġhistor iam
Ġcommod e
Ġdepos iti
Ġasc ens
ĠMo ysi
Ġdesider io
Ġelect ionem
ĠMin ime
ĠOr d
ĠLa od
Ġfirm a
Ġconvers i
Ġconvers us
ĠPro inde
ĠSec undo
ĠSam ara
Ġdefend itur
Ġcult us
Ġlegit ima
Ġmemb ris
Ġuen it
ĠRuss ia
Ġtit ulo
ĠSequ itur
Ġent e
Ġexpet endum
ĠSy rac
Ġoccurr unt
Ġarb orum
Ġdilect ionem
Ġeloqu entiam
Ġconstant er
Ġdefic it
Ġmagnific e
ĠRespon dit
Ġvirg ines
Ġnupt iarum
Ġ} );
Ġconsent iunt
Ġobliv isci
Ġconsult um
ĠOp ort
ĠPhil ot
rupt i
Ġreman et
Ġdesin it
ĠCet era
ĠApoll onius
Ġá¼ Ģ
Ġsubsist ens
ĠÐļ Ð¾ÑĤÐ»Ñĭ
ĠEph ra
Ġintent ionem
ĠRhen i
ĠOpt io
ĠGrat ias
Ġcontig erit
Ġsyllab a
Ġinfam ia
Ġstell arum
Ġintrod uc
Ġopport un
Ġregim en
ĠIoach im
Ġdiscrim en
Ġbrach ium
Ġsagitt is
Ġbov em
Ġprav ae
Ġapprop inqu
"] ,"
4 28
E s
I p
I st
U rb
V ir
] }
a ad
c ra
f t
h es
j ect
l en
l oc
m ihi
m og
n os
r ui
t orum
u ert
Å ¾
Ï Į
Ï į
Ð ¡
Ð ¶
å Ń
Ġ ]
Ġ ....
Ġ ulc
Ġ ÏĦ
Ġ ä¸
Ļ éĭ¼
Ġa evo
Ġs a
us us
Ġp es
Ġp ug
at ii
at ch
Ġc he
Ġn i
Ġm am
ic y
ic io
ic omm
Ġv iis
Ġv endere
Ġt ar
Ġt orm
Ġt ecta
li orum
et es
ar ro
ec utus
ul arium
Ġpr ost
Ġpr osc
ol os
Ġad sequi
ed ic
Ġre stat
ac iter
Ġut pote
al s
Ġcon fectum
ĠI ure
ĠI erusalem
ĠA N
Ġex str
Ġex ha
ĠS crib
ĠC li
ĠC IC
ĠD ur
Ġdi urn
Ġfac ilior
ĠP en
ĠQu ar
ili bet
Ġg ente
Ġco qu
ĠN atus
Ġpos uisti
Ġsc itum
iv es
ĠM ac
Ġab ys
Ġab bat
Ġab hor
ĠH ann
Ġsit e
Ġne utrum
ĠR el
Ġca lig
Ġca lid
ĠF inis
ĠF usce
ĠT ulli
ĠT rib
Ġvol uisti
Ġcons urg
ĠV icip
ĠV arr
ĠB ell
ĠB ad
Ġint end
Ġint rat
Ġprop h
Ġscr ibi
Ġcomm ittere
Ġsum ere
Ġst igmata
Ġcor ona
Ġ19 23
ĠO ly
Ġloc uta
Ġloqu antur
Ġsp ha
Ġincol as
Ġser p
Ġsub stit
Ġpost erum
Ġaud iat
ĠU lix
Ġcaus atum
le y
Ġimp ress
ero g
ad o
Ġag no
aud iae
Ġrat um
Ġvit are
Ġvoc is
Ġput atis
ff er
Ġcur rit
Ġsuper iore
ne x
Ġmal le
Ġiudic e
Ġrep ente
Ġnomin antur
Ġdec us
Ġded eris
Ġ200 1
era que
ĠFranc ia
Ġlit ore
Ġgrat uit
Ġconf ug
Ġconf erre
Ġinv itus
Ġinf idelibus
Ġnot is
Ġpraec edit
ĠAm mon
Ġcar cere
Ġcol onia
Ġmis isti
Ġpraeter it
Ġmor a
Ġmor iuntur
Ġvide ar
Ġcirc uitu
ĠLat ino
Ġinven isti
Ġprincip atus
Ġcert is
Ġsumm us
Ġfug iunt
Ð¾ Ñģ
ĠQuae s
Ġduc ti
Ġeg erit
Ġext rah
ĠPr ob
Ġexerc itat
Ġsapient er
Ġvic tum
Ġvic arius
ĠMar ci
Ġit al
Ġfut ur
Ð¸ Ðµ
Ġw ord
Ġiis dem
Ġstat uit
Ġproc re
Ġ11 7
Ġmuli erum
ĠBr und
Ġcontr actum
Ġquin tum
Ġtrans ire
Ġimm in
Ġimm ol
Ġliber ae
Ġliber atus
Ġsoc iorum
ane um
Ġaedific atum
ĠIo ab
Ġmet imur
Ġdist ric
Ġdet rim
Ġfl u
Ġpraecip it
Ġquaest or
Ġquaest ione
Ġadd uxit
Ġarg ent
Ġev entus
ĠSp ec
Ġmiser rim
Ġredd at
Ġch em
red itur
Ġbib as
Ġbib liothec
Ġparv am
uic em
Ġlabor are
Ġclar iora
Ġdict urus
Ġerr oribus
Ġcop ul
Ġcop iam
Ġcop ios
land iae
Ġincip ere
ereb amus
ipisc i
Ġpriv ileg
Ġrog at
Ġrog atus
ãĤ ¹
ãĤ Ĵ
Ġpropos ita
Ã¡ ria
Ġ199 3
Ġaest ate
Ġlud os
Ġtestim onia
Ġpuell is
erd in
olog y
Ġvers atur
Ġfide libus
Ġorient em
Ġpossid ere
Ġsimplic em
Ġ197 8
ĠMed iol
Ġscel us
ĠNe ap
ech n
ĠCl er
Ġadv entus
ĠBritann iae
Ġ198 9
ÐµÐ ´
ĠImper ator
Ġfacult ate
Ġexcept is
Ġdioeces i
Ġminist ri
ĠSam aria
Ġhor as
Ġiuv at
Ġrecord atio
ĠNost rum
Ġimpet um
Ġsacerdot io
Ġaccept o
Ġmemin isse
Ġproeli um
Ġvictor iam
ĠTemp ore
Ġdeclar at
Ġinvid ia
Ġâ Ĺ
Ïģ Î±
Ġhosp it
Ġdilect io
Ġpleb is
ĠHab et
Ġqual itas
Ġinius t
ĠArch iepiscop
Ġconfit eri
Omn is
Ġrevers us
ĠLab an
ĠSex t
Ġresist ere
Ġcruc em
Ġresurre xit
Ġnonnull a
Ġclaus a
ĠSent entia
Ġpeti erimus
Ġoctav a
ĠAct s
ĠPraec l
Ġsusp ecta
Ġnoct es
atto o
Ġavar itia
ĠBeat rix
Ġsubl ata
ĠEzech ias
ĠÅ ¿
Ġrob ust
Lib er
Ġparoec iae
Ġglori ari
Prim um
Ġpeper cit
ĠGa ius
Ġatting ere
ĠInterrog atus
Ġimpon itur
Ġadept o
Com p
Ġexcels iores
ĠGre ek
Ġimprim is
ĠHung ariae
Ġcotidi ana
ç´ Ļéĭ¼
ĠAnsel mo
ĠCantu Ã¡ria
ĠBruns v
ĠVind ob
! !
' )
? )
C ras
D onec
E C
E ccles
L L
S e
X II
c as
d u
f ort
i atus
i udic
k i
k er
l orum
m ann
n y
r iam
r ant
r oni
t es
u itatem
w h
¤ ãĥ
Ä ķ
å ¥
å Į
Ġ Ø§
qu em
um en
er atus
Ġa x
Ġs eri
in xit
Ġqu and
Ġqu acumque
is ta
Ġp ens
am b
am i
on icae
Ġc entur
Ġc arent
Ġn ich
Ġm enda
Ġin nox
Ġin eff
Ġin uicem
Ġv ag
re l
Ġf onte
Ġf icta
Ġf olia
om us
im ile
id os
id uo
ec isti
ul erit
ia li
Ġad op
Ġre um
ud ens
ab amus
Ġut risque
ot i
ot es
ot os
Ġde ponere
ĠS eg
ĠS ing
ĠS uet
ĠD ig
ĠD ign
est atem
end ite
Ġprae p
Ġprae fic
rat ione
ist icae
ĠP sal
ĠP uer
Ġsed uc
Ġen um
uit us
Ġquid itas
ĠM aecenas
Ġpot uimus
pt is
Ġab ut
Ġab dic
Ġu ers
Ġr ud
Ġr ot
Ġop orter
ĠH ost
ĠR a
ĠR eb
ĠR usc
ĠR ursus
Ġam avit
Ġpag e
ĠT enn
Ġinc umb
Ġvol ebam
isc ip
ĠV ulgate
ĠV ivamus
Ġpl eraque
Ġnec atus
Ġnec non
Ġun itate
Ġacc eptum
Ġint est
ov a
Ġdix ero
Ġdix erint
Ġanim as
Ġleg avit
ĠIn stit
Ġven iant
ĠO x
Ġloqu entem
Ġdol eo
Ġnum erat
Ġaud iret
Ġomnes que
ĠSed es
Ġimp let
Ġquibus cum
itas se
Ġdu arum
Ġo ut
Ġnatur alem
Ġcommun itas
Ġdeb eatur
Ġac quiesc
Ġurb ium
Ġtr ac
Ġcur at
Ġrem ota
Ġdisc ept
Ġnomin atur
itud in
ug ium
Ġcogn itam
Ġ5 00
Ġfort es
Ġrec re
Ġrec urr
Ġact ionibus
Ġconf ecta
Ġdel et
Ġinf antes
Ġpraec episti
ĠAm as
Ġcar itatis
Ġcol um
Ġmat ri
Ġmat tis
Ġlab eo
Ġmor eretur
Ġdoc e
Ġvis it
Ġneg lig
Ġdomin ium
Ġprincip is
Ġcert amen
ĠAr aris
Ġfug erunt
Ġquaer am
Ġduc itur
Ġduc atus
ix um
Ġ12 1
Ġfam am
Ġmut atur
ord in
Ġcognosc eret
Ġappell ati
Ġpet it
Ġpet eret
Ġcet erum
Ġstud iose
Ġlaud is
Ġ13 2
Ġ13 3
Ġ13 8
Ġsen ectus
Ġ14 7
Ġproc edit
Ġ11 3
Ġintellig entiae
Ġmens am
Ġ10 7
Ġaper itur
ĠBr as
Ġpecc at
Ġaccus atus
Ġcontr ariae
ãģ ª
ĠMa ur
Ġsignific et
ĠOmn ium
Ġaequ a
Ñģ Ñı
Ġsimul ac
ric em
Ġdiff erant
Ġtrib uta
Ġadvers ariis
Ġbeat issimum
Ġgrav em
Ġmand avi
Ġlic itum
Ġmiser am
Ġobs id
Ġaetern us
Ġsecund ae
Ġinstit u
Ġlae ta
Ġperm ut
Ġpugn am
Ġdelect or
Ġreper io
Ġpauc orum
ĠNov a
Ġmeli ores
Ġnob ili
Ġnunt iatum
Ġlac ess
Ð°Ð ¹
Ġcorr ip
Ġrog are
Ġrev era
Ġperic uli
lem ent
Ġ194 8
Ġ194 9
Ġnar ravit
Ġmar itum
Ġmar ito
Ġlud o
Ġaug ur
Ġfem inarum
Ġmiss i
Ġambul abat
Ġcast rum
Ġdivis io
Ġdivers um
Ġcompos uit
Ġsor ore
Ġfide icomm
ĠPar isi
Ġpret iosa
Ġiniqu um
Ġcircum cid
Ġpass im
Ġintra re
Ġsy stem
Ġparent um
Ġvinc itur
Ġinde x
Ġscel era
Ġnat alis
Ġnat ionibus
Ġfund i
Ġperpet ua
ĠDol ores
Ġfecerit is
Ġfel es
Ġcondic ionem
Ġconced i
Ġcrim ina
Ġrelinqu ere
ĠLuc ius
Ġcommod a
Ġsempiter nam
ĠCathol ica
Ġeleg antiam
Ġgenerat io
Ġindig et
Ġalt ius
Ġalt itudo
Ġ185 3
Ġinst ar
ĠAf ricae
Ġx ii
Ġdeduc ta
Ġparticip es
Ġproficisc i
our t
Ġsomn ium
Ġhor am
Ġcad unt
Ġmunicip ia
Ġsumpt um
Ġ186 0
ĠXV II
Ġaccept i
Ġmemin it
Ġnub es
Ġinteg ra
Ġdur ius
ĠXX I
Ġinqu iunt
ĠZen onis
Ġdelic tum
Ġquaereb amus
ĠSequ i
Ġcapit ulo
Ġgreg em
Ġuer itate
Ġinsip ientes
Ġinsip ientium
Ġuolunt ate
Ġ180 6
Ġpollic etur
Ġacceper at
Ġperc ept
Ġmultip lex
ĠMaxim e
ĠMaxim um
Ġpast or
Ġnonnull is
Ġreman sit
Ġconsumm ati
Ġui uere
Ġpartic eps
Ġcontent ione
ĠJud ae
Ġcotidie que
ĠSab audiae
Ġevangeli z
ien ce
Ġprimogen itus
Ġconsiderat a
Ġcen am
Ġrequ ire
ĠNap oleo
Ġdext ram
Ġvestig ia
ĠEvangeli um
Ġegreg ium
Sic ut
Ġabb as
ĠDes erunt
Ġbas il
ĠTre b
???? ????
ĠPompon ius
Ġabscon dit
Ġabscon di
ĠAv ic
æĹ ¥
Ġexh ered
Ġconfite or
ĠDemocr itus
108836 28
Ġprou inc
Ġdiluv ii
Ġtranqu ill
Lingu a
ĠFrider icus
Ġdeterr itum
Ġinflam mat
Ġpern ici
ipublic ae
ĠSyrac us
Ġoporter et
! )
8 39
9 0
9 5
A M
A utem
E p
H ab
J oh
S U
S unt
T um
V el
X IV
d is
d ific
f ord
i ano
m l
n esc
t as
x isse
y a
» ¿
Î ®
å ½
å Ĩ
è ¡
Ġ ic
Ġ lius
Ġ 01
Ġe lic
er y
Ġs h
in one
Ġp ensa
Ġp sal
at arum
Ġc ale
Ġc eperunt
Ġc Åĵ
ae st
Ġd ate
Ġd aretur
Ġm ere
Ġin di
Ġin quir
Ġin eptum
ic s
ic al
Ġv ov
Ġv ast
Ġv iarum
Ġt on
Ġt arn
re a
re ta
Ġf erat
en ce
im age
Ġh el
id ior
id itas
Ġpr or
Ġpr Ã¦c
ol vit
Ġad fic
oc endi
Ġre b
Ġl itus
ud it
ac a
Ġut ar
Ġut ilis
Ġut eretur
el e
op at
ĠA di
Ġex stat
Ġquam que
ĠC en
ĠD or
end e
ip iam
Ġper ire
Ġaut h
ĠP ut
ĠP un
ĠP isc
ĠQu aec
Ġco gitur
quam quam
ens o
Ġhab uisse
Ġsc ias
Ġsc iri
Ġsc iebat
uc tus
Ġpot eram
eb or
Ġver so
Ġips arum
ĠL o
Ġop e
Ġop ert
ĠH os
ĠH orum
ĠH arum
av ailable
ĠR up
Ġam amus
ĠF erdin
Ġpag inae
ĠT anta
Ġinc epit
ĠV i
ĠV il
ĠV bi
Ġpl anum
Ġsol itudo
ing it
ĠB is
Ġcont endere
Ġcomm issa
Ġinter ven
Ġfu ere
Ġfu isses
Ġor igin
Ġlib rorum
Ġsec uta
Ġdix erim
ran e
ĠIn f
ĠIn v
ĠO g
ĠO h
Ġser o
Ġsub dit
Ġaud eat
Ġob ed
Ġann untia
Ġcuius modi
Ġsim ilibus
Ġdeb ebat
res so
Ġag endi
Ġput antur
Ġput avit
Ġist os
Ġcur es
Ġsuper v
Ġdiv ino
Ġiur ibus
Ġrep rob
ĠâĢ ŀ
Ġdec ur
Ġas ino
Ġdes erta
ici untur
Ġintell ecta
ĠFranc orum
ĠFranc ogallic
Ġrec ent
di ffic
Ġgrat ius
Ġscrib imus
Ġconf erunt
Ġinv ito
Ġviv us
he ight
ĠAm ic
Ġins unt
Ġins crib
Ġten eat
Ġplac eret
Ġfecit que
Ġvide as
Ġprov idere
Ġfi ebant
Ġvis ionem
Ġprob abis
ann a
Ġsal ub
ĠJ er
ĠJ erusalem
Ġing em
ĠPr os
ĠPr oph
Ġtest em
Ġ12 2
Ġ12 6
Ġ12 7
Ġintelleg is
Ġvic em
Ġmut ata
Ġmut uam
Ġaccip iatur
Ġreliqu orum
Ġcet eras
pos sumus
pos ition
Ġ13 4
Ġph il
ĠCon stit
str orum
Ġstat uta
Ġstat utum
inam ur
Ġ11 6
Ġintellig atur
Ġmens em
Ġmil lia
Ġsac ris
Ġ10 2
Ġ10 4
Ġsubi ect
Ġsubi ecit
Ġsignific antur
Ġcup it
Ġrect issime
Ġthe y
Ġthe ir
ĠIo anne
nam e
ric o
ric is
Ġmov ent
Ġult ro
Ġult imo
Ġnoc tu
Ġconven erunt
Ġth em
Ġdon ata
Ġperfect iones
Ġquaest ionis
Ġunivers um
Ġfer ri
ĠW e
ĠW il
Ġmir abantur
Ġarg enti
Ġdebet is
Ġexplic are
Ġfamili arem
Ġamp ut
ori arum
Ġch at
Ġcogitat ionibus
Ġpraest et
ĠGal aad
Ġcal or
ĠAli i
ĠAli o
Ġdelect ant
ĠInt ern
Ġhonest a
Ġcupid itatem
Ġfur oris
Ġopin iones
Ġpriv atae
Ð°Ð ²
Ġcr u
Ġconv entum
Ġpropos itio
Ġcas ibus
Ġ199 2
Ġaff lic
ĠHispan iam
Ġmar iti
Ġimag ine
Ġgest orum
Ġnav ium
ĠSept em
Ġconiunct ionem
Ġscrips erit
Ġignor are
Ġcompos itionem
Ġadhib etur
Ġscriptor ibus
ĠPar lam
Ġordin atus
Ġeu angeli
Ġiniqu itas
Ġcompar atur
Ġpass iones
Ġturp iter
Ġturp itudinem
Ġconsum ere
Ġcreatur am
Ġ196 0
Ġgl ob
Ġpauper es
Ġsusc ept
Ġrestit ui
ĠBritann icus
Ġacced unt
Ġfest o
Ġfest iv
Ġgenerat ionem
Ġsingul aris
Ġcib o
Ġscit ote
Ġ185 8
Ġconfirm atae
Ġtabern a
Ġtabern ac
Ġtabern aculo
Ġapostol is
Ġ195 8
Ġsollic itudin
ĠEs iae
err imus
ĠPot es
ĠGen esis
Ġcommend at
Ġiuv are
Ġproport ionem
Ġadiuv at
Ġschol is
Ġcess at
ĠScip ione
Ġsoli dum
Ġty p
Ġdecre vit
Ġperfic ere
vent ore
Ġminister ium
Ġadulesc ens
Ġaccess eris
Ġfing unt
Ġrequir it
Ġventur us
Ġ189 3
ĠMarc ellus
Ġpropriet ates
Îµ Î¹
200 00
Ġcathol icae
Ġpopul aris
ĠAcadem iam
Ġedic to
Ġpoet arum
Ġconfus ionem
Ġconcupisc es
Ġhodiern um
Ġnut ri
ĠMal mog
Ġexprim ere
Ġcler icus
Ġpermitt itur
Ġconcip i
Ġobliv isc
ĠSyr iam
Ġcresc it
ĠPraes es
Ġpict ura
Ġadmirat ionis
Ġnud us
Ġimport at
Prae terea
Ġmaled icta
Ġprocur ator
Ġsacram entum
Ġlacrim ae
Ġlo quamur
Ġration alis
ĠDiet am
Ġnoct ibus
Ġmedioc ri
dom ad
ack son
Ġobt ulit
ĠCel tae
Ġfont es
Ġrede amus
Ġpontific atus
Ġhom ic
ĠÐ¾ Ð±
Ġbl asph
Mar cus
Ġcomplex us
Ġillust ris
Ġbenedic at
Ġtermin os
Ġmedic ina
ÑĨ Ð¸
uth rot
ĠElis atia
Ġcarm ina
Ġverec und
Ġmaer ore
ĠCred o
Ġcoerc endi
":[ "
ĠFrat er
Ġceler itate
ĠOri ent
Variant s
Ġadiun xit
igh ly
ĠCong reg
Ġpraedit i
ĠNorveg iae
Ġnong entesimo
Ġsug g
ĠHierosol y
Ġsepe li
ĠHierony mus
ĠEphra im
ĠTenn esiae
9 7
: //
= "
> .
? âĢĿ.
D ownload
I ab
K G
M ulta
N umquam
U C
U n
a que
c ont
d ere
f eatured
g es
i emus
i ebant
o unt
p le
t ionis
u untur
v um
v us
z y
Ã ¸
á ŀ
å °
å ĩ
æ °
ï »¿
Ġ Ïĥ
Ġe dixit
er p
er u
er ven
Ġa vers
Ġs es
in u
Ġqu aliter
Ġp ont
nt ur
Ġc f
Ġc ari
Ġc edit
Ġd etur
Ġd entes
Ġd ans
Ġd atam
Ġm en
Ġin pr
ic ul
ut es
ut iae
Ġf ato
Ġf reg
li xit
en ia
om i
im et
im arum
Ġh yp
ar m
ec k
ent ae
ent os
Ġnon aginta
Ġpr iori
ia vit
ol es
Ġad aequ
Ġl atus
Ġl ate
el o
as que
Ġde ae
al d
al itatis
ĠA st
ĠA ri
Ġex ord
Ġex inde
Ġex ponere
Ġex amin
ĠS ta
ĠS up
ĠS oph
ĠC op
ĠC ore
ĠC ath
ĠC ity
ag ement
omn is
ĠD id
ĠD uae
est atis
Ġper sequi
Ġb el
Ġb eg
ĠP ad
ĠP KG
ra d
ect ed
ĠQu arum
ĠQu inct
omin a
Ġg al
Ġg entis
Ġg eruntur
no w
Ġco empt
ens am
ens ione
Ġhab ito
Ġpos c
Ġpos it
Ġsc iebam
ĠM M
ĠM ex
ĠM odo
Ġpot entes
und am
eb imus
Ġ2 50
are st
ort us
ort is
Ġposs es
Ġab hinc
Ġu p
ĠL up
Ġer rat
Ġer og
Ġca ud
ĠF ur
ĠF ann
ĠT ul
ĠT ab
Ġaliqu antum
ĠV ero
Ġpl ene
Ġnec ati
ert atis
ess i
Ġpotest ati
Ġsol vit
ing ere
ing ton
ĠB y
Ġcont ulit
ull us
Ġor ationes
Ġres usc
Ġsec uti
Ġsic c
Ġst o
Ġst ans
Ġanim is
Ġmin imo
Ġcor n
Ġleg iones
Ġfec issem
Ġ19 12
Ġ19 34
ĠO dit
ĠO ce
Ġloqu ente
Ġaud iamus
Ġimp ii
Ġmagn os
Ġmagn arum
ĠRom e
ĠAn imi
Ġnatur ali
Ġnatur ales
Ġdeb eri
Ġnull as
Ġac adem
Ġput abant
ern is
Ġexp ell
Ġmal it
Ġiudic ibus
ĠĠĠĠ ĠĠĠ
Ġamic e
Ġdisc imus
Ġnomin ati
Ġded ocendi
Ġdes uper
Ġtot idem
Ġact ionis
Ġconf estim
Ġdel ecta
ĠÐ °
Ġel udet
Ġinf ans
Ġcl arum
Ġpraec epi
Ġcar iorem
Ġcred as
Ġdef ini
Ġopt imo
Ġdoc endi
Ġprob lem
Ġprob abantur
Ġcirc ulum
Ġprincip alis
Ġsal t
Ġfug am
ĠGraec am
Ġaet erno
Ġtum ultus
ea u
Ġimper fectum
Ġing ress
Ġoffic iorum
Ġsus pectum
Ġintelleg imus
Ġsapient ium
Ġhon orum
Ġcogit et
Ġhum ili
Ġreliqu iae
Ġaed em
Ġappell ari
Ġappell atio
Ġsup erest
uct ae
Ġlaud ari
Ġ13 1
Ġsen atui
Ġconstit uere
Ġglor iose
Ġglor iatio
Ġod isse
Ġdiscip ulum
Ġintellig imus
Ġmens uram
Ġsubstant ias
Ġem itt
Ġmun eris
Ġfact ionem
ĠQuam obrem
Ġpraedic ari
Ġmuli eri
Ġlat et
Ġcontr ib
ĠMa iores
Ġsoc ios
Ġuna quaeque
Ġost endi
Ġaequ alia
Ġregn a
crip sit
Ġsing ulae
Ġpraecip iendum
ĠIuli o
Ġperfect ionis
Ġadd itum
ĠTh em
Ġearum que
Ġconsul ere
Ġmand atis
Ġmand ato
Ġfamili ari
Ġnol uisti
Ġinstit uti
Ġreprehend it
ĠAnt iqu
ĠAnt oni
Ġref ell
Ġeodem que
ĠPrae mium
ĠId que
ĠId ibus
Ġperm ulta
Ġparv o
Ġepist ularum
ĠIll ae
Ġprom is
Ġdict ator
Ġerr ores
Ġdil ecta
Ġpugn at
Ġdelect et
Ġreper itur
ĠPer se
Ġlibert i
Ġlibert us
Ġdesc isc
Ð°Ð ±
Ġdisput atum
Ġdisput ationibus
Ġteneb itur
Ġ199 6
Ġ199 7
Ġaug eri
Ġnav em
ict ion
Ġson at
Ġcogno verunt
rec ta
Ġfortun as
ĠPa uli
ĠAugust o
Ġmerc ator
Ġdivis a
Ġmanifest a
Ġsociet ates
ĠPar th
Ġpossid eat
Ġhort o
Ġrel eg
Ġcustod ia
Ġment iri
Ġagn um
Ġvinc ulum
Ġhi er
Ġmer ita
Ġ196 5
Ġ196 6
Ġ196 8
ĠVen it
Ġplen itudinem
ĠUrb is
Ġsalv a
Ġpraesid es
ĠÎ ¼
Ġpraem itt
Ġbest iarum
Ġceleb rat
Ġtac ere
Ġstult itiam
Ġcomed e
Ġdepos ita
Ġ198 2
ÐµÐ ²
ÑģÑĤ Ð²
Ġtoll endam
ĠAng lia
Ġmori ar
Ġclam at
Ġabsol vi
Ġsuspic io
Ġsuspic ione
Ġadduc et
Ġsil entio
Ġimpet u
Ġconsc ientiam
Ð¸Ð ´
Ġturb ae
Ġglad ius
Ġmont ibus
Ġpraepos itum
Ġinqu ies
Ġuoc atur
ĠQuint o
Ġartific io
Ġ187 0
Ġquaereb atis
ĠBo oks
Ġdissim ile
Ġcapit ulum
Ġent is
Ġgreg es
Ġinvid iae
Ġlap is
Ġare a
Ġ180 3
Ġeloqu entiae
Ġpraeb et
Ġpopul ari
Ġcub iculum
Ġconfit etur
Ġrespic it
Ãł m
Ġnupt iae
Ġtex t
ĠApostol us
Ġhabita verunt
burg um
Ġsuffrag io
Ġsupplic ium
ĠGeorg iae
Ġproced unt
Ġpell ic
Ġpell entesque
Ġdestr u
ĠPlac eat
Ġcolloqu ium
Ġdimitt e
ĠOcc itania
Ġeffug ere
Ġconcord iae
Ġorig ine
Ġsuperb ia
Ġsuperb iam
Ġinvoc abo
Ġbore alis
ĠMaced oniam
ĠTorqu ate
Ġincon stant
Ġincon veniens
ĠHer od
ĠHer ac
ĠLudov ici
æľ ¬
ibili ora
Ġsel ectio
Ġconl oqu
Ġinterdic tum
Ġceter arum
Ġplor avit
Temp oribus
Ġreddit ae
Ġpare ns
ĠTri arius
Ġobsc ura
Ġsuppon at
Cap ut
Ġpraepon unt
ĠSalom on
Ġhil aretur
Ġpuerit ia
ivoc e
Ġdiap ente
Ġdiscipl inam
Ġspecial iter
htt ps
ĠFoeder alem
1450 839
Ġuber iora
Ġulter ius
ĠBuc arest
ĠOrb is
ĠNobeli anum
ĠÄĮ erven
Ġineb ri
ĠLug d
Ġprocons ul
ĠOport et
ĠHann ib
Ġproph etis
ĠRusc inone
" ).
' :
' ).
( );
9 8
> ,
A ug
D ie
M ed
S um
S PD
S anct
T ex
U nde
V en
V ers
X I
b ur
c es
d ae
f it
f ell
f rag
g ar
h um
m ar
m ate
m entum
p ol
p ad
s ub
t he
u j
v iae
Â º
Â Ĺ
Ã £
Ã ı
Ä ĩ
Å Ĥ
Ñ ī
å Ľ
Ġ Ú
Ġ one
Ŀ ¼
um ent
Ġa erum
Ġs ur
Ġs ud
us um
us andae
Ġp ig
Ġp endere
Ġp ictor
at ivum
on os
on as
Ġc i
Ġc ul
Ġn unquid
ae o
st is
Ġd ando
Ġd urum
Ġm ili
Ġm ost
Ġm isc
Ġm avis
or iam
ur iam
ur rent
Ġv entum
Ġv ini
Ġt ir
Ġt ectum
Ġt aed
Ġi v
Ġi vit
re qu
Ġf ulg
Ġf elix
et ia
an k
ul ares
Ġpr iore
ed en
Ġre o
Ġre quis
Ġl acte
ab eris
ab imur
el um
as on
as ch
il ud
ot ograph
Ġde lig
Ġsu arum
al la
ĠE ae
ĠE lect
ĠE veniet
Ġcon antur
Ġex stit
Ġex tor
Ġex quir
ĠS ev
ĠC ed
Ġan x
ĠD aniae
Ġdi ligo
Ġqui libet
Ġdic ent
ĠP uto
ĠP age
ra li
Ġsed ebat
ĠN av
Ġpos itus
Ġpos ito
ĠM ic
Ġ2 18
iss am
ort es
and er
Ġab out
Ġvid ebam
Ġvid uae
Ġu ic
Ġu et
Ġu elle
ĠL B
ĠL y
ĠH o
ĠH ir
Ġer as
Ġca ut
Ġca strorum
Ġam issa
Ġam oen
ĠF em
Ġpag inas
ĠT ecum
Ġinc rem
Ġcu ipiam
ĠV ers
ess um
Ġun gu
ĠG od
ĠG racch
Ġacc idunt
Ġcont enti
ull o
Ġinter itum
Ġor atores
Ġpat ientiam
Ġpat ienter
Ġbon itatis
lig ht
Ġst atio
Ġmin u
Ġnost rud
Ġ19 30
Ġ19 32
ĠO dio
Ġloc utionem
Ġloqu imini
Ġquis piam
Ġincol is
Ġob lect
Ġscrip ti
Ġimp ius
Ġimp ub
Ġcommun ionem
iat ionis
Ġrat ioni
Ġvit ulum
Ġvoc amus
Ġist arum
Ġeam dem
Ġ18 14
Ġ18 36
Ġdiv ini
ĠSi gn
Ġas sequ
Ġpop ulis
Ġcomp reh
Ġcogn omen
Ġconc essit
irc a
Ġact ibus
Ġconf l
Ġconf erebamus
Ġviv imus
Ġpossit ne
ĠAm b
Ġsign avit
Ġins itam
ve h
Ġnov as
Ġnov erunt
Ġopt ion
Ġdoc ebit
Ġhuius ce
Ġprob antur
Ġprob abile
Ġcirc ulo
Ġcert am
Ġcert ior
ĠAr n
Ġvest imenta
Ġj ur
Ġquaer atur
ĠQuae st
Ġpecun iis
Ġpecun ias
pic io
ass es
Ġdilig entiae
fer endis
cr ibi
Ġdign os
Ġdign itati
Ġexerc ere
Ġvic ti
Ġcogit es
Ðµ Ñģ
Ġcognosc es
ĠX L
Ġaed ium
Ġpet ivit
ll us
ll am
Ġpatr ono
pos ita
Ġbell e
Ġprovinc iis
Ġproc lam
Ġproc edere
Ġ11 4
Ġem olum
Ġexist is
Ġaper uit
Ġfaci ebant
Ġlat ron
ãģ ĵ
Ġspec ialis
Ġsignific ans
Ġfal si
Ġimm orta
Ġrect us
ĠGerman icae
Ġregn avitque
Ġepiscop os
crip s
Ġdiff lu
Ġmov entur
Ġnoc et
Ġnoc ent
Ġluc ri
Ġconven iant
Ġth ron
Ġprod ux
Ġfer oc
Ġtrad ita
Ġev ol
Ġed idit
Ġlic ere
Ġlic entia
ĠNihil ominus
Ġexemp li
Ġch ili
Ġparv ae
Ġdiss ip
ĠAli as
ĠSc is
Ġden unt
Ġatt ulit
ĠChristi anae
ĠÂ§ .
Ð¾Ð º
Ġav es
Ġav ia
Ġvera x
ĠCar oli
Ġon eris
Ġon ly
Ġalien ae
Ġhonest ius
Ġproxim a
Ġproxim is
ĠMag ist
Ġquot idi
ĠCat one
Ġport um
Ġport as
Ġsuscip ere
Ġequ orum
Ġingen i
Ġ194 3
Ġperd itum
Ġlud ere
Ġaug etur
Ġimag inamur
Ġgest is
Ġped um
Ġambul at
Ġconiunct ae
Ġdam ni
Ġdim ic
Ġexspect amus
olog ia
Ġdux erit
Ġperven erunt
ĠIacob i
Ġordin atur
Ġfre e
ĠVid eo
Ġrel ationem
Ġpass uum
all ust
Ġment io
Ġvinc la
Ġ197 5
Ġmilit ari
Ġfund amenta
Ġplen i
Ġfel ices
ĠCor rupti
Ġpauper ibus
Ġcondic iones
Ġexper i
Ġcrim in
Ġrelinqu o
Ġpostul et
ĠAg ar
ĠFac ere
Ġpoen as
Ġelect i
Ġsuffic iat
Ġot iosus
Ġfacult atibus
Ġdioeces im
Ġvend ibiliora
ĠLa ur
ĠRe ad
Ġvehem entius
Ġobi ect
ĠAthen as
Ġloqueb amur
Ġvocabul is
Ġconp rehend
ĠVal le
ĀĀ Ā
Ġorn are
Ġduod ev
Ġhabeb itis
Ġmemin erimus
Ġcec idi
ĠMult um
Ġpraef uit
Ġpercip itur
ĠProp terea
ĠRuss ica
ĠZen oni
Ġcolleg ium
ĠTemp oribus
Ar ch
Ġinvid iam
ĠPy th
ĠSy n
Ġhosp itio
ĠEuropae ae
Ġarb or
Ġexcell entiae
Ġprec ibus
Ġvulg i
ĠQuibus dam
Ġpraepar abit
Ġrespic e
ĠJes u
Ġec lips
Ġuerb is
Ġomitt amus
Ġconcip eretur
Ġcustodi erit
Ġsubt ilius
ĠSeptentr ione
Ġdomest ica
ER O
ĠNesc iunt
Ġcompl ures
Ġaccipi enda
Ġcord ibus
Ġconiung i
ĠPlac uit
Ġgign untur
Ġbarb aris
Ġdemonstrat io
ĠPraec ip
Ġvetust atem
Ġbenign e
Ġdisplic uit
Ġdistingu itur
Ġavar itias
Ġdemonstr ari
Ġmyst erium
dixit que
ĠAnglic a
Ġaffic ere
Ġdesid ero
Ġfornic ati
ĠMolest ias
Ġresponde as
Ġattend e
ĠAfric am
ĠVic tor
ĠÃ¦ ter
ĠÃ¦ dific
Ġpersec utus
ĠMaced onia
ĠTert ium
Ġterm inus
Ġsurg ere
Ġcontig it
Ġvaletud inem
Ġabscond itum
Ġsyllab ae
Ġinnumer abilia
Ġrepugn et
The od
Ġconsue vit
Ġthesa uris
Ġconsid eret
Ġconiun x
ĠLong um
Ġconscrip ti
ĠPhilipp us
ĠExerc itationem
ÐµÐ» ÑĮ
Ġexim ia
Ġremiss ionem
Ġinsc itiae
Ġsax um
ĠXen oph
Ġincogn ita
ĠLus it
Ġtutel ae
Ap ud
Ġfront e
ĠTit ularis
Ġpatef actio
Ġnesci ebatis
Ġevac u
ĠGali lae
ĠWest ph
onc ili
ĠPyrr ho
Ġpropin qui
ĠTerr arum
ĠAper iam
ĠSper o
Ġincorp or
Ġwebsit e
Ġuteb are
Ġcaer ule
Ġoccurrent ia
ĠOly mp
ĠâĹ ī
ĠAvic enna
Ġopert arum
Ġinpr udens
& @Ąą
C l
E dit
G rat
M at
N emo
N ulla
P rop
R ep
X L
g one
i er
l as
m ina
p io
p rehens
t ius
u z
u que
u itate
y ch
² ½
Â ª
Ã Ł
Å «
å Ĭ
æ ±
æ Ŀ
ê ²½
Ġe cc
Ġe vit
Ġe rect
qu ant
er are
Ġa en
Ġa eris
Ġa ve
in v
in ta
Ġp ect
am em
Ġc uc
Ġn ato
Ġn actus
Ġd ato
Ġm itter
or ae
Ġin pon
ic on
Ġv ariae
Ġt utum
Ġf Åĵ
om ata
es uada
Ġh y
Ġh ad
od ia
et te
ar z
ar di
an im
id el
ul aribus
ent s
ent issimi
Ġpr i
Ġad ium
oc les
Ġl y
Ġl ar
Ġl ink
Ġquod libet
ac e
ac or
ac ium
Ġut ili
el ic
ius s
il o
il y
Ġde fect
Ġde fectum
Ġsu Ã¦
al dus
Ġcon atur
Ġcon ect
Ġcon uers
ĠI f
ĠA M
ĠA gn
ĠA evo
Ġex ar
Ġex equ
ĠS ull
ĠS allust
ĠC lar
ĠC ave
ĠD on
ĠD ia
ĠD ies
est o
est er
est is
Qu omodo
ter a
Ġfac et
Ġfac eres
Ġprae val
Ġprae iudic
itur i
ĠP ugn
ĠP ulch
ĠP ellentesque
Ġsed ecim
per em
ĠN atur
ĠN olo
ens ae
Ġsc iamus
Ġeius mod
ĠM od
ĠM ir
ĠM and
ĠM eli
ĠM ea
ĠM ach
ĠM ense
ĠM esop
Ġpot ior
ort h
Ġse quamur
Ġse quebatur
Ġvel oc
Ġvid eram
Ġr ar
Ġr ig
Ġr itum
ĠL X
ĠL ux
ĠL yc
Ġsit is
av iae
av erimus
Ġne w
ĠR i
ĠR og
ĠF orum
ĠF und
ĠF ieri
Ġpar ere
ĠT ac
ĠT ir
ĠT itum
ĠT ullius
Ġinc ont
Ġinc arnationis
Ġcu ilibet
Ġvol et
Ġpl enus
ĠG l
ĠG lor
ĠB onus
ĠB arb
ĠB uthrot
ust us
Ġint rinsecus
Ġcont enta
Ġcont endit
Ġcomm isc
ig il
ig eniti
Ġfu isti
Ġfu erim
Ġor atoris
Ġres urg
Ġlib et
ep os
Ġpat ern
Ġreg it
Ġreg ulae
Ġst ella
Ġst ellae
Ġ3 00
Ġcre ator
Ġar cus
Ġcor on
Ġcor rept
uli a
Ġfec erant
ĠIn g
Ġven issent
Ġ19 21
ĠO th
ĠO reg
ap ud
Ġdol us
Ġsp re
Ġal ta
Ġus e
Ġoc ulum
Ġpost hac
ific e
Ġman ete
Ġdom os
Ġimp iorum
Ġo u
ĠAn ato
Ġgen ua
Ġsem ine
Ġpart us
Ġpraes entis
Ġvit iose
ie i
Ġcog itas
Ġcur o
Ġcur ia
Ġcur iam
Ġcur avit
Ġsuper avit
Ġsuper stit
Ġsuper fl
Ġexp letum
ne a
Ġmal esuada
Ġiudic um
Ġciv ilibus
Ġamic am
Ġamic itiarum
Ġiur avit
Ġnomin ata
Ġnomin avit
ug g
Ġcogn atione
Ġconc urr
Ġconc eptus
Ġmol libus
Ġlit em
Ġscrib ae
Ġscrib ens
Ġact iv
eli a
ĠRoman am
Ġiust is
Ġviv is
Ġviv ens
Ġpraec essit
ĠAm et
Ġins pi
Ġins anos
Ġcol ebat
Ġpers crib
Ġcred at
Ġcred ens
Ġcred untur
Ġcred iderit
Ġlab oribus
Ġmor bi
Ġmor iatur
ti que
Ġopp ressus
iens em
Ġexc id
Ġprob as
Ġdomin is
Ġinven eris
Ġred und
Ġred itum
Ġprincip um
Ġcert i
Ġcert ius
Ġcert issimum
Ġsumm is
Ġsumm ae
unct um
unct ion
Ġj ure
ĠGraec arum
Ġduc tum
aret ra
ĠJ eh
Ġreli quam
Ġsanct e
Ġund ecim
Ġdilig is
Ġdilig amus
Ġext r
Ġext oll
Ġnecess ariae
Ġplur ium
Ġvic issim
Ġmut u
Ġhon os
Ġign e
Ġign ota
Ġappell o
Ġpet itionem
Ġstud eo
Ġ13 5
Ġsen em
Ġpertin ebat
Ġph antas
Ġph aretra
ĠCon dit
ĠCon feram
ĠUn us
Ġtant us
Ġmens ur
Ġmens ura
Ġfact orum
Ġ10 5
Ġfaci emus
Ġaccus ator
if orm
Ġfal so
Ġliber alis
tem berg
Ð½ Ð°
Ġquant us
Ġquant am
Ġquant ae
lis h
ev um
Ġdem ocrat
Ġth erm
Ġsing ulorum
Ġpor tare
Ġdon o
Ġprod ig
Ġtrib utum
Ġtrib uere
Ġunivers i
Ġunivers itatem
Ġunivers itatis
Ġfer r
Ġadvers arii
ĠTh ess
Ġtrad itus
Ġtrad iderunt
Ġvet errima
lim us
ĠReg is
Ġmon et
Ġpossess ionis
Ġconsul atus
Ġaudi ebat
Ġpulch er
Ġpulch rae
Ġlic uit
Ġhabe antur
Ġamp lect
Ġnol le
Ġnol ui
la y
Ġch ord
Ġperm is
Ġperm ans
Ġcal li
Ġnegot iis
Ġprom ov
Ġdep ort
Ġdep rehendi
Ġsex tus
land itiis
Ġdelect antur
Ġincip eremus
ĠInt ellig
ĠInt eger
Ġeff ecit
ĠCar ne
ĠSt eph
ĠSt atim
ĠNov o
Ġmeli ore
Ġnob iles
Ġcupid itates
ĠAs iam
Ġpriv atio
Ð°Ð ´
Ġscript orum
Ġdisput ationem
Ġdisput abunt
Ġconv inc
Ġconv entu
Ġaur ea
Ã¡ n
Ġterr Ã¦
Ġ199 8
ĠHispan ica
Ġpuell arum
Ġmiss um
Ġoff erunt
Ġoff endit
Ġinterrog at
Ġfoed er
Ġfoed ere
ĠPa uc
Ġmerc atus
Ġmerc atores
Ġads id
Ġdivis ione
Ġdim ittere
Ġignor as
Ġeven ire
Ġdux i
Ġra di
Ġsor s
ith eatrum
Ġperf ecit
Ġadhib eri
Ġadhib eremus
ĠIun ius
Ġiniqu us
Ġcompar andis
Ġinvent ae
Ġtem et
Ġ197 3
Ġmer id
Ġ196 2
Ġ196 9
Ġprophet am
ĠMed us
ĠMed io
Ġperpet uam
Ġaestim ationem
Ġlev ius
Ġstult itia
Ġ0 4
Ġconsec uta
201 8
ĠEn g
Ġeleg i
Ġdubit are
Ġ198 6
Ġgenerat ione
ht ml
ĠOr th
Ġsubs unt
Ġsubs cript
Ġexped ire
Ġexcept o
Ġdioeces es
Ġclam avit
37 428
Ġrelic tus
Ġ185 7
Ġ195 6
ĠSto icus
Ġsollic itus
Ġbrev es
Ġabsol uta
Ġcad av
Ġappar ere
Ġincom modum
Ð¸Ð ·
ĠHel is
Ġtract atur
Ġ186 7
ĠSuper iori
Ġconclus ionis
ĠVolupt ate
Ġcondit or
ind ow
Ġglad ii
Ġline ae
Ġinterpret atio
Ġuit ae
Ġcern imus
Ġ187 6
Ġquaereb at
Ġub era
ĠBo oz
Ġquoc um
Ġgreg e
Ġexpet enda
Ġinfer ioribus
Ġdetermin ata
Ġmom entum
Ġpropriet ate
Ġuolunt atem
Ġpati ar
Ġarb ores
Ġinterf ecit
ĠY ou
Ġquer itur
Ġprog ram
Ġprog redi
ĠRep ublic
Ġcub iculo
Ġinius te
Ġadmitt i
Ġdispos itio
Ġdidic it
Ġuis um
Ġvad is
Ġvad am
Ġib imus
ĠQuin tum
Ġsanctific avi
Ġnupt iis
Ġintu eri
ĠSyr ia
Pr ice
ĠVide amus
ĠSen eca
Ġintellex erunt
Ġcommunic are
ĠHeb rae
Ġnud a
Ġimpos uit
Ġbenevol entia
Ġbenevol entiam
Ġinstrum enta
ĠApoll o
ĠDom iti
Ġmyst eria
Ġverius que
Ġambig uo
Ġcent rum
Ġfung antur
Ġluxur iae
Ġproi ectus
Ġdisciplin as
Ġconfid ite
Ġaufer re
ĠVirg inis
Ġampli fic
Prim o
Ġmo ech
ĠReli qua
ĠBas an
Ġpraevaric ati
Ġpunct um
Sc io
Ġdimis it
ĠMer idi
Ġcredid isti
Ġvect ig
Ġnepot es
ĠMort uus
Ġbenedict ionem
Ġcense o
Ġieiun are
Ġflagit iosum
ĠHomin es
Ġcaptiv itatem
Ã¹ m
Ġnau frag
Ġspelunc a
Ġaem ul
cre ated
ĠAgrip pa
ĠUx or
Ġpostr idie
ĠBrundis ium
Ġdrac o
Ġinlum in
Ġrepreh endo
Urb s
Ġprosc rip
Ġtrac tare
Ġcircumcid eretur
Joh n
ĠOh ii
Ġblasph em
Ġhier arch
Ġdifflu entes
ĠOreg oniae
. ),
. ï¿½
0 2
0 7
: \/
A pp
C at
C ons
C omm
F ull
H ac
J o
L XXX
N os
N esc
O D
O pt
S A
S ch
T unc
b am
b lack
d oca
e undi
g it
g ap
h omo
i endo
k en
m as
n d
n em
n iam
p ae
p ibus
p pi
s ol
v erat
± ê²½
Ã ī
Ä į
Ð Ĵ
Ø ¯
å ·
å ¼
è Ģ
é Ģ
ë Ŀ¼
í ĭ
Ġ %
Ġ ãĥ
Ħ ±ê²½
ĸ ´ì
Ġe at
Ġe ici
Ġe ach
er x
er on
er vis
er andi
Ġs atur
it que
it ores
it ecto
in isc
in ensis
is um
at ior
Ġc inem
Ġc eper
Ġn up
Ġn Åį
Ġd emus
Ġd atae
Ġd abitur
Ġd ownload
Ġd udum
Ġm orum
or b
or ii
Ġin itia
Ġin pos
Ġv es
Ġv ina
Ġv isc
Ġv entus
Ġt endit
Ġt ela
ut or
ut orum
Ġi a
Ġi ram
Ġf d
Ġf erv
en iae
im orum
Ġh ere
Ġh est
Ġh ast
Ġh isce
id arum
id th
os us
os ae
ul ar
Ġpr iorum
ol n
ol phus
Ġad u
Ġre pon
Ġl ob
Ġl ectum
Ġut ilius
as per
op oli
Ġde in
ĠE c
ĠI de
ĠI ug
ĠA h
Ġex al
Ġex sequ
Ġex stant
Ġex act
Ġquam libet
ĠS ul
ĠS ie
ĠS cr
ĠS ardin
ĠD ioeces
ĠD onec
Ġdi ur
Ġqui ete
Ġdic ata
itat ae
Ġfac il
Ġfac ient
Ġb ec
rat ionis
ist arum
ĠP s
ĠP oen
ĠP asch
ĠQu onam
Ġsed entem
Ġg raece
ĠN em
ĠN ept
ĠN atura
ĠN eder
Ġhab ueris
Ġpos itam
eg le
Ġsc aen
iv imus
ĠM i
Ġpot iti
Ġcom itetur
and e
and orum
Ġvid eres
Ġvid issem
Ġu im
Ġr ix
Ġr ara
ĠL it
ĠL oqu
ĠL ider
Ġsit ae
Ġer um
ĠR o
ĠR us
ĠF lam
ĠF uf
ĠF lav
Ġat roc
Ġpro ximus
Ġpar at
ĠT a
ĠT ria
ĠT ry
Ġcons ultus
ĠV et
ĠV inc
ĠV ix
Ġtam etsi
ari atur
Ġun oqu
Ġun itatem
ing en
ing unt
ing illa
ĠG us
ĠG ie
ub a
ub us
Ġcomm em
Ġmod ica
ov ia
ine a
Ġpat ere
Ġpat iatur
Ġpat ientia
eri ore
Ġreg ulam
Ġst abilem
Ġanim orum
Ġanim alis
Ġcor di
ven iunt
ĠIn dign
Ġ19 00
Ġ19 13
Ġ19 17
Ġ19 50
Ġ19 24
Ġ19 27
Ġ19 39
Ġ19 37
Ġ19 05
ĠO rat
ĠO bi
ĠO cta
Ġal lic
Ġal tum
Ġaud is
Ġaud et
Ġaud itus
Ġmult umque
ĠU l
ĠU lt
Ġob itum
Ġmagn alia
iat ae
iat ione
Ġdeb uimus
Ġag er
Ġag eret
Ġag eretur
Ġsem inibus
Ġvoc o
Ġvoc ata
Ġput abatur
Ġput eum
ĠNon n
Ġcog itavi
Ġtabul ari
Ġsuper ioris
ern e
Ġsan us
Ġexp ress
Ġmal ae
Ġdisc edere
Ġnomin um
Ġded erat
Ġcomp le
Ġcomp lac
Ġdes ol
Ġsent entiarum
Ġconc edit
Ġconc eptum
Ġfort i
Ġfort issimus
Ġrec oncili
Ġocc isi
Ġocc ursum
Ġscrib at
Ġact or
rem um
rem ae
ĠCh at
ĠÐ ¢
Ġpublic arum
Ġpublic anus
Ġpraeter iti
Ġmor bum
Ġnov issimis
Ġopt imis
Ġconsequ enter
Ġexc omm
Ġvis io
Ġcirc ulus
Ġcirc ulorum
ĠLat er
Ġdomin orum
Ġdomin icae
Ġinven iantur
Ġprincip atum
ann em
Ġvest em
Ġfr ingilla
Ġquaer eret
Ġeg ero
Ġeg ress
Ġsanct issime
ass o
ass is
Ġing entem
Ġoffic i
oli d
Ġ12 8
Ġintelleg endum
ĠAd ipisci
Ġsens uum
Ġmut abile
ĠMar k
ĠMar iam
Ġaccip ias
Ġcognosc o
Ġcognosc itis
Ġreliqu arum
Ġreliqu erit
Ġ15 8
Ġappell as
Ġappell are
Ġpet at
Ġsup rema
uct ionem
act ionis
erent ium
Ġ14 2
Ġpropr ias
Ġoport ebit
Ġexist ere
Ġmuli eb
Ġfaci ebam
ãģ ¨
ãģ ¯
ĠMa h
ĠMa ias
Ġsignific ari
Ġimm an
Ġliber alitate
Ġrect or
Ġpon unt
ĠPh ry
Ġoppid is
Ġadi ect
Ġquant itatem
Ġexs ec
Ġpor tavit
Ġquaest ionibus
Ġfer endae
Ġantiqu o
Ġadvers arius
Ġtrad iturus
Ġarg ente
Ġmon umentum
Ġgrav issimum
Ġaudi ebam
Ġeadem que
Ġfamili arum
Ġtert iae
Ġarbit ra
red ecim
Ġfin itam
Ġden omin
Ġexistim antur
Ð¾Ð ¶
Ġav um
Ġav erter
Ġrecip iens
Ġpugn ant
ereb ant
Ġsalut are
ĠSt at
ĠPer ferendis
Ġvelim us
ĠEp irum
ĠCat onis
Ġcupid us
Ġport abunt
Ġinim icis
Ġrev erentia
Ġconv oc
Ġhabit antes
ren d
Ġfem inis
Ġmiss is
Ġscrips isset
Ġcast ig
Num quid
Ġvers atus
Ġass ent
ĠDec emb
ĠDic unt
ĠDic ta
Ġrel atum
Ġarc ae
Ġarc ana
Ġcircum d
Ġcunct i
Ġcustod iae
Ġcustod ias
Ġ196 7
Ġconting ere
Ġscel erisque
ĠQua erat
Ġplen itudo
Ġaestim atio
Ġvac uum
Ġsalv am
Ġcondic i
Ġcondic ionis
Ġpraesid is
Ġcrim inis
ocrat es
Ġadv ent
Ġpraem issae
Ġrelinqu et
Ġecclesiast icis
Ġpen et
Ġjust us
Ġcomed at
Ġcorrupt io
201 7
ok ing
Ġ198 1
Ġdorm ierunt
Ġsingul as
Ġcontem ni
Ġalt itudinem
ĠSim ul
ĠCons erv
ĠCons ilii
Ġsollic ita
Ġsollic itudine
ĠCol umb
Ġabsol utum
Ġparticip at
Ġsuspic ionem
Ġort u
ĠAthen iensium
hi op
Ġsomn ia
Ġadiuv are
Ġexter min
Ġloqueb antur
ipp o
Ġillic itum
Ġconp ut
Ġov ibus
Ġorn ata
ĠVolupt ates
Ġproeli is
Ġoccult e
Ġiuven ibus
Ġline am
Ġperfic itur
Ġconvert itur
Ġartific es
Ġ187 1
Ïĥ Î±
Ġpisc ium
Ġdissim ul
Ġitin eris
Ġfing ere
Ġinfer ioris
Ġâ Ī
Ġdetermin atum
Ġele em
Ġsuav ius
Ġuolunt as
ĠSu cc
ĠSol um
ĠSol uta
Ġeloqu entia
ĠTro iani
ĠSem alt
Ġ190 4
Ġconsist at
Ġconfus e
Ġhodiern ae
Ġrespic iunt
Ġaer arii
Ġfrig us
Ġvirg inem
Ġpraedi xit
Ġsenect utis
Ġ188 5
Ġtransl atum
burg i
Ġinh um
Ġintro ierunt
Ġclaus um
Ġspon si
Ġreman ere
ĠTurc ia
Ġadmirat i
Ġadmirat io
ĠSac erd
ĠAene as
Ġgrammat ica
Ġpaupert atis
Ġamitt i
Ġamitt itur
Ġmaled ic
Ġmaled ict
Ġso lius
Ġaudac iae
Ġinsid iis
Ġinsid ias
ä» ĸ
Ġnoct ur
Ġé Ŀ
Ġadulter ium
Ġpiet as
ĠBeat ae
Ġinimic itias
Ġadmir abilia
Ġru inam
Ġrid et
Ġindivid u
Ġperse ver
Ġcorrum p
Ġcorrum pi
ĠFal li
Ġirac undia
Ġrepugn at
ĠInterrog ato
ĠHom erum
sic ut
Ġornam enta
Ġdiab oli
Ġmart yr
Ġcaeter is
Ġcurr unt
Ġcurr ere
ĠClaud ius
Ġcalc iam
ĠDionys ius
pend isse
ĠPhilosoph i
Ġadim pl
Ġcoel o
Ġridic ulum
Ġexsp ecta
Ġdisi uncta
Ġfunct us
ĠBa al
Ġantec ed
ĠTim ot
ĠSuec iae
Ġterritor io
prop ter
ĠPoss imus
ĠMD CC
Ġveris imile
Ġtheolog us
Il le
Ġiug um
Ġsyn agog
ĠCorp oris
== ==
Ġtor rent
Ġaduers us
Ġignomin iam
public a
´ì ĸ´ì
Ġsubic ias
ĠHierem ias
Ġtutel am
ĠOl den
Ġspelunc am
ĠDam asc
ĠCro atiae
Ġfluct ibus
Ġtyrann orum
Ġincircum cis
ĠLang ob
Ġtar de
ĠVicip aed
Ġhel p
ĠCen om
Ġinscrib itur
Ġdescisc endi
Ġtir ocinium
ĠWestph aliae
Ġcaerule um
quant ity
ĠMesop otam
ĠOrth odox
ĠHelis eus
:\/ \/
ëĿ¼ íĭ
Ġlob ortis
ĠLider ici
ĠGie zi
Ġexcomm unic
´ìĸ´ì Ħ±ê²½
ëĿ¼íĭ ´ìĸ´ìĦ±ê²½
, ...
. âĢĶ
7 86
A ud
A ve
C ol
D uis
H omin
H ighly
I P
I ach
M ort
P et
P ot
R e
S ol
S erv
U R
V erum
b ant
c ons
d ated
f i
f ecta
g um
h u
i unc
k o
k y
m ur
m ortuus
o am
p en
r c
r Ã©
r onem
u es
y g
{ {
} ,
Â ½
Ä ħ
Å Ł
Ð Ĳ
à ¦
â ľ
å º
æ Ķ
Ġ 00
Ġ Î¿
Ġ Ùħ
Ĭ ãĤ
Ġe in
qu iren
er avit
Ġs k
Ġs Ã¦c
Ġs eries
in quam
in di
Ġqu eri
Ġqu anquam
Ġqu Ãłm
Ġp il
at iv
on nes
Ġc e
Ġc ell
Ġn oris
Ġn ationis
Ġn urus
or ius
Ġin per
Ġin aud
Ġin posuit
Ġv on
Ġv inct
Ġt alium
Ġet hn
Ġi an
re vi
Ġf ar
Ġf ero
Ġf isco
Ġf olium
Ġf irst
li quit
im p
Ġh erc
od a
ar gu
an ice
ul ce
Ġpr iores
ib o
ib ilium
ol arum
ol aus
Ġad itum
Ġad quis
Ġad iac
Ġre aliter
Ġl Ã¦
ac iae
ab il
ab uli
Ġut ilem
Ġes cis
il les
al am
ĠA e
ĠA z
ĠA ve
Ġquam dam
ĠS erb
ĠC ab
ĠD ist
ĠD uis
Ġme Ã¦
Ġqui que
Ġqui etem
Ġdic erentur
ip sa
ip pi
Ġper inde
Ġper rexit
Ġaut onom
Ġb a
ĠP elop
ra ret
ra xit
ĠQu anquam
ili que
Ġsed itione
Ġg ig
ĠN empe
ens u
Ġhab eremus
Ġsc ae
Ġsc iatis
uc undum
ĠM em
ĠM ens
ĠM odi
ĠM umm
Ġpot uisti
eb ra
Ġcom e
Ġcom itiis
Ġver umque
Ġver sa
Ġse ipso
Ġposs ide
Ġr ab
Ġr itus
ĠL una
ĠL ips
ĠH es
ĠH ib
ĠH as
ĠR h
Ġam ans
Ġam averunt
ult o
ĠF a
Ġpar it
Ġpar ant
Ġpar vi
Ġpar och
Ġte que
ĠT op
ĠT abula
Ġinc erta
Ġcons uet
Ġim itatur
ĠV it
ĠV im
ĠV ere
ĠV ita
ĠV erb
ĠV idi
ĠV arro
Ġnec em
Ġpotest ates
Ġma d
Ġun ionem
Ġun ica
ĠG rammat
Ġprop em
Ġprop eramus
Ġcont ine
Ġcomm iss
Ġinter esset
Ġor natus
Ġdix erat
ep imus
Ġpat efac
Ġbon itate
lig endi
oqu idem
Ġreg inae
Ġst abili
Ġ3 12
Ġcre dam
Ġmin imus
Ġar rog
Ġleg entis
Ġleg averit
Ġven ena
issim arum
Ġ19 01
Ġ19 11
Ġ19 16
Ġ19 36
ap sa
Ġloqu endum
Ġloqu entium
Ġsp ecta
Ġsp ei
Ġus uras
Ġincol a
Ġser ius
Ġsub sequ
Ġsub iac
Ġaud iet
Ġaud iens
ĠU cra
Ġob str
Ġman eant
esc rip
Ġimp ell
Ġimp rud
Ġimp une
Ġvolupt ati
Ġgen itus
Ġsem ina
Ġpraes unt
Ġvoc atus
ch o
ch er
Ġput aret
ĠNon dum
Ġsuper iorum
Ġsuper sunt
Ġrem inisc
Ġ18 05
Ġiudic ant
Ġiudic ari
Ġdisc endum
Ġdisc ret
Ġdec imum
Ġdec essit
Ġas sequi
Ġded ec
Ġded imus
Ġded iti
Ġcomp rom
Ġdes pex
Ġcogn omin
Ġcogn itionis
Ġserv iunt
Ġrec ol
Ġrec eptus
Ġrec edere
Ġscrib eret
II II
ios ius
Ġinf erius
Ġviv as
Ġcl are
Ġsequ eretur
Ġsequ entibus
Ġsequ imur
ĠAm ph
Ġlingu as
Ġcar a
Ġins ulas
Ġins ularum
Ġten ebat
Ġmis eris
Ġpers ua
Ġpers pex
Ġcred atur
Ġcred itum
Ġmat eries
Ġpraeter vol
Ġdef ecerunt
Ġnov imus
Ġopt atius
Ġdoc ent
Ġdoc eat
Ġbene fac
Ġpraefect um
Ġexc ess
anc ta
Ġval eret
Ġprob avit
Ð° ÐµÑĤ
Ġprincip aliter
ann icae
ĠAr m
Ġform is
Ġform atum
Ġsal e
Ġquaer amus
Ġaet ati
Ġtum ult
ix i
ĠJ hn
ill os
Ġimper at
Ġimper atores
Ġimper atorem
Ġius sus
Ġdilig atur
Ġdilig ens
Ġing enti
Ġ12 3
Ġ12 5
equ is
Ġintelleg as
Ġintelleg entia
Ġvic e
Ġvic inum
Ġsens isse
Ġmut atio
Ġmut abilis
Ġcogit ant
Ġaccip imus
Ġreliqu as
Ġreliqu isse
ĠEx s
Ġ15 5
Ġign ibus
Ġind ag
Ġstud uit
Ð¸ Ñĩ
Ġw o
Ġw ho
Ġlaud are
Ġlaud abile
Ġhabent ibus
act am
rehend erit
Ġ13 7
Ġph otograph
Ġlong i
Ġstat ui
Ġconstit utus
Ġ14 6
ĠCae lio
Ġem isse
Ġexist unt
Ġpraedic are
Ġaper to
oll itia
ĠBr uti
Ġaccus ationem
Ġcontr ariis
Ġsubi re
ĠMa uris
Ġfal li
Ġimm un
Ġimm ob
Ġliber avit
Ġsoc rus
urg i
ĠAl c
ĠPat ri
Ġbe en
ĠPh ys
ĠPh ase
ĠCo gn
Ġmet uo
Ġmet aphys
ua libus
Ġcontin ent
Ġnoc tis
Ġfl ect
Ġpraecip uae
ĠIuli um
ĠIuli ae
Ġquaest ionum
ĠPl a
Ġmir abilis
ĠReg ulum
Ġev ad
Ġev angel
Ġlic ebat
Ġmiser ius
Ġamp lex
Ġinstit isset
ĠNihil ne
Ġref erat
Ġeas dem
ĠPost remo
Ġprof lig
ĠChrist oph
.... ..
Ġdiss olv
Ġcal ore
Ġcal ce
Ġlect o
ulg ata
Ġprom ot
Ġcust os
ĠSc ot
ĠSc iendum
Ġden eg
Ġden untia
ãĥ Ĳ
ĠChristi anus
Ġexistim at
Ġexistim em
Ġexistim as
Ð¾Ð ±
Ġpugn atum
Ġreper ta
Ġreper tum
anu el
ĠNov ae
Ġaccid entibus
Ġlibert um
ĠMag nam
Ġquot annis
ĠCat egoria
Ġpae d
ĠIudae am
Ġport am
Ġport ionem
Ġk e
Ġnunt iata
ĠNec esse
Ġequ es
Ġinim icos
Ġpraed itum
Ġpraed iis
Ġperic ulis
Ġaur em
Ġterr ibilis
Ġ199 5
Ġaff erunt
Ġlud i
ifest um
Ġiac ent
Ġfem ore
Ġtestim onii
Ġinterrog et
Ġconiunct ione
Ġmerc enn
ĠProv ident
Ġass entior
Ġullam cor
Ġadf erunt
Ġadf lig
Ġvideb o
Ġfig ur
Ġquar tam
Ġrefer enda
Quis que
ĠVid ete
Ġrel atio
Ġpass ionem
ĠNull um
Ġcustod ire
Î± Î¹
Ġ197 1
Ġconting ens
Ġgener aliter
Ġcapt um
Ġcapt ivi
Ġconced ere
Ġconced itur
ĠÎ µ
Ġha uri
Ġpraem io
Ġdistinct ionem
Ġrelinqu unt
Ġpostul are
Ġecclesiast icam
Ġjust itiae
Ġbened ictus
Ġtac ita
ĠAg amem
Ġangel is
201 0
201 3
Ex o
à´ ¤
Ġfest a
ok ies
Ġdubit et
Ġflum ina
Ġconsol etur
Ġcredit e
Ġspect ant
Ġoperat iones
Ġrelic to
ĠMat t
Ġ185 2
Ġtabern am
Ġconvers a
Ġ195 4
ĠSto icis
Ġsollic it
Ġori go
Ġdefend ebant
Ġcommend atione
ĠPers piciatis
ĠPis onem
Ġinterfic i
Ġrecord or
Ġrecord atione
Ð¸Ð ²
Ġov ium
Ġsacerdot ibus
Ġconfic itur
Ġconfic iunt
Ġsepar atim
Ġnub e
Ã¨ re
Ã¨ res
Ġvictor iae
Ġexig it
Ġdur ationem
Ġaliquot iens
ĠRuss icae
Ġartific em
Ġinterpret ationem
Ġcoep isset
ĠMet aphys
Ġadulesc entem
Ġabi ectum
Ġinfer iori
Ġuer bi
Ġuer itatis
ĠMarc o
ĠMarc ello
Ġpropriet atem
rot und
Ã® c
Ġfe fell
Ġ180 7
Ġprot est
ĠEb urae
ĠSum mum
ĠOm egle
Ġador are
Ġperc ut
Ġdii udic
Ġsat ius
Ð¾Ð» ÑĮ
Ġsort is
ĠRespon deo
Ġpess ima
Ġpess imum
Ġingredi untur
Ġec iam
Ġpap ae
ĠDuc atum
Ġcontempl atione
Ġnupt ias
Ġexpugn avit
Ġconsent it
Ġcler ici
Ġinh ab
ĠVer itatis
Ġmatrim onio
Ġreduc untur
ĠPraes entium
Ġmagistrat uum
Ġpronunt iatum
man agement
Ġfelic iter
ĠSent encia
ĠTusc iae
Ġadministrat ionem
ĠAbrah ae
Ġpaupert ate
ĠAnd re
Ġsacram enta
Ġdescrip tum
Ġvetust ate
Ġimmort alis
ĠBen ed
Ä« s
Ġumb ra
ĠPhara onem
Ġfamiliar iter
Ġcam era
Ġinop iam
Ġantepon ere
Ġconson ant
Ġconson antiae
ĠEbor acum
Ġbl og
Ġsurg e
Ġinterc ess
ET H
Lat in
ĠRec usandae
Ġdedic atione
Ġcamp o
Ġconl oc
Ġintern ation
Ġvenerat ione
Ġdiab olus
ĠNaz are
Ġprem unt
ĠTub ero
ĠElis ab
Ġperv entum
Ġher edit
Ġcredid imus
ĠAdm inist
Ġderel inqu
Ġris ibile
Ġnepot ibus
ĠFinn iae
Ġextran eo
Ġspecia li
ĠAntioch um
ĠSat ana
EN T
Ġpond eris
Ġdisi unct
ĠAur ei
Ġsatiet ate
Ġpaulum que
ĠBabyl onis
ĀĀĀĀ ĀĀĀĀ
ĠHannover ae
ĠHannover anum
æĪ ĳ
Ġplag a
Ġexpul sus
aev ola
ÐµÐº Ñģ
ĠExc ept
Ġdup lum
ĠScript ura
ĠDolab ella
Er go
Ġfate or
ĠHistor ia
Ġdecret is
Ġmasc ul
ĠPtol om
ĠIb idem
ĠPag is
ĠCle opat
Ġsever itatem
Ġsacr ileg
Respon deo
ĠHad ri
ĠToll itur
ĠRepell at
Ġrequi em
ĠArchid ioecesis
Ġcathedr alis
Ġsepult urae
Ġmetropolit ana
à«§ à«
ĠDemet rius
Ġdereliqu erunt
Vest ibulum
Ġdeprav atae
ĠFat ebuntur
ĠMarit imae
Ġulc isc
ĠCli vi
Ġfutur orum
Ġcopios iorem
Comp ressed
ĠVindob onae
Eccles ia
ĠØ§ ÙĦ
ĠReb ecc
Ġsuperv ac
diffic ilis
ĠHierosoly mis
Ġses eque
ĠThem ist
pol icy
Ġchili omet
ĠSardin iae
Ġfacil isi
Ġpraetervol avit
Ġullamcor per
! âĢĿ
( )
. ).
9 2
C umque
H is
L ucius
M ovie
P ar
S E
V id
X C
X V
b ach
b arc
d et
f ul
f ruc
i ana
i ebatur
l s
n oc
o o
q ve
r h
r inus
r usc
s q
s w
s is
s io
s rc
u unt
v ul
v ere
w are
w ay
w ork
w idth
z en
z ab
Ä Ń
Å Ľ
Ø ´
å ¾
æ Ĭ
æ ł
Ġ ÑĦ
Ļ ½
Ġe f
Ġe qui
qu oniam
er ic
er itur
er atur
Ġa vert
Ġa usc
Ġs ar
Ġs ib
Ġs oni
it arum
it issimus
is on
Ġp av
Ġp ene
Ġp ares
Ġp icta
Ġp anes
am ili
am enti
on ici
on ensis
Ġc os
Ġc ibus
Ġn und
Ġm urum
Ġm entibus
or f
Ġin fic
Ġin eunte
ic ti
Ġv o
Ġv ota
Ġt ign
Ġt redecim
Ġi bit
Ġi umentum
re am
Ġf lex
li k
im entis
Ġh ec
Ġh yd
id iam
id isti
ec ed
ec imus
ec isset
Ġpr ioribus
ia libus
ib le
ol as
un o
Ġad am
Ġad not
ed um
Ġre que
Ġl et
Ġl ata
Ġl unam
ac to
ab um
el ae
ion al
Ġes c
ant ulum
al ae
Ġcon se
Ġcon ex
Ġcon leg
ĠI ord
ĠA equ
ĠA var
Ġex isti
Ġex tin
Ġex eunt
ĠS od
ĠS emp
ĠS ua
ĠS olus
ĠS anta
ĠS AL
ĠC os
ĠC il
ĠC yr
ĠC ertum
Ġan ath
ĠD et
ĠD ioc
Ġdi re
Ġdi pl
Ġper ter
Ġper iit
Ġb all
rat o
ist ere
ĠP in
ĠP ere
ĠP aria
ĠP aris
ĠP ast
ĠP ecc
atur am
ĠQu oc
Ġg o
Ġg erunt
Ġen unt
Ġco epta
Ġco egit
Ġco emet
ĠN ab
quam ini
ir on
Ġhab endum
uit er
eg i
iv al
Ġquid nam
ĠM ore
ĠM CC
Ġpot erimus
eb ris
iss ionem
Ġetiam nunc
Ġposs ederunt
Ġvid uam
Ġu ell
ĠL et
ĠL ent
ĠH ol
Ġsit i
Ġid os
Ġid eas
Ġer amus
av erant
ĠR ud
ĠF ran
ĠF lac
ĠF ides
ĠF ugiat
ĠF elix
Ġat ram
ĠT res
Ġinc ur
Ġinc idit
Ġcu perem
Ġaliqu orum
erit i
Ġcons ulum
Ġcons pectum
ĠV and
ĠV atic
Ġpl u
Ġqua li
Ġqua eret
ĠEa que
ari es
ess ent
Ġpotest atibus
Ġma jus
Ġsol os
Ġsol itudinem
ing itur
ĠG ran
ĠG org
ĠB ac
ĠB ona
ĠB landitiis
ub uit
Ġcomm on
Ġcomm otus
âĢ ĺ
ig es
Ġfu issem
Ġor ac
Ġor atoribus
Ġlib r
inc oln
Ġpat ior
Ġpat eat
eri orum
Ġst ant
Ġanim ali
Ġ3 16
Ġcre atae
Ġar rip
Ġnost rane
Ġfec und
ĠIn ventore
Ġven istis
Ġven irem
Ġ19 26
Ġ19 35
ĠO t
ĠO econom
ĠO vid
ap e
Ġloc ut
ator ia
Ġloqu are
Ġal so
Ġser uum
Ġpost lim
Ġaud iant
Ġaud iri
Ġ- --
Ġob stant
Ġman eret
ffic it
Ġimp iet
entia nt
ĠAn ima
Ġcommun ium
Ġquem libet
Ġag ebat
Ġgen uerunt
ati que
Ġrat a
Ġvit is
Ġvit anda
Ġvoc aretur
Ġvoc abatur
Ġtr icesimo
Ġcur as
Ġcur iae
Ġsan abat
Ġcap itur
Ġcap illi
Ġmal itias
Ġiudic i
Ġiudic at
Ġdisc it
Ġnomin atim
og al
Ġas pectus
Ġmortu am
Ġcomp rehens
Ġdes pic
Ġdes iit
Ġsent is
Ġserv anda
Ġserv ivi
Ġserv iamus
Ġrec og
Ġocc idere
Ġocc iderunt
Ġscrib untur
Ġscrib entur
Ġdel ere
ĠÐ Ĳ
ĠÐ Ĵ
ĠÐ ŀ
Ġnot issima
Ġcar d
Ġsign orum
Ġins idi
Ġten eros
Ġcol oniae
Ġplac ita
Ġpers pici
Ġcred atis
Ġmat eriis
Ġlab efac
Ġpraeter itorum
Ġsolum modo
Ġsae v
Ġmor am
Ġmor bus
Ġnov arum
Ġep ul
Ġopp ressit
Ġpraefect i
up dated
Ġval uit
Ġred argu
ĠAr s
Ġvest ibus
Ġvest imentum
Ġform arum
Ġform avit
Ġform aliter
Ġquaer erem
Ġduc at
Ġduc unt
ix us
Ġmaxime que
ĠJ ackson
Ġimper itos
Ġgra di
ĠPr od
Ġintelleg at
Ġintelleg ant
Ġintelleg ebat
Ġfam is
Ġmut uum
ĠMar cum
Ġcognosc enda
Ġ15 7
Ġign oto
Ġtra dam
Ġappell atione
Ġpet ul
Ġpatr oc
Ġconi ect
Ġpertin ens
Ġlong ae
ĠCon v
ĠCon stat
Ġstat uae
Ġconstit uto
Ġconstit utio
ÑĤ Ð¾
Ġ14 3
Ġ14 5
Ġtant is
Ġsubstant iarum
Ġem it
Ġfact ione
Ġsac ro
": {"
ath am
Ġ10 6
Ġ10 8
Ġpecc avit
Ġpecc atores
Ġlat itudo
Ġimm erito
Ġsoc ii
Ġdub itat
Ġdub itationem
urg ensis
ĠAb el
ĠPat et
Ġrect ae
ĠCiv itatis
Ġthe ologiae
ĠPh oen
Ġtim et
Ġquant itas
Ġexs ilium
ider im
ang e
Ġluc tum
Ġluc rum
Ġconven ienter
th a
Ġperfect ione
Ġquaest um
Ġscient es
Ġfer am
Ġadvers a
Ġadvers arios
ĠTh erm
Ġbeat itudo
In cipit
andi u
Ġmir andum
Ġvet er
Ġvet ulis
Ġgrav itatem
Ġauctor itatis
Ġmiser ia
Ġmiser iae
Ġcel erius
Ġnol ebam
Ġinstit utio
Ġinstit utione
Ġinstit utionis
Ġlae tare
Ġprof ertur
Ġbib at
Ġparv us
Ġgaud ent
Ġpraest andum
Ġcal lid
ĠAli oquin
Ġepist ulis
ĠIll yr
Ġlect or
Ġejus dem
Ġessentia liter
ĠSc imus
Ġdict ata
Ġsex tum
ãĥ ĬãĤ
ĠChristi ani
Ġdiffic ilis
Ġrecip iet
Ġpugn ae
Ġincip iam
Ġeff und
Ġeff ecta
ĠCar ant
Ġreper iatur
Ġpropri i
Ġhonest o
Ġcong r
ĠPer ic
Ġuid ere
Ġuid eo
Ġpae n
Ġfur ore
Ġben iv
Ġnunt io
Ġnunt iis
Ġpriv atum
Ġscript urarum
Ġsuos que
Ġdefin itiones
ãĤ ¦
Ġperic ula
Ġeffect rix
Ġq v
Ġaff er
abis que
Ġfem inam
Ġfoed erat
Ġambul amus
Ġambul avit
Ġambul averunt
Ġdim idium
olog us
Ġeven iunt
Ġcompos itio
Ġass id
Ġadf ert
Ġvideb itis
Ġfide iuss
Ġperven erit
Ġadhib ere
Ġrefer am
Ġrefer as
ĠVid emus
Ġmanum ittere
Ġcompar atione
Ġarc ess
Ġpal atium
Ġuol uit
Ġuol uerit
Ġment imur
Ġlaet ari
Ġnat iv
ĠCor s
Ġsalv ificem
Ġexper iri
Ġpraesid iis
ĠEpic urum
Ġalb is
Ġostend at
Ġostend unt
Ġpraem ia
Ġbest ias
Ġfrequ ens
Ġmus icam
Ġstult orum
ver ter
ĠEpiscop um
Ġsempiter ne
Ġsempiter na
Ġeleg isti
Ġdesider abis
":" ","
ĠLut etiam
Ġindig ens
Ġtoll it
Ġtoll ere
Ġprud ens
Ġinterp ell
Ġcant u
ĠCal end
Ġoccup at
Ġsolv endo
Ġfirm um
Ġpossib ilitatem
Ġ195 2
udi andae
ĠSec unda
Ġcael os
ĠRe f
ĠRe lig
Ġrepet i
ĠSam uel
Ġrevert etur
Ġsuspic ari
ĠAthen ienses
Ġdemonst raverunt
Ġexter nis
Ġrecord ati
Ġloqueb ar
Ġcess are
ipp ing
Ġpraetor is
Ġpraetor es
Ġconp lac
Ġsumpt o
Ġhabeb unt
ĠMult oque
Ġsepar antur
Ġadminist r
ĠAlp ium
Ġhae sit
Ġproeli a
Ġexig uum
Ġpercip ere
Ġiuven em
Ġpaenit entiae
Ġconvert i
Ġcoep isse
Ġtempor alia
Ġsustin et
Ġcern ere
Ġadeo que
Ïĥ ÏĦ
Ġquaereb atur
ĠMet ello
ĠTemp ora
Ġoblig atio
Ar t
ain er
Ġabi ec
Ġaccess erunt
Ġâ Ĩĳ
Ġfaciet is
ĠTer entia
Ġhodi erno
Ġder iv
Ġconsili orum
Ġeduc atus
Ġpraeb uit
Ġpleb isc
ĠInc idunt
Ġconstant iam
ĠCicer one
Ġvex illum
ĠOb s
Ġedic ti
ĠIdem ne
Ġpropon ere
Ã¶ n
Ã¶ r
ĠItal icae
Ġinius tum
Ġaddit ionem
Ġamant issimus
Ġadmitt itur
ĠMaxim o
Ġinn ot
Ġdidic imus
Ġinm ort
Ġpraepar ata
Ġdifficult ates
Ġioc ans
ĠDel ectus
ĠDel eniti
estig ationes
ÉĻ n
ĠApostol icae
á½ ¸
Ġtene antur
Ġ188 9
ĠServ ius
Ġincid idunt
Ġcresc unt
Ġmancip io
Ġcruc if
Ġsuffrag ium
Ch r
Iacob us
Ġproced itur
Ġgign it
Ġpun iri
Ġpaupert as
Ġcondemn ata
Ġscand ala
Ġcontend unt
ĠOcc aecati
Ġinsid iae
Ġattrib uitur
pa Ã±
Ġclass is
Ġdisplic et
Ġdisplic ere
Ġavar itiae
Ġascend erunt
ĠEnn ium
ĠÄ ĳ
ĠLae li
den y
tax able
Ġperman ere
Ġcalam itatem
Ġrevel abitur
Ġiunct i
Ġinimic itiarum
Ġnarr ant
Ġrede at
ĠAfric anus
Ġfung i
Ġexaud ivit
Ġresid amus
Ġdecern ere
Ġcorrig iam
Ġol eo
Ġcoh ered
ĠTert io
ĠTorqu atus
ĠTorqu atum
Ġrescrip sit
Ġerip uit
Ġheb dom
ĠSus pendisse
Ġantepos uit
ĠHelvet icus
sk u
Ġirac undiae
Ġidone us
Ġdecess erit
Ġingred imini
ĠIup iter
Ġstup rum
Ġvestig ium
Ġmonast erio
ĠEvangeli o
queb antur
Ġwe ek
Ġvesc endum
Ġornam entis
Ð°ÑĤ ÑĮ
Ġsilv ae
Ġinan itas
Ġtempest iva
Ġfix a
Ġdimis erit
Ġabomin abiles
Ġceter orum
Ġconiun gitur
Ġrett ulit
Ġequit ibus
Ġconturb ati
Ġamis erunt
we ight
Ġimple atur
Ġtrin itatem
ĠGallic a
Ġpoenit entiam
Ġren asc
åľ °
fl uere
ĠPeripatet icis
çĶ ¨
ĠCy re
Ġdebit orem
Ġiurisdict ionem
ĠRob ertus
Ġinsequ enti
Ġelabor andum
sh ipping
Ġiri ure
Ġbac ulus
Ġexclud untur
ĠCupid itate
Ġparlam entum
Ġpersuad ere
Ġfoll ando
ĠDef in
Ġfen est
Ġrip am
Ġsepulc rum
Dec isiones
Ġproverb ia
Ġexclam avit
ĠNas ica
Ġvolat ile
ĠPecun ia
Ġstr uct
Ġelegant ius
Ġclarific a
ĠBoh emiae
Ġpaul ulum
ĠBarc in
ĠPolit ic
Ġdog mata
Ġcarc erem
]} ,"
ĠBrund isi
ĠPraecl are
ĠOrient alis
åĩ º
Ġcorn ua
requ ires
Ġeclips is
Ġaen ig
ĠAnato liae
ĠThess al
Ġcinem at
Ġunoqu oque
ĠOcta vi
Ġeleem osy
786 23
Ġpropem odum
Ġpersua de
Ġwo uld
Ġpaed agog
ĠRebecc ae
barc ode
) ]
. \
/ \/
9 1
9 4
A D
B eat
C re
D um
D ic
D uc
E M
F ili
G a
G eorg
I ust
I dem
J er
M ol
N oli
O S
O f
O cc
S el
S ub
T o
T ur
T ert
T UM
X VI
b on
b or
d er
d el
e e
f e
f o
f um
f unction
h s
i an
i endi
i ebus
j s
l ÉĻ
l Ã¨s
m y
m ine
m ovie
r ub
r ov
r act
s s
s es
t y
t al
t ag
y le
« ĺ
Å ¿
Ï İ
à ¥
ä ¾
ç ī
è ½
Ġ ï
Ġ oss
Ġe ic
um a
um entorum
Ġa erem
Ġa iebat
Ġs alis
Ġs inum
Ġs ome
is h
Ġp y
Ġp ius
Ġp ep
Ġp ie
Ġp ectus
Ġp ure
at ing
at tuor
am es
Ġn eb
Ġn ow
Ġd ulce
em i
Ġm entes
Ġm andi
Ġin ire
Ġin nit
Ġin nov
ic are
ic ing
ur op
Ġv isi
Ġv icum
Ġt ulerunt
Ġt Ã©n
ut ia
Ġi ii
Ġf aen
Ġh ib
od is
et arum
id uum
ec eris
ul ata
ul isset
Ġnon a
ia cum
ib iliter
Ġad sit
Ġad epta
ed ia
oc c
Ġre pt
Ġl in
Ġl as
Ġl anc
Ġl asc
Ġut amur
el em
el mus
as iae
ere at
op olis
Ġde am
Ġde vers
ĠE G
Ġcon are
Ġcon quiesc
ĠI S
ĠA C
ĠA ra
Ġex itu
ĠS ae
ĠS urg
ĠS ulla
ĠC SU
io us
io que
omn ia
ĠD isp
Ġdi uit
Ġdic ente
Ġdic entibus
end arum
Qu apropter
Ġper isse
Ġper iti
Ġper aeque
Ġfac er
Ġprae gn
Ġprae esse
rat u
rat ion
ĠP el
ĠP eri
ra p
ĠQu anto
Ġsed it
Ġsed et
per ant
Ġg u
Ġg re
Ġg eri
Ġg erman
ĠN icae
Ġtu eretur
uit um
Ġsc ab
Ġsc isc
Ġsc ies
iv er
ĠM c
ĠM ale
ĠM ollitia
Ġ2 12
Ġcom ponitur
Ġap te
ort abis
Ġver itus
pt io
and iae
Ġab eunt
Ġvid istis
Ġu ix
Ġr o
Ġr upt
ĠL im
ĠL atio
Ġop ific
ĠH um
ĠH il
ĠH ist
ĠH ered
ĠH ow
ĠH aed
ĠH eu
Ġsit ienti
Ġid ent
Ġer raverunt
ĠR am
ĠR ut
ĠR ab
Ġca u
Ġpag is
Ġat h
lic h
lic k
Ġpar ab
Ġpar tum
ĠT ot
ĠT arent
ĠT andem
ĠT aur
ĠT attoos
Ġinc it
Ġvol v
Ġvol ens
Ġvol uc
ĠV e
ĠV ade
ĠV iction
Ġpl ate
Ġpl ay
Ġnec dum
Ġtam diu
ari arum
Ġma lim
Ġsol eat
Ġsol itus
Ġun e
Ġun g
ing ui
ĠG ede
Ġacc ers
ĠB l
ĠB ith
Ġcont est
Ġcomm issum
ine am
Ġinter m
Ġinter ius
Ġor is
Ġlib ellum
Ġreg ere
Ġst ren
Ġst antem
Ġ3 25
Ġcre di
Ġcre atorem
Ġmin oribus
Ġomnia que
Ġnost rarum
ĠIn vid
Ġven ia
Ġ19 10
Ġ19 28
ĠO z
ap p
Ġloc utio
Ġloqu erer
Ġser en
Ġsub lev
Ġaud ias
Ġaud ies
Ġcaus atur
Ġman ens
le ase
esc eret
eo graph
Ġcuius vis
ad ab
ĠRom ulus
Ġnatur alia
Ġcommun io
Ġdeb ito
Ġdeb uerunt
Ġdeb ebit
Ġdeb eas
Ġdeb eamus
Ġag ant
Ġvit andum
Ġvoc are
Ġpec ud
rae s
Ġtr ic
Ġcur rens
ern us
Ġrem un
Ġsan c
Ġsan um
ux isset
Ġ18 25
Ġ18 39
"\ /\/
Ġmal ane
Ġiudic abo
Ġiudic iorum
Ġdiv i
Ġdiv idere
Ġdiv ites
Ġdisc erem
Ġnomin are
ali quid
Ġdec ept
Ġdec imam
Ġdes erv
itt o
Ġeorum que
Ġcogn atus
Ġsent imus
Ġserv ant
Ġeos dem
Ġfort ius
Ġfort iores
Ġrec ep
Ġocc urre
Ġact urus
Ġconf idere
ĠÐ Ł
Ġpublic as
Ġviv a
Ġviv um
Ġcl adem
ĠAm p
ĠNam que
Ġcar ius
Ġins u
Ġins ulis
Ġins erv
Ġplac ebat
Ġmis ertus
Ġmis eriis
Ġpraeter iit
Ġdef endit
Ġprinc ÃŃ
Ġmor abatur
Ġnov issimus
Ġep h
Ġsap is
Ġsap iunt
Ġopp ressum
Ġexc idit
Ġvis e
Ġneg lex
Ġinven isse
Ġvest e
Ġvest iti
Ġform ulam
Ġsal uti
Ġj ub
Ġj ung
Ġquaer enti
ĠIs ai
ĠIs arae
Ġeg erint
Ġsanct issima
Ġund ecimo
Ġimper t
ass ent
Ġdilig itur
Ġdilig endum
Ġext endit
Ġnecess itates
ĠPr ius
Ġ12 4
Ġabs entem
Ġabs orb
Ġplur imos
erb ium
Ġmut ant
ord ecim
Ðµ Ð¾
Ġreliqu ias
Ġ17 5
ĠEx o
ĠEx t
ĠEx pect
Ġ15 4
Ġign i
Ġmed ici
Ġord inum
Ġpet itur
Ġind ivis
Ġstud ere
ĠĠĠĠĠĠĠĠ ĠĠĠĠĠ
Ġsup ell
Ġw hen
Ġull ae
Ġlaud o
Ġlaud ant
Ġ13 6
Ġsen ior
Ġsen atores
Ġlong ior
Ġlong issime
Ġlong itudine
ĠCon i
Ġconstit uti
ÑĤ ÑĢ
Ġod erunt
Ġprovinc ias
Ġ14 1
Ġ14 4
Ġproc essit
ĠUn ionem
Ġintellig unt
Ġmil itia
Ġexist at
Ġexist entia
ath an
Ġpraedic ata
Ġpraedic atione
Ġpecc ati
Ġpo ur
Ġcontr acta
ãģ ķ
Ġspec ulis
if erum
Ġ16 8
Ġsignific andum
Ġdub itas
Ġcup idi
ĠAl g
ĠK g
ĠAp ostoli
Ġtim entibus
Ġtim eas
Ġaedific at
Ġaedific averunt
ebam ur
Ġmet ior
Ġmet iri
Ġmov ere
Ġmov erunt
Ġmov eor
Ġexs ul
Ġcontin ens
Ġnoc eat
Ġfl et
th is
Ġth eat
Ġdolor i
ĠIuli ani
ĠIuli anus
Ġperfect i
Ġfer ae
ĠW eb
Ġfor amen
Ð» Ñĥ
Ġtrad unt
Ġbeat os
In c
Ġvet ere
Ġvet erem
ĠquÃ¦ r
Ġmon s
Ġmon umentis
ard o
Ġed uxit
Ġed uxi
Ġmot ibus
Ġmot abilem
Ġrespond endum
Ġrespond ente
Ġinstit uto
Ġinstit utionem
Ġprof it
ĠPrae dic
Ġgaud ebit
ĠGal lus
ĠIll is
Ġang ulo
Ġhuman arum
ma ius
Ġconsuetud inis
Ġconsuetud ines
Ġcan os
ãĥ ł
Ġdil ecto
Ġdiu ina
Ġdiffic ili
Ġdiffic iles
Ġrecip iuntur
Ġhost iam
Ġhost ias
Ġmagist ra
Ġdelect atio
Ġincip iat
Ġeff l
Ġeff emin
Ġreper iri
Ġalien am
ĠMag is
Ġquot quot
ĠEp iro
ĠIudae ae
Ġcupid o
Ġfur t
Ġmitt it
Ġmitt as
Ġmitt etur
Ġ24 6
Ġingen uas
Ð°Ð ³
Ġscript orem
Ġscript uris
Ġdisput atio
ãĤ ¤ãĥ
Ġteneb rÃ¦
inct io
Ġculp ae
Ġ194 1
Ġperd idic
Ġhabit andum
Ġhabit abit
ren dum
Ġped e
Ġped ilud
Ġli ke
Ġli quet
Ġinterrog atione
Ġfoed eralis
Ġads entior
Ġscrips erat
Ġdam no
Ġignor antiam
ĠIl lic
Ġnasc atur
Ġdux erunt
Ġhered ibus
Ġadf uit
Ġfabul is
Ġfig uris
Ġadhib uit
Ñĥ Ð´
Ġtut orem
ĠDic imus
Ġdixerunt que
Ġrefer atur
Ġrefer antur
Ġcompar ationem
Ġcens um
Ġhort or
Î¿ Î¹
Ġcircum fluere
Ġcustod itur
Ġment itus
oh l
Ġagn i
Ġ197 6
Ġ197 7
Ġret ex
Ġconsum entur
Ġconsum ptum
Ġ196 3
Ġ196 4
Ġprophet at
Ġprophet arum
ĠMed orum
Ġaestim atione
Ġsusc itet
Ġexper ience
Ġconced unt
Ġconced endum
Ġalb a
lac e
Ġvul vam
Ġbest ia
Ġceleb errim
ĠLuc ilius
Ġpen uria
Ġjust um
Ġmus icis
Ġtac ens
ĠFac iam
ĠFac ilis
Ġpere at
ĠEpiscop orum
ĠBritann i
Ġdepos itus
à´ ķ
Ġdesider as
Î½ Î±
Ġ198 0
Ġ198 3
Ġ198 4
Ġ198 7
Ġ198 8
Ġgenerat ionibus
Ġpros it
ĠMin nes
Ġsingul ariter
Ġhabitat oribus
Ġconsol atione
Ġmale fic
Ġcib orum
ï¿½ .
ĠLa ke
Ġ185 4
Ġ185 5
ala am
Ġdefend unt
Ġabsol v
Ġabsol utam
Ġrevert i
Ġproficisc eretur
Ġhor rib
ĠPol em
ĠTur ici
Ġdemonst rare
Ġedit i
Ġsangu inis
Ġmunicip iis
Ġcomprehend ere
Ġturb am
ĠMult ae
Ġimped imentum
ĠXX II
Ġdig ito
ĠIst a
ĠIst i
Ġoccas us
Ġoccas io
Ġtit ius
Ġcoep isti
Ġveni ebant
ĠÐ¿ Ð¾
ĠVel ut
ĠBo eth
ĠVir tut
ĠTemp lum
Ġpeculi i
Ġabi ecti
Ġanimad vers
Ġhosp es
Ġsuav issima
Ġexcell ens
Ġarchit ect
Ġpraeb ere
ĠInc arnationis
Ġacceper am
Ġadven a
Ġadven it
ĠSum mae
ĠAlexand rum
Ġvex ill
ĠAcadem ia
Ġrom anum
Ġpropon itur
Ġfruct uos
Ġdispos uit
Ġdispos itionem
ĠKal endas
Ġconfus us
Ġnef arium
Ġnef ario
Ġuis a
Ġpess imus
Ġgrad ibus
Ġconsent aneum
Ġpermitt o
Ġobliv ionem
Ġ188 7
Ġtransl ata
ĠOp us
Ġmancip ia
Ġmancip ari
Ġexst are
ĠMont is
Ġempt or
Ġpud et
ĠTheod iscus
Ġpict ae
Ġdulc ed
Ġfelic itas
Ġdeclin are
ĠSac ram
Ġcaec us
Ġcav ete
Ġimpos ita
Ġeffug eret
Ġquint am
Ġamitt it
ĠPlat one
Ġration ale
Ġdefunct i
Ġevangeli o
Ġdescrip ta
Ġvetust as
Ġbenign a
Ġcomput at
Ġbaptiz atus
Ġmonst rat
Ġconviv io
Ġamo ena
Ġfru atur
Ġnit itur
Ġcommitt itur
Ġantepon endi
Î· ÏĤ
Ġindivid ua
Ġmerced e
Ġperegrin os
Ġdisper si
ĠIap onia
ĠÐ¾ ÑĤ
Ġol eum
Ġurg et
á¿ ¶
á¿ ĸ
Ġsupp lem
of t
Ġsemin atum
Ġampli ores
Ġcaelest e
Ġcaelest is
Ġvine am
Ġvine as
ĠSil o
Ġmathemat icus
Äĵ s
Ġinfam e
ĠMon ach
Ġinclud it
Ġprofess ione
Ġvent re
Ġsev erus
Î¼ Î±
ĠMor bi
Ġpariet em
Ġwh ich
Ġapert ius
Ġfil o
Ġgess i
Ġpraesc ientia
Ġosc ulatus
Ġinterfect i
Ġexercit ui
ĠDionys ii
Ġpend et
Ġpraeceper am
Ġpromitt it
Ġreddit e
Ġirasc i
Ġnou imus
Ġcoel um
Ġridic ula
Ġexh ort
Ġsecret arius
Ġagric olae
Ġacquir it
Ġsatiet ates
Ġmeretric em
Ġcomedit e
ĠTen etur
ĠBabyl onem
ĠTr ist
Ma xim
åľ ¨
ĠAet hiop
Ġadiunct is
Ġincommut abilis
æĸ ¹
ĠPeripatet icorum
ĠCorne lius
Ġgrand ia
ĠLacedaemon ii
Ġiuvent ute
bl ue
Ġhist r
Ġrest aur
Ġsculpt ile
Ġmarit ima
Ġoppon untur
Ġdeced at
ĠNeg at
Ġobv iam
AP UT
Ġpub ertatis
ĠCot ta
ĠPlin ius
ĠTam quam
ÅĻ ÃŃ
Ġnor unt
Ġcaerim onias
Ġvolum ine
Ġnosc untur
Ġfinit imis
ĠTuscul ano
Ġpudic a
ĠBeth le
Ġeffig iem
ĠComment ator
ĠRepell endus
å± ±
ĠMuli er
Ġcoinqu inati
Ġsacc ulo
Ġevid enter
Ġmoen ia
Ġomnim odo
ĠNim ium
Ġrepos ita
Ġdifferent iis
Ġoctog inta
ĠIuven is
Ġsollem n
Ġstil lic
ĠÐļÐ¾Ð» Ð¾Ð½
ĠCent ri
Ġdele vit
Ġdiurn arius
Ġextrah enda
Ġiniust itia
Ġpror og
ĠEae dem
acor oman
Ġpraeiudic ium
ĠIndign a
ĠéĿ Ĵ
ĠTimot heum
ĠCenom annicae
âľ Ķ
ĠMumm io
ĠPhase llus
Ġinfic iunt
Ġobstant e
ĠBarcin onensi
ĠViction arium
ĠprincÃŃ pio
. âĢĻ
. </
B e
I D
I L
I us
I sa
M on
O per
O ffic
P ers
R erum
S uper
V er
a quam
a ui
a ug
b iter
c ed
c io
c isc
c ui
c ulum
e ars
f al
g ent
g th
h r
i ra
j k
j o
l ot
l ingu
m il
n eg
n omen
n dum
p o
p us
p ret
u cc
v isset
x isset
y ris
y ll
z im
¢ ãĥ
Â ¨
ä ¿
ç »
è ®
è ¿
é ĺ
Ġ ich
um ento
er ens
er ari
er ap
Ġa evum
Ġs w
it ch
it ui
us o
us ippus
Ġqu eat
Ġqu ominus
Ġqu avis
Ġp s
at s
Ġc rem
Ġc essit
Ġc edere
Ġc illum
Ġn ug
Ġn ation
Ġn az
Ġn ationalis
ae olog
st e
Ġd r
Ġd ens
Ġd andam
em nit
Ġm usc
Ġm uro
or tare
Ġin aequ
ur l
ur ibus
Ġv e
Ġv iat
Ġv enter
Ġv otum
Ġi rati
re b
re f
en u
om as
es im
im ento
Ġh et
Ġh oris
ar k
ar icus
id ii
id eles
os ius
ul erat
ul su
ia bit
ol orum
Ġad vert
Ġad invent
Ġad prop
oc utus
Ġl is
ac l
ac us
ac ter
ab a
il s
Ġde st
Ġde stitit
al b
al it
ĠE un
ĠE ug
ĠI mo
ĠI ca
ĠI ove
Ġex it
Ġex ec
Ġex iit
ĠS or
ĠS un
ĠS ag
ĠS ep
ĠS erm
ĠS oli
ĠS inarum
ĠS ET
ĠS ancta
ĠC f
ĠC od
ĠC ert
Ġan glic
omn es
ĠD atum
Ġdi r
Ġdi rip
Qu ando
Ġper quam
Ġper pend
Ġaut hor
ter is
Ġfac ientem
Ġfac ial
Ġfac inorum
Ġb et
Ġb ar
rat ae
ist us
ist am
ist ica
ra y
ra sti
Ġsed ibus
per am
Ġco et
ĠN iv
ens imo
Ġhab uisti
Ġhab iturus
Ġtu Ã¦
ĠM am
ĠM yc
Ġ2 16
Ġcom ites
Ġquo i
Ġver iora
ita verit
Ġu ident
Ġu elim
Ġr am
Ġr ug
Ġr itu
Ġr idere
ĠL ys
Ġop em
Ġop tum
ĠH ell
ĠH ie
ĠH erc
Ġid i
Ġer ig
av isti
Ġne e
ĠR P
ĠR os
ĠR and
ĠR av
ĠR ad
ĠR ich
Ġca se
Ġca peret
Ġam avi
Ġam ori
Ġam abat
Ġam issis
ĠDe u
ult at
ĠF ri
ĠF lum
ĠF ecit
emp ublic
ĠT o
ĠT ob
ĠT ig
ĠT abul
ĠT ua
Ġinc ert
Ġinc ensum
Ġinc ertus
Ġcons ulta
Ġcons pici
Ġcons crib
Ġcons cript
Ġcons ensio
ari ensis
Ġpotest ne
Ġsol it
Ġsol vi
Ġtemp li
ĠG erm
ĠG enus
ĠB arn
ĠB alaam
ust ro
Ġint im
Ġint ue
Ġint endere
Ġprop itius
Ġcont amin
Ġcomm endo
Ġmod ios
Ġres um
Ġres olv
Ġlib entissime
Ġsec uris
ep end
Ġpat erna
fect i
Ġst im
Ġst abit
Ġst ante
ro und
Ġ3 18
Ġcre ationem
Ġleg ari
Ġleg atos
Ġfec ero
Ġfec erint
ĠIn ven
Ġven ero
Ġ19 38
ĠO f
ĠO k
ĠO lim
ator iae
Ġloqu entes
Ġloqu entis
Ġter gum
Ġdol endi
Ġsp ond
Ġus itat
Ġus uc
Ġus ers
Ġus itate
Ġser ui
Ġsub ven
Ġsub difficilis
Ġpost eros
Ġaud ito
Ġaud issem
Ġmort alis
ĠU llam
Ġ- ;
ific atio
Ġob li
Ġman ebat
Ġman ebit
esc h
ĠDomin icae
ĠSed ec
ad d
Ġnatur as
Ġnatur alium
Ġquem dam
Ġdeb erem
Ġdeb eam
res se
Ġag emus
dic tio
Ġvoc ationis
Ġput ans
Ġurb anorum
Ġist as
Ġante ibat
Ġtr isti
ĠNon as
Ġsuper bi
Ġsuper bus
Ġsuper iori
ern i
Ġ18 46
Ġexp ans
Ġiudic etur
Ġdiv us
Ġiur g
Ġiur iscons
Ġrep ar
Ġapp arent
Ġnomin at
Ġdec isiones
Ġpop osc
itt e
sum enda
Ġcogn itis
ĠFranc ice
ĠFranc isci
Ġconc ilio
Ġserv itus
Ġserv averunt
ont is
ont em
Ġfort itudinem
Ġmol es
eli o
Ġconf idit
Ġconf lat
ĠÐ ľ
ĠAt h
ios ior
Ġinv enti
Ġinf antem
Ġinf ernum
Ġviv atur
Ġnot i
Ġnot itiae
Ġsequ antur
Ġsequ entes
ĠCom modi
Ġins ul
Ġins ect
Ġins pici
Ġcol itur
Ġcol onus
Ġplac uerit
Ġmis isset
Ġmor bis
Ġnov erat
Ġdoc eret
Ġdoc umentum
Ġprov ide
Ġexc ut
Ġexc edit
Ġrespon so
Ġprob e
Ġprob es
Ð° Ñģ
Ġcae sus
Ġcae des
Ġinven ias
Ġcert iores
ĠAr tax
Ġvest is
Ġadh ort
ini anus
Ġduc untur
ĠJ uli
ĠDei ot
ill as
ill atim
ill ennio
Ġeg erunt
Ġeg estatem
Ġimper i
Ġmund ano
Ġdilig i
Ġdilig eret
Ġdilig endo
Ġext im
Ġing rat
Ġnecess itudo
Ġtest ator
iti orum
Ġintelleg es
eper at
Ġfam uli
Ġvic o
Ġvic ina
Ġvic inus
Ġvic tu
Ġcognosc atur
Ġcognosc untur
Ġcognosc eretur
Ġ17 3
Ġ17 7
Ġfut urae
Ġaed ilis
Ġappell atum
Ġind oc
Ġind uxit
Ġcet e
Ġull us
Ġidem que
Ġiis que
ÑĤ Ð°
Ġ14 8
ĠCae lum
Ġmun itum
Ġoport uerit
Ġexist entiam
Ġpul sus
uv ius
uv ium
Ġaper tus
Ġpecc andi
Ġpecc averit
Ġlat in
Ġlat roc
ãģ į
Ġ16 1
Ġ16 4
Ġtrans c
Ġtrans mut
ĠQuis quis
Ġsignific amus
Ġliber aliter
Ġliber alitas
Ġsoc ia
Ġsoc ialis
Ġdub ia
Ġdub itatur
Ġcup iunt
Ġcup iebat
Ġcup iebam
Ġrect ores
Ġpon at
Ġaequ aliter
Ġtim endum
Ġtim entes
Ġtim iditas
Ġaedific iis
ĠGerman orum
ĠGerman icum
ĠSic iliam
Ġregn at
Ġepiscop ali
Ã© e
Ġmet ite
Ġmov ebitur
Ġdist at
Ġfl uit
Ġfl ores
Ġfl uere
Ġfl uxit
Ġth ere
Ġth eatrum
Ġprod ita
ĠIuli am
Ġperfect ae
Ġadd at
Ġadd itur
Ġscient e
Ġscient iis
Ġeffic iens
ĠPl erumque
Ġunivers alis
Ġunivers itate
Ġfor et
Ġantiqu ius
ĠEr ant
ĠEr ror
Ġtrad at
Ġtrad iderit
Ġbeat o
Ġbeat ific
In v
In de
Ġcond iderunt
ĠReg ina
Ġ{ {
Ġmon umenta
Ġmulto que
Ġconsul arem
Ġconsul atu
Ġed endos
Ġmiser iam
Ġrespond erit
Ġsecund i
Ġarbit ratus
ĠÃ ĺ
Ġeas que
Ġlae tor
Ġprof itetur
Ġperm iss
Ġbib endo
Ġcogitat a
Ġgaud eant
Ġpraest atur
Ġdiss ert
Ġclar itate
Ġtur ris
Ġmanu f
Ġcan ere
Ġprom isso
Ġcust om
Ġsex o
Ġsex u
ĠAegypt iis
ãĥ ©
ãĥ ŀ
Ġ20 4
Ġ20 7
Ġexistim ari
Ġexistim atio
ros s
Ġincip iens
ĠCar itas
Ġ22 4
Ġsper amus
Ġsper abam
Ġalien i
Ġalien os
Ġy ears
Ġindic ium
ĠSt atus
Ġmi ratur
Ġaccid at
Ġnob ilior
Ġuid emus
ĠMag no
Ġsuscip i
Ġk ey
Ġk now
Ġingen itus
tu ordecim
Ġpriv ati
Ġpriv atim
Ð°Ð ¶
Ġscript am
Ġpraed onibus
Ġarbitr abar
Ġdefin itur
Ġrog as
Ġperic lit
Ġlud imur
Ġaug ere
Ġhabit abat
Ġhabit antibus
Ġhabit abant
Ġfem in
Ġfem inas
Ġgest ae
Ġtestim onio
Ġson itus
Ġli v
Ġinterrog averunt
ĠSept emb
Ġscrips eras
ĠVol o
ĠAc ta
Ġdim idia
Ġdim idiam
Ġexspect at
Ġexspect em
Ġexspect ant
Ġeven erit
Ġvers u
Ġhered i
ĠÂ» .
Ġrelig iones
Ġrelig iosa
Ġ30 5
Ġmanifest etur
Ġsust ulit
Ġquar tus
Ġordin es
Ġordin atae
Ġiniqu itates
Ġhort ari
Ġpal ud
Ġcunct as
Ġsimplic i
Ġintra vit
Ġassum psit
Ġtem er
Ġvinc ere
Ġvinc ula
Ġconsum pt
Ġmer idie
ÃŃ m
Ġlaet etur
ĠDol orum
Ġaestim are
Ġiniur ias
Ġfel icem
Ġcapt ae
Ġsalv us
Ġcondic ionibus
Ġexper ti
ĠÎ ł
Ġostend e
Ġrestit uit
Ġrelinqu atur
ĠLuc ili
Ġecclesiast icum
Ġpert ineant
ĠFac ile
Ġstult um
Ġstult itiae
Ġno us
Ġno uerit
201 1
ĠMo abit
Ġdubit ant
Ġdubit ari
Ġdubit andum
Ġquad rag
ÐµÐ ·
Ġdorm it
Ġelect ione
Ġsingul arem
Ġconsol atur
Ġconsol atio
ÑģÑĤ ÑĢ
Ġot i
ĠArist idem
ĠArist ox
Ġmali gn
Ġcib is
Ġdatur um
Ġoccup atum
Ġoccup ata
Ġconsider atur
Ġvend ant
Ġ185 6
Ġtabern acula
Ġfirm ior
Ġapostol orum
Ġ195 5
ĠPro in
ĠPro elium
Ġdev ot
Ġvenire nt
Ġbrev ius
âĢĶ ,
ĠCol oniae
Ġobl itum
ĠSam ariae
ĠSam nit
ĠGen u
Ġobi urg
Ġadduc eret
Ġpron omen
Ġcult u
Ġhor rid
Ġprohib ere
Ġappar uerit
Ġobserv are
Ġobserv andum
Ġincom modo
ä¸ Ĭ
Ġconserv anda
Ġrecord ationem
Ġpraetor io
Ġimpet r
Ġperspic is
Ġov er
Ġaeg re
ĠVal lis
Ġorn at
Ġorn atum
ĠVolupt atibus
Ġz o
Ġsoli d
Ġhabeb o
ĠLeg em
Ġcot t
Ġcondit am
Ġcondit io
Ġglad i
Ġjudic ia
Ġimped iat
Ġiuven um
Ġmoll it
ĠXX III
ĠXX VIII
Ġdig est
Ġuoc em
Ġmerit is
Ġpisc is
Ġdissim il
Ġoccid at
Ġgreg um
Ġabund are
Ġinfer ior
Ġ189 1
Ġlap ides
Ġappet it
Ġpraeced unt
Ġoppos ita
arch a
Ġexhib ere
ĠSu fficit
Ġarb orem
ĠTro ia
Ġstip end
Ġconstant iae
ĠHab es
Ġard entem
Ġparentes que
Ġrom ae
ĠRep udiandae
ĠBib lia
ĠBib liothec
Ġqual itatem
Ġqual itatibus
Ġvindic anda
Ġaddit o
Ġaddit is
Ġconsist ere
Ġsuccess orem
Ġcommemor at
Ġcompet ere
ĠÐ² Ð¸Ð´
Ġingredi atur
Ġservit ute
Ġpraestant ia
Ġpraestant ior
Ġresist at
Ð°Ð½ Ð¸
ĠApostol ici
Ġpermitt it
Ġtene amus
Ġcustodi erint
ĠSeptentr ionis
Pr ov
Pr oduct
Ġexst inct
ĠVer res
Ġdomest icis
ĠPhil o
XXX IV
Ġnonnull ae
Ġempt i
Al b
Ġspon sa
aur os
Ġaus i
Ġinstr u
Ġinstr ucta
ĠSen atus
ĠSax onia
ĠAustr ia
Ð¾Ð² Ñĭ
Ġcolloqu i
ĠHeb ra
ĠBal bus
ĠCras si
Ġnumer antur
Ġpercus si
ĠPap ae
Ġcontend imus
Ġimport ari
Ġeffug it
Ġinstrum ento
Ġconcord iam
Ġmaj orem
Ġdefunct o
Ġ179 6
Ġplan etae
Ġplant ate
Ġconiug em
ĠApp aret
Ġtribu ens
yc l
Ġdoctor es
Ġbaptiz ati
Cur abitur
ĠBen iam
Ġdistingu untur
ĠLae t
Ġrevoc atus
Ġlen ius
ĠAnglic ae
ĠPort ug
ĠBeat i
IC O
Ġinop ia
ĠLu cce
ĠConsequ untur
Ġradic es
Ġradic itus
Ġsubl atum
Ġdivin ius
Ġresponde am
Ġfals am
Ġcand el
Ġrob ur
ĠÐ´ Ð»Ñı
Ġdisper sae
Ġquidd itatem
ĠRhen um
Ġcelebr andum
Ġprofer re
Ġliberat a
ĠOffic iis
Ġphys icae
Ġphys icus
á¿ Ĩ
Ġheb es
ĠSa int
Ġcontumeli am
Ġparoec ia
Ġsemin ate
Ġpup illo
Ð½Ñĭ Ñħ
Ð½Ñĭ Ð¹
Ġcontempt us
ĠMCML XX
Ġidone um
Ġdiscern it
ĠConstant inus
Ġfraud em
Ġmathemat icae
Ġsubd itus
Ġç Ļ½
Ġcoeper int
Ġual ent
Ġmedic inae
ĠPyrenae o
ĠMis erum
Ġinut ilis
ĠPos sumus
Ġpariet es
Ġapert issimis
Ã± os
Ġtel eph
Ġfacillim um
ĠCatil inam
Ġosc ul
Ġris u
Ġspecia lem
Ġtribul ationem
Ġtribul atione
Ġpraetere unt
Ġdeprec atus
ĠClod io
Ġterre na
Ġbenedict ione
Ġadim ple
ĠPont ifex
Ð°Ð» ÑĮ
Ġdialect i
ĠVerg ilium
ĠOrdin arius
Øª Ùĩ
Ġlep ra
ĠCass ius
Ġperduc ere
Ġrhet or
ĠIoach az
ä½ ¿
Ġastr onom
Ġtend unt
Ġconuen it
ĠVt rum
Ġplag am
ĠPu ella
Ġexempl aria
Ġdifficillim a
ĠCr asso
ĠCas si
Ġtrip lic
Ġremed ium
ĠExemp lum
Ġadiut orium
ĠSatur n
Ġundev iginti
Ġmach in
Ġtun icam
Ġliter as
ĠPtol em
Ġvivific at
Ġfabric ata
Ġdot em
ĠIb id
ĠExp ressa
Ġprompt u
ĠSociet atis
ĠSoviet icae
Ġsei ung
ĠIoann em
Ġscandaliz at
Ġcaerim oniae
Ġevan uit
Ġbaptis mum
Ġsid era
ĠToll enda
Ġsubm inist
Ġeffig ies
Ġsepulch ri
ĠMichae l
Ġadfer re
Ġamph itheatrum
Ġimpot entia
ĠAccus antium
Ġquing entesimo
Ġtrec enta
Ġcoinqu in
ĠNapole onis
ash ington
ĠSpe usippus
Ġbal ne
Ġcreb ro
Ġnumm os
ĠComp rehensum
ĠCardin alis
Ġgran um
Ġseips is
Ġsimp lum
ĠAsper natur
Ġdiutur na
Null am
Ġretr orsum
ĠAT T
ä¼ ļ
Ġfoc us
ĠPres byter
ĠCarthag inem
åŃ Ĳ
Ġmam mae
ĠCIC ERO
Ġcentur io
Ġnich il
Ġmenda x
ĠDign issimos
Ġpraefic itur
nesc imus
Ġton it
ĠRup ilio
ĠParlam entum
Ġeuangeli o
Ġtabernac uli
Ġcoempt ionem
1450839 56
ĠHannib al
Ã£ o
ĠElect or
Ġexquir ere
Ġincrem entum
Ġimmorta libus
Grat ias
ĠSull ae
Ġcorrept ionem
Ġtherm ae
37428 67
ĠRepublic anae
ĠMeridi ano
Ġarbitra retur
Ġethn icus
Ġherc le
ĠlÃ¦ t
Ġtumult u
sq b
Ġanath ema
Ġdipl oma
Ġcinemat ograph
ĠBith yn
ĠInvid iosum
ĠMinnes otae
Ġadinvent iones
ĠIca unae
empublic am
ĠÐ²Ð¸Ð´ ÐµÐ¾
ĠçĻ½ ç´Ļéĭ¼
' t
, --
- ,
0 4
0 8
A B
C r
C am
C ae
C et
E X
E um
F ree
H omo
H eu
J ust
L c
L eg
L uc
L ong
L uk
L uneburg
M e
M in
M al
M ult
M aecenas
N ota
N olite
P C
P R
S en
U L
V is
V al
W e
a qu
a is
b as
c p
c ap
d ium
d eret
e ius
e atis
e amur
f el
f amili
i enus
j i
k ed
l d
m atis
n en
p ecta
r ino
r inam
s imus
t ion
t arum
u ero
v entum
w ood
Î ²
Ð Ķ
Ø ³
Ù ģ
æ ²
æ ´
æ ī
ç ½
ç Ľ
è §
é ģ
Ġ odi
Ġ other
Ġe quest
Ġa vis
Ġs esc
Ġs he
Ġs oph
it antur
it ionum
us e
us i
us in
Ġp ull
am atus
Ġc ic
Ġc un
Ġn aut
Ġd it
Ġd in
Ġd atis
Ġm uc
Ġm ares
Ġm elle
Ġm iretur
Ġm aev
Ġm itteret
or n
or ro
or tavit
Ġin r
Ġin se
Ġin und
Ġin anis
Ġin min
Ġt ess
Ġt oni
Ġt echn
ut ura
Ġi it
Ġi rae
Ġi uncta
Ġi ratum
Ġi bat
Ġf ib
Ġf eb
Ġf ient
Ġf ati
im b
im il
im ine
Ġh in
Ġh iis
Ġh Ã¦
Ġh ymn
od am
et o
et am
ar icare
os is
os am
os eph
ul esc
ul sus
ent issimus
Ġnon agesimo
Ġpr iora
ib unt
ol dus
un itatis
Ġad ip
Ġad ult
Ġad erit
Ġad pos
Ġad fectus
Ġad iciam
Ġre ven
Ġre ad
Ġre ipublicae
Ġl os
ac et
ab amur
ab ilitatem
Ġut iles
Ġut ebatur
el eg
Ġquae sit
Ġquae cunque
il ae
op olit
Ġcum ul
ant ulus
Ġde per
Ġsu ite
al th
ĠE P
ĠE T
ĠE V
ĠE gn
ĠE ligendi
ibus que
Ġcon u
ĠI P
ĠI c
ĠI gn
ĠI ub
ĠI uxta
ĠI III
ĠI ron
Ġex ag
ĠS ig
ĠS uam
ĠS ive
ĠS uus
ĠS lov
ĠC av
ĠC rim
ĠC ura
ĠC athed
Ġan y
Ġan al
Ġan ulum
Ġan che
ag er
ĠD res
ĠD ux
Ġqui etis
Ġdic ebantur
Ġdic ebas
itat iones
Qu int
ip si
Ġper dam
Ġb ack
Ġb iduo
ist unt
ist as
ĠP ans
ĠP ass
ĠP arent
ĠP rog
ra w
atur e
ob oam
ĠQu icumque
Ġg av
Ġg erit
Ġg ust
Ġg erebat
Ġg rex
Ġco ept
Ġco etus
ĠN at
ĠN unt
ĠN uper
ens ionem
uit a
uc id
uc tor
ĠM A
ĠM as
ĠM undi
und ensi
Ġ2 10
Ġ2 13
Ġ2 21
Ġcom b
Ġcom oed
Ġ( =
are ns
Ġver eri
pt e
Ġposs ed
Ġposs ideas
Ġab str
Ġab rog
Ġvid ebat
Ġvid erent
Ġu ul
Ġu inum
Ġu erius
Ġr arius
ĠL es
ĠL og
ĠL uneburg
ĠH y
ĠH elim
Ġid ipsum
Ġid olum
Ġer ro
av ia
av isset
av erim
ell os
ionem que
ĠR otae
Ġam es
Ġam ar
Ġam ator
ĠF il
ĠF ugit
Ġat rium
Ġpro j
Ġpar is
Ġpar ta
Ġpar atae
ĠT ic
ĠT alis
ĠT otum
Ġinc arn
Ġcu bit
Ġvol t
isc a
isc is
isc umque
ĠV inum
ĠV ulc
ĠV itam
ĠV iscons
ess u
Ġsol ae
Ġsol ut
Ġun iuntur
Ġun iform
Ġtemp lis
ing at
Ġacc ident
ĠB os
ĠB ro
ĠB elli
ĠB rev
Ġint ima
Ġint erea
Ġprop it
Ġprop ag
Ġcont ag
Ġcont entio
Ġcomm e
Ġmod os
Ġsum o
ov ic
ig antes
ine o
Ġinter iore
Ġinter mitt
Ġinter empt
Ġor ationibus
Ġor ationi
Ġres pect
erat a
erat ionis
Ġdix istis
Ġanim ante
Ġcre atis
Ġar ida
Ġleg et
Ġleg untur
Ġfec eram
Ġneque at
Ġven ust
Ġven atione
Ġ19 3
ap sum
Ġloc utum
Ġsp ati
Ġal ea
Ġus ibus
Ġus ura
Ġser ena
Ġsub est
Ġpost modum
Ġaud isti
Ġaud itis
Ġaud ientibus
Ġaud ientis
ĠU ne
Ġprim itus
esc ae
Ġimp endere
Ġimp letum
Ġann ex
Ġann onae
ad os
ad as
Ġsim ult
Ġnatur is
Ġdeb il
res cit
Ġag es
Ġag rest
Ġgen et
Ġ4 35
dic itur
Ġpraes up
Ġvit ro
Ġput ari
Ġpec us
Ġtr em
ĠNon null
Ġcog unt
Ġcog itavit
Ġcur andum
Ġcur rus
pe ximus
Ġ18 2
Ġ18 16
Ġ18 24
Ġ18 88
Ġexp let
Ġmal am
Ġiudic aretur
Ġei ectum
Ġamic issimum
Ġiur are
Ġiur avi
Ġdisc at
Ġdisc ut
Ġeccles iÃ¦
erc a
Ġrep rehens
ĠâĢ ł
Ġdec l
Ġdec or
ĠQuid nam
Ġsua que
Ġas se
Ġas pectum
Ġas criptum
Ã¦ orum
Ġcomp rehendi
ingu et
Ġtot aliter
Ġcogn ati
Ġcogn atos
ĠFranc iam
Ġsent iret
Ġserv a
Ġserv io
Ġserv ate
Ġserv iat
Ġfort itudine
Ġfort itudinis
Ġmol e
Ġgrat i
Ġscrib unt
Ġscrib atur
Ġscrib antur
Ġact ae
ĠÐ µ
ĠÐ »
ĠÐ Ķ
ĠÐ Ŀ
Ġinv itis
Ġinv olv
Ġinv olvit
Ġinf und
Ġviv ant
Ġviv amus
Ġfid ius
Ġnot as
ĠAm on
Ġcar us
Ġcar ior
Ġcar issimi
Ġsign atum
Ġins an
Ġins inu
Ġcol oribus
Ġplac uerunt
Ġcred ebat
Ġcred entibus
Ġlab rum
Ġpraeter ire
Ġdef endam
Ġmor b
Ġnov os
Ġnov issima
Ġerit que
Ġdoc eo
Ġopp ressa
iens ibus
Ġvis is
Ġvis ione
Ġval le
Ġneg o
Ġneg avit
Ġdomin am
Ġinven iatur
Ġred ig
Ġred ux
Ġred iret
Ġred uxit
Ġprincip ii
ĠAr io
Ġsumm as
Ġfr uitur
unct i
Ġj o
enti endum
Ġquaer as
ĠQuae so
Ġpecun iarum
Ġduc ebat
ix a
Ġvolunt aria
Ġvolunt ates
ĠJ am
ea se
Ġeg ere
Ġeg isse
Ġsanct u
Ġimper avit
Ġius si
Ġdilig ebat
Ġext rinsec
Ġnecess itudinis
ĠPr orsus
Ġtest atus
Ġtest atoris
Ġ12 05
equ aquam
Ġplur imam
Ġplur imas
Ġintelleg untur
10 4
Ġvic ino
Ġmut at
Ġmut atum
Ġmut abilem
ĠMar ch
Ġit idem
Ġaccip io
Ġaccip iet
Ġaccip iendum
Ġhum i
Ġcognosc endum
Ġcognosc endi
Ġcognosc ente
ĠEx plic
Ġ15 2
Ġ15 3
Ġign otus
Ġmed icus
Ġpet is
Ġpet imus
Ġind ub
Ð¸ Ðº
Ġw r
Ġw ere
Ġsen ecta
Ġpertin entia
Ġpertin ebant
ĠUt ae
Ġstat uas
Ġdiscip ulo
Ġintellig ens
Ġintellig untur
iant em
Ġem erg
Ġexist it
rah it
Ġpul si
Ġaper i
Ġpecc averunt
Ġaccus at
ãģ £
Ġtrans itum
Ġtrans cur
ĠMa i
ĠMa x
ĠMa y
Ġimm od
Ġadm is
Ġsoc io
Ġdub itatione
Ġcup imus
ĠOmn ibus
Ġpon untur
Ġpon eret
Ġaequ ius
Ġaequ itatem
Ġaequ alem
ĠK ohl
ĠPh al
ĠPh aris
Ġtim ui
uerit is
ĠGerman ica
Ġadi u
Ġadi uro
Ġdedit que
Ġepiscop orum
Ã© r
Ġdiff amatus
Ġcontin ue
Ġult imis
Ġfl ux
Ġth ese
Ġth roni
Ġpraecip itur
Ġpraecip imus
Ġdon an
Ġprod uxi
Ġadd uxerunt
Ġmalum us
Ġscient ibus
Ġeffic iat
Ġunivers os
Ġunivers orum
Ġfer iae
Ġfer ro
Ġfer ret
Ġantiqu itate
Ð» Ð¸
ĠEr as
ĠTh ese
Ġtrad untur
Ġmir ari
Ġcond itus
ĠquÃ¦ cumque
Ġdum modo
Ġpossess iones
ung ar
ard s
Ġgrav issima
Ġaudi atis
Ġaudi endum
Ġpulch ri
Ġaetern itatem
Ġaetern itatis
Ġarbit rum
Ġinstit ui
ĠCan is
Ġcoll ect
Ġlae ti
Ġprof ecta
Ġfin ito
Ġperm ix
ĠGal lis
Ġlect iones
Ġlect ulis
Ġcan em
Ġprom ittere
ĠSc it
ĠSc aevola
Ġdict am
ãĥ ĥ
ãĥ ĸ
Ġdil at
ĠChristi anis
Ð¾Ð ·
Ġav eo
Ġrecip itur
Ġ& &
Ġsimil lim
Ġpugn averunt
Ġdelect ationem
ereb am
ĠInt ell
ĠCar th
Ġ22 7
Ġalien us
Ġindic asti
ĠNov emb
eram ur
Ġ23 1
Ġnob ilitate
Ġnob ilitas
ĠEp ir
Ġfur to
Ġmitt imus
ich o
ich t
Ġdisput atione
26 5
Ġinim ica
Ġcr us
Ġcr ass
Ġrog avi
Ġconv ent
Ġteneb ros
Ġpropos itionem
Ġ194 4
ĠLib ert
ĠLib ri
Ġaff erat
Ġaff lig
Ġnar raverunt
Ġped est
Ġ25 3
Ġpuell as
Ġrespondit que
Ġsin it
Ġads ent
Ġscrips imus
Ġcast itatis
ĠVol unt
Ġdivis us
Ġdivis ionis
Ġdim issus
Ġdivers as
Ġrelin quit
Ġaux ilia
Ġnasc etur
Ġdux erat
Ġass ec
Ġrelig io
Ġrelig iosum
Ġvideb unt
Ġfig uram
Ġperven iat
Ġscriptor is
Ġarch id
Ġaffect iones
Ġtut e
Ġordin ata
ĠIp sam
Ġpret ii
ĠVid es
Ġmanum itt
Ġcens et
Ġcens ores
Ġhort is
Ġhort aris
Ġarc um
Ġcircum ven
Ġpal p
Ġuol upt
Ġasper um
Ġpass ione
Ġpass ionibus
Ġpass ionum
enn ae
Ġquat tuordecim
Ġdis ponitur
Ġsy mb
fac ta
Î± ÏĤ
Î± Ïģ
Ġagn itionem
Ġparent is
Ġ197 9
ĠVen eris
Ġargum enti
Ġplen ius
Ġgener ali
Ġpauper um
Ġsusc eptum
Ġsusc epi
ĠIoseph i
ĠInter dum
Ġnim ia
Ġalb edo
ĠÎ º
Ġlev es
Ġlev ia
Ġpraem iis
Ġdistinct um
Ġceleb rata
Ġceleb ratur
ĠLuc ae
Ġtestam enta
Ġfrequ entius
Ġtac et
Ġstult e
Ġcetera que
ĠBritann iarum
Ġdia c
Ġdepos uit
Ġasc endi
Ġsempiter nis
201 4
Ex c
Ex s
à´ ¿
ĠEn och
ÐµÐ ±
Ġdorm iunt
Ġdorm ierit
Ġelect ron
Ġflum inibus
Ġhabitat io
ĠLut etia
ĠOr do
Ġ34 0
Ġexcept io
Ġexcept ione
Ġsolv erit
Ġ185 1
Ġ185 9
Ġfirm iter
Ġconvers o
Ġapostol o
Ġ195 1
Ġ195 3
Ġsollic itudinem
Ġbrev ior
Ġbrev itate
Ġobl ata
Ġiucund us
ĠSam u
ĠGen av
Ġobi ecta
Ġobi ecto
Ġadduc tus
Ġsomn us
Ġcult ui
Ġcult urae
Ġprohib entur
Ġobserv ari
Ġobserv antia
ĠIt ane
Ġlegit imum
ä¸ Ń
Ġexter os
Ġexter na
Ġedit ionem
ipp um
ĠVal ete
Ġindign us
Ġindign atio
Ġindign atione
ĠVolupt atum
Ġhabeb imus
Ġcondit ae
Ġsepar ari
Ġjudic io
Ġuen iat
ĠXX VII
Ġnoli m
Ġdo es
Ġinterpret antur
Ġtempor alis
Ġsustin uit
Ġagnosc it
ĠMan asse
Ġdelic to
Ġub ert
Ġcarn aliter
ĠIust ini
ĠMet rod
Ġoccid erit
Ġoccid entem
Ġoccid ente
Ġdamn avit
Ġabund ant
Ġexpet endam
Ġaccess erit
Ġimprob orum
Ġrequir untur
ravit que
ĠÑģ Ð¼
Ġlap ideas
Ġappet ere
Ġappet itus
Ġinuen ire
Ġsuav itate
Ġoppos itionem
Ġare am
Ġelem entis
Ġelem entorum
ĠEuropae a
ĠCont in
ĠCont emnit
Ġdilect ionis
ebo ok
200 7
Ġacceper int
Ġpraecept or
Ġcathol icum
Ġrom ano
ĠBib liorum
Ġimpl ere
Ġimpl ebuntur
Ġ190 7
Ġ190 8
ĠItal ica
Ġinius ta
ĠArch itecto
ĠKal endis
Ġvulg ari
Ġconsist unt
Ġinm orta
Ġmagnific a
Ġdifficult atem
ĠRespon sio
Ġcondem natus
Ġrespic ere
Ġarm enta
Ġaer arium
Ġrevers a
Ġrevers usque
Ġduplic i
Ġtradit io
ĠQuot iens
ĠLab ore
Ġfun eris
Ġpraestant ius
Ġexpugn ata
Ġexpugn averunt
Ġcit ra
Ġpropinqu a
Ġobtin ere
Ġobtin uit
ĠMal o
Ġcler icum
á½ Ĳ
Ġpasc am
Ġincid am
ĠSeptentr ionalis
ĠPhil ist
Ġintro ivit
Ġempt ori
Al pibus
Ġpud oris
Ġpas ch
Ġdesin unt
Ġreced endum
Ġdulc is
ĠSax oniam
Ġdifferentia s
Ġadministrat ione
Ġadministrat ionis
Ġconst are
Ġconst ans
Ġexcus ationem
Ġexcus atione
Ġproduc ta
Ġinform ation
ĠCras sum
àµ ģ
Ġimpos itum
Ġmans erunt
Ġnarrat ionem
ĠBoruss ia
Ġcat egoria
Ġration ali
Ġdoct orum
Ġmedioc riter
Ġinvoc atum
Ġfrum enta
ĠPhara onis
Ġadulter io
Ġpulchr itudinem
Ġperman sit
Ġsplend ida
Ġcontemn ere
ĠCam b
Ġdesid eret
Ġtrah it
Ġradic em
Ġradic ibus
Î· Î½
ĠMus eum
Ġresponde at
Ġsinist ra
ĠÅ ĺ
Ġvenen um
Ġopprim i
Ġapt ius
Ġresid ui
Ġpersec uti
Ġpersec utionem
Ġdevor averunt
ym ph
Ġrescrip serunt
ĠUnivers itas
Ġexpos uit
Ġphys icis
ĠSus cipit
Ġcorrum pere
Ġabscond ita
ĠVirg iniae
Ġtard ius
ĠFal sum
Ġinterc ed
Ġauxili atus
Ġcomplex u
ĠArd escae
Ġingred ere
ĠConstant in
Ġmathemat ica
Ġinnumer abiles
Ġsubd ita
Ġual de
Ġmedic inam
Ġperegr inus
Ġsel ected
Ġintern ationalis
Ġfall ere
Ġsilv as
Ġinu enta
uch ar
Ġconsue verunt
Ġthesa urum
Ġpunct o
ĠAqu ila
Ġcommov eri
ĠElis eus
Ġfix um
Ġcaeter a
Ġaccommod atum
Ġpur p
Ġfil um
Ġadept i
ĠVenet ia
ĠFinn ia
Ġextran eum
Car olus
Ġequit es
ĠFlor idae
ĠClod ius
Ġredempt ionem
Mag ister
Ph one
Ġcommerc ium
Ġcommerc ii
Ġseg reg
ĠOrdin arii
Ġmeretric is
Ġtrin itas
Ġglorific atus
Ġdispens ationem
Ġresurrect ionem
Ġlup o
ĠPop ulus
ĠHeli ae
Ġincend io
Ġfidel iter
ĠXen ocrates
ĠcÃ¦ lum
Ġcerv icem
Ġsucced unt
Ġgrand e
Ġadp rehend
Ġadp rob
Ġcoha erere
ĠNic olaus
Ġdifficillim e
ĠCorp us
çĶ Ł
Ġhist oriarum
Ġremov eri
Ġrecognosc ere
ĠÃĨgypt i
Ġdeput antur
Ġincommod a
Ġmig ravit
Ġinvas erunt
Ġcalum niae
ĠHierem iam
ĠDolab ellam
Ġsacrific et
Or igin
Ġprist inum
ĠRest atis
Ġdeclina vit
ĠArc es
Ġundev icesimo
Ill ud
Ġobnox iae
Ġnuncup atur
Ġpatron atus
Ġtransg ress
Ġdiuers a
Ġpel libus
ĠGer undensi
ĠIndic ant
Ġdefl uet
Ġmorta libus
ĠCla usae
Ġperp auc
ĠPostum i
Ġdissent iunt
ĠAgrip p
Ġdiap ason
ĠDiscip ulus
Ġ$( "
Ġsid erum
ĠHad rum
Ġdeven erunt
Ġstomach o
Ġinhabit antes
Ġexprob rare
Ġmiserat iones
Ġtranst ulit
Ġconfort atus
Ġpaul atim
Ġje j
ĠColleg ium
Ġfrang ere
Ġsuppos itum
oniz atus
Ġdiluc ide
ĠImp edit
Ġbarbar orum
ĠLem ovic
Ġscandal o
Ġscandal um
Ġcereb rum
Ġoliv ae
Ġdenot atur
Vir temberg
ĠBad eniae
ĠUlix es
Ġchem icus
Ġbibliothec am
ĠBrunsv icum
wh ite
Ġseri e
Ġquand oquidem
Ġdelet ionum
åĨ ħ
ĠQuaec umque
Ġannuntia bit
Ġingem uit
æ° ´
ĠCath ar
ĠLugd uni
ĠÚ ¯
Ġprodux erant
Ġconprehend erunt
Ġinpon ebat
Ġconect untur
Ġspre verunt
ĠJeh ova
ĠCarne ade
Ġfoeder ali
ĠMah omet
}, {"
ĠPelop onnes
ĠLips iae
equis itus
Ġhauri endam
rotund imentum
ĠCleopat ra
Ġextin ct
ĠSemp ron
Ġperter r
Ġbeniv ol
Ġplebisc ito
ĠCyre na
Ġath let
ĠGede on
Ġeffemin ari
ĠPolem onis
ĠBoeth ius
Ġtristi que
Ġhorrid iores
ĠBeniam in
ĠATT ICO
ĠViscons iniae
" ?
' +
. âĢľ
5 00
9 6
? ;
A ene
B ut
C O
C al
C DU
D O
E L
F or
G u
G al
H en
H arum
I b
I s
I ON
I oseph
L ud
L XX
L itter
M t
N omen
O b
O n
P a
R I
R ec
R ex
S in
S ap
S aepe
U l
V ide
\ \
b ing
c at
c fr
d g
d itur
d ie
d isp
f a
f in
f ol
f red
f ecit
g i
g l
h ar
i ar
i ans
i erint
j en
l v
l ast
m atibus
n at
p es
p rim
p heus
r ol
r imus
r icum
s im
u ens
u issent
u erimus
u issem
v entus
w er
w ell
x erat
y rum
y pi
z z
z ant
³ åİ¿
Â ¶
Â ¿
Â Ķ
Æ °
È Ļ
Ð ľ
Ð ŀ
á Ģ
å ¯
å ¿
å Ŀ
å Ł
æ ³
æ µ
æ İ
æ Ń
ç µ
ç Ń
è ´
é ĩ
é ĸ
é Ľ
Ġ ulli
Ġ ullius
Ġ Ø±
Ġ Ñį
ġ ġ
Ġe vert
er iae
er ans
er endo
Ġa ene
Ġa ula
Ġs op
Ġs ina
Ġs auc
in atio
in ationem
in quit
in oniae
is icing
Ġp ura
Ġp ane
Ġp irat
at ivam
am ine
Ġn ih
Ġn avi
Ġd ura
Ġd andum
Ġd Ã©
Ġd ay
Ġd abimus
Ġd itavi
Ġm oris
Ġm uta
Ġm utus
Ġm uri
or di
Ġin it
Ġin lic
Ġin ex
Ġin erm
Ġin ane
Ġin ani
ic c
ic ibus
ic ulae
ur iae
Ġv n
Ġv in
Ġv ot
Ġv anum
Ġv iii
Ġt ig
Ġt aliter
Ġt onus
ut as
Ġi erit
Ġi Phone
re en
re vit
Ġf uc
Ġf ile
Ġf erebat
li e
Ġest ne
Ġh ol
Ġh eret
et as
ar as
an ii
id at
id iis
id icus
os oviae
ec umque
ec ce
Ġpr iorem
Ġpr iu
ol f
ol ita
un ia
un ensis
Ġad c
Ġad em
Ġad nex
ud e
ac ensis
ab i
ab ri
el s
el y
el am
ot s
Ġde pic
al o
ĠE ST
Ġcon ati
Ġcon fectus
Ġcon uert
ĠI ur
ĠA B
Ġex ul
Ġex iret
Ġex asper
ĠS r
ĠS tr
ĠS urre
ĠS eth
ĠS lav
ĠS ubi
ĠC ub
ĠC antium
ĠC CC
ĠC yp
ag i
ĠD edit
ĠD ani
ĠD ivis
ĠD edic
Ġqui pp
Ġdic eremus
est e
est ate
Ġper vertere
Ġper peram
Ġfac etiae
Ġb rum
ĠP re
ĠP erm
ect am
ĠQu um
ĠQu alis
ili anus
ili ensis
Ġsed eat
Ġsed eant
omin um
Ġg ot
Ġg ermin
Ġg usta
no st
Ġen it
Ġen erg
Ġco hib
Ġco acti
Ġco okies
ĠN ut
ĠN ar
ĠN ation
ir is
ens imum
Ġhab eretur
Ġhab ebatur
Ġhab itudinem
Ġhab ebantur
Ġtu b
Ġsc am
Ġsc iatur
ĠM y
ĠM ari
ĠM undum
ĠM ann
ĠM ox
ĠM emini
eb itis
Ġ2 14
Ġ2 15
Ġ2 22
Ġcom ite
Ġcom ponere
Ġap pon
Ġquo usque
ort e
Ġver ter
Ġver sum
ina li
Ġposs edit
Ġab d
Ġab j
Ġab esse
Ġab esset
Ġvel ox
Ġvid issent
ita verunt
Ġu ert
Ġu eri
Ġu entum
Ġu iri
Ġr ite
Ġr uf
Ġr asa
ĠL ot
ĠL ist
ĠL az
ĠL abor
ĠH ec
ĠH uc
ĠH ols
Ġid us
Ġid eae
Ġer ratum
Ġer gone
av as
ell es
ĠR ot
ĠR ap
Ġam icae
Ġam ores
Ġam abilia
Ġam ittere
ult am
ĠF am
ĠF ig
ĠF ris
Ġpag inarum
Ġat tr
Ġpro veniunt
Ġpar ibus
ĠT i
ĠT w
ĠT itus
ĠT attoo
Ġinc ept
Ġvol ent
Ġcons im
Ġcons ob
Ġcons ign
Ġcons angu
ĠV end
ĠV obis
ĠV ulg
ĠV err
ĠV eritas
Ġpl at
Ġpl ease
Ġnec ne
ari z
Ġma ke
ĠG ir
ĠG ens
ĠG rec
ĠB ra
ĠB ay
ĠB UC
ust i
Ġint ol
Ġint uitu
Ġprop ugn
Ġcomm ota
Ġmod ice
âĢ ŀ
ig oth
Ġfu erimus
Ġor ae
Ġor amus
Ġres pectum
erat um
Ġsec utae
Ġdix issem
Ġpat eretur
Ġpat iantur
oqu i
int on
Ġreg iam
Ġreg inam
Ġst ag
Ġst ate
Ġst antes
Ġanim Ã¦
ro ugh
Ġ3 01
Ġ3 19
Ġ3 50
Ġ3 26
Ġcre antur
Ġmin ui
Ġmin uta
Ġmin utis
ate ur
Ġar as
Ġar ce
Ġcor onam
Ġnost re
Ġleg as
Ġleg atur
Ġleg endum
Ġleg amus
Ġleg ationem
Ġven und
issim eque
Ġ19 2
Ġ19 15
abul o
ĠO ratio
Ġerat que
Ġloqu emur
Ġal c
Ġal as
Ġal ti
Ġnum eris
Ġnum mus
Ġaud ent
Ġaud irem
Ġmort es
ĠU no
ĠU tique
Ġcaus idicus
Ġob c
Ġob tem
Ġob ru
Ġob sign
Ġman ent
Ġimp udic
Ġann ot
ad s
ad am
Ġdeb erent
Ġag ain
aud eo
Ġac errim
Ġrat ioc
Ġpart i
Ġpraes ide
Ġvoc ans
Ġput anda
Ġput aram
Ġtr op
Ġtr ag
Ġtr acta
Ġtr ucid
Ġcog i
Ġcog at
Ġcog itate
Ġcur s
Ġcur abo
Ġcur iosorum
Ġhabet o
Ġsuper f
Ġsuper ab
Ġsuper iores
Ġsuper emin
Ġsan itas
Ġsan itatem
Ġcap io
Ġcap ill
ux erit
Ġ18 1
Ġ18 21
Ġ18 40
Ġexp ecta
Ġexp ensi
Ġexp ensum
Ġexp ectare
ne y
Ġmal ev
Ġmal let
Ġiudic atur
Ġiudic atus
Ġamic issimi
Ġiur idic
Ġdisc unt
Ġdisc itur
Ġnomin ant
ali i
ali en
Ġsua pte
Ġded isset
Ġcomp ens
Ġdes ili
Ġtot i
Ġtot iens
ĠFranc icis
Ġconc in
Ġserv atur
Ġserv ivit
Ġlit ora
Ġscrib es
Ġconf lig
ĠÐ ĵ
ĠÐ ĺ
ios issime
Ġinv it
Ġinv itum
Ġinv idere
Ġiust am
Ġmaior que
Ġel se
Ġel ectum
Ġinf antia
Ġviv ebat
Ġnot io
Ġnot ionem
Ġnot ione
Ġcl a
Ġcl avis
he im
Ġpraec ise
Ġquos libet
ĠAm icus
Ġcar issime
Ġins picere
Ġten eo
Ġten ui
Ġten uerunt
Ġcol ores
Ġplac ebit
Ġcred is
Ġcred amus
Ġcred erem
Ġpraeter g
Ġpraeter mis
Ġdef ensio
Ġdef erre
Ġvide amini
Ġopt im
Ġdoc eri
Ġdoc endum
Ġdoc uerit
Ġconsequ entibus
Ġfi eres
Ġrespon sa
Ġprob aret
Ġcirc uitum
Ġcae d
Ġinven iet
Ġinven iret
Ġinven ietis
Ġred de
Ġred dam
Ġcert ae
Ġcert issime
Ġcontra xit
Ġfug i
Ġfactum que
Ġj uv
Ġj uris
Ġj uven
Ġadh ae
Ġux orum
Ġux oribus
Ġquaer endo
pic e
pic ius
ix erit
ĠJ ust
ĠJ erem
ill y
Ġimper are
Ġimper atum
Ġmund itiam
ulis que
Ġext at
Ġgra u
Ġnecess arius
ĠPr ag
Ġtest e
Ġ12 18
Ġabs entibus
Ġdign am
Ġfam osi
Ġrei ectus
Ġexerc uit
ĠEccles ias
Ġvic is
Ġvic iss
Ġsens ibilia
Ġmut etur
Ġmut antur
Ġmut ua
ĠMar s
ĠMar doc
ord ia
Ġcognosc amus
Ġ17 4
Ġ15 6
Ġign otum
Ġmed iam
Ġind ur
Ġcet ero
Ġsup remum
Ġverum tamen
act ionem
act iones
Ġpertin eret
Ġph ase
Ġlong itudinem
Ġbell is
Ġbell orum
Ġod or
Ġdiscip ula
ĠUn ione
ĠUn igeniti
Ġtant as
Ġtant undem
Ġpropr ius
Ġintellig at
Ġintellig ibilis
Ġmens ium
iant ibus
Ġem in
Ġem is
Ġem erit
Ġem erat
Ġem ail
Ġmil f
Ġmil itiam
Ġfact iones
ath ena
Ġpraedic ere
Ġpraedic andum
Ġpraedic ans
Ġpraedic tis
Ġpraedic tae
Ġfaci endo
oll a
Ġrex it
Ġaccus et
Ġaccus atorem
Ġlat ent
Ġcontr itum
Ġcontr actus
Ġspec ific
Ġimm ane
ĠOmn ino
Ġoper or
ĠCiv itas
Ñģ Ð¿
ĠK ol
Ġtim ent
Ġtim idus
Ġaedific abis
Ġadi ectum
ĠCo gnosc
ĠSic y
Ġregn ante
lis ip
Ã© runt
Ġdiff usa
Ġmov eret
Ġexs ilio
Ġult imus
Ġnoc eret
Ġluc os
13 4
Ġconven iri
Ġth an
Ġsing illatim
Ġpor tav
Ġpraecip ere
Ġdon ate
Ġperfect am
Ġadd idit
Ġeffic iatur
Ġtrib ui
Ġtrib uitur
ĠPl ur
ĠPl ura
ĠPl ures
Ġfer as
Ġfor san
ĠTh ec
ĠTh eb
Ġcond on
Ġcond iscip
ĠReg io
Ġpossess or
Ġaudi erat
Ġpostea quam
Ġauctor is
ĠSp ar
Ġpulch ram
Ġpulch rius
Ġed oc
Ġmiser ior
Ġmiser ias
Ġscire s
Ġscire nt
Ġmot a
Ġobs ol
Ġrespond etur
Ġrespond ebo
Ġnol it
Ġnol uerunt
Ġarbit ram
Ġarbit retur
ĠÃ ¡
ĠÃ İ
Ġinstit uere
Ġref erunt
Ġref ers
Ġref ug
Ġredd eret
la x
Ġch ir
Ġch ose
Ġbib entes
Ġcogitat ionis
Ġpraest a
Ġpraest ol
Ġpraest ari
Ġpraest aret
ĠGal los
Ġdiss on
Ġalic ujus
Ġclar issima
Ġhuman issimi
ĠZ ach
ĠZ Ã¡
Ġcan itur
Ġveniam us
Ġdep lor
Ġdep rehens
ĠCur io
Ġden i
Ġbre uiter
ãĥ Ī
Ġsept im
Ġ20 5
ĠChristi anos
Ġdiu inae
Ð¾Ð ¿
Ġav ailable
Ġrecip iant
Ġhost iae
Ġsimil itudines
Ġiuris dictio
Ġdelect amur
Ġincip iebat
ereb antur
ĠCar olo
par t
Ġreper iantur
Ġ22 5
Ġpauc ae
Ġindic e
ĠSt atu
ĠNov ember
Ġaccid erat
Ġaccid isset
Ġ23 5
Ġuid eat
Ġport ione
Ġmitt e
Ġk ik
ĠAs li
Ġsucc urrit
ĠAut hor
Ġ24 0
Ġingen iis
Ġpriv ato
Ġscript ae
Ġdisput at
Ġinim ico
Ġpraed itus
ãĤ ģ
ãĤ Ĭ
ãĤ Į
Ġteneb antur
Ġaur eam
Ġperd id
Ġperd uxit
Ġ26 0
Ġ26 8
ĠLib ro
Ġaff erre
Ġiac tus
Ġoff eruntur
Ġli qu
Ġini ung
ĠSept ember
Ġ28 4
Ġambul as
Ġconiunct us
Ġignor abant
Ġexspect atio
Ġvers ari
Ġdux isse
Ġcompos itis
Ġvideb amus
Ġ30 8
Ġmanifest i
Ġmanifest atum
usc ulum
Ġadhib et
Ġadhib entur
Ġadhib endam
Ġhabuit que
ĠPar ts
Ñĥ Ñİ
Ġordin ibus
Ġcompar atio
Ġrel ationes
Ġrel ativa
Î¿ Ïħ
Ġsimplic itate
Ġintra verunt
Ġcustod ite
Ġdis ert
Ġturp issimum
ure um
Ġ197 0
Ġconsum ps
Ġconting ebant
Ġmilit arem
ĠMed iae
Ġgl ut
Ġnat am
Ġvix erunt
Ġaestim andum
Ġvac abit
Ġsalv abor
Ġexper ientia
Ġpraesid ii
Ġconced am
ĠCl u
lac ement
ĠÎ ³
ĠÎ ļ
Ġlev iter
Ġostend atur
Ġostend imus
Ġostend eret
Ġrelinqu eret
Ġjust ific
ĠFac tum
Ġstult i
Ġno ua
Ġcomed isti
ĠBritann iam
Ġir rog
Ġbenefic iis
à´ ¨
Ġ198 5
Ġgenerat ionis
Ġamb orum
Ġ36 5
ĠImper io
Ġpros picere
ĠMin ima
ĠMin erv
Ġsuffic iunt
Ġsuffic iens
Ġsuffic ientiam
ĠLut h
Ġot ii
Ġot iosum
Ġtoll erem
ĠArist o
Ġprud enter
Ġalt ior
ĠAng elus
Ġdioeces ano
Ġcredit is
Ġcredit or
Ġoccup averunt
Ġmori eris
Ġclam ant
Ġclam are
Ġoperat a
Ġoperat ionis
Ġconsider ari
Ġconsider emus
ĠAtt icus
Ġextrem is
Ġconcess is
Ġobl ita
Ġobl iti
ÏĦ Îµ
Ġrevert atur
Ġdeduc entur
Ġconstr uct
ĠAcc edit
Ġparticip ationem
Ġsuspic atus
Ġsuspic iones
Ġadduc i
Ġort h
Ġhor re
ĠPol emo
ĠPol oniae
Ġprohib eret
Ġincom modi
circ a
ä¸ »
ä¸ Ģ
Ġexter n
Ġexter no
Ġrecord atus
Ġconsc ius
Ġ186 1
Ġ186 9
Ġtribun um
Ġorn ate
Ġduod enique
Ġz odia
Ġconfic ere
Ġconfic ior
Ġhabeb itur
Ġaccept am
Ġmemin eris
Ġcondit ionem
Ġcondit ione
Ġsepar ata
Ġmont is
Ġmemb rorum
Ġpraepos itus
Ġvocatur que
Ġoccult o
Ġretin et
Ġretin etur
ĠProp e
Ġdig it
Ġdig iti
Ġoccas um
Ġinqu iet
Ġconvert ere
Ġuoc ibus
ĠFeb r
Ġcern it
Ġ187 3
Ġdelic iae
Ïĥ ÏĥÎ±
Ġcolleg ii
ĠBo et
Ã³ m
Ġcarn es
Ġdissim ulare
Ġoblig ari
Ġdamn ationem
Ġgreg is
Ġgreg ibus
Ġexpet it
Ġadulesc ent
Ġadulesc entiam
Ġinfer entem
ĠSy me
Ġ189 0
Ġoccurr eret
Ġappet itum
Ġhuc usque
Ġelem ent
Ġeduc ationem
Ġeduc ationis
Ġå ¤
Ġå ¹
Ġexhib endum
ĠPic tav
Ġcongreg avit
Ġcongreg abo
Ġexcell ent
ĠTro i
ĠTro iae
Ġpleb em
Ġprot inus
Ġpraecept o
Ġcathol icam
Ġfab er
Ġadven ae
Ġconstant ia
ĠSum mus
ĠAlb ertus
Ġdefic ere
ĠRep lacement
rav erit
ĠBib ulo
Ġinp une
Ġcub ili
Ġcub itum
Ġ190 3
Ġ190 6
Ġ190 9
Ġpoet am
Ġquadr ing
Ġquadr up
pat er
Ġmend icus
Ġinsign ia
Ġerud itus
Ġerud iti
ĠAmeric ana
ĠMaxim i
Ãª n
Ãª runt
Ġinfirm um
ï¼ Ī
ï¼ ī
Ġsort em
Ġpraeclar us
Ġdifficult as
Ġpess imo
Ġarm ati
Ġarm iger
ĠJes um
Ġingredi eris
Ġec quid
Ġtradit is
Ġtradit ionem
ĠLingu am
Ġsanctific ata
ĠLab orum
Franc iscus
Ġpropinqu us
ĠMal um
Ġresist o
Ġexprim it
Ġobliv io
Ġtransl ationem
Ġpasc unt
ĠSyr us
Ġexst ingu
Ġdomest icum
XXX III
Ġreced ant
ĠÐ¸ Ð·
Ġcompl etur
Ġintellex it
Ġfelic itate
ĠAustr iac
ĠSac ra
ĠSac ri
Ġgign itur
ĠHeb domad
Ġcommut are
lav iae
yri e
Ġpun iatur
ĠAem iliae
Ġgrammat icae
Ġgrammat icus
Ġnumer ari
Ġcav endum
Ġger endum
Ð¾ÑĤ ÑĢ
Prae sent
Ġconcord ia
Ġprocur atorem
Ġsacram ento
Ġnarrat ur
Ġlo oking
Ġlo quamini
Ġorig inis
Ġaudac ia
Ġ179 7
Ġdescrip tio
Ġplant ae
Ġdesiderat i
Ġdoct issimi
Ġsusp ir
Ġcrudel itatem
ĠDom us
Ġmedioc ris
Ġoppugn andum
Ġsubsist it
Ġumb il
Ġfrum enti
Ġfamiliar itate
Ġrevel abis
Ġpiet atis
Ġpraesum pt
Ġcontemn enda
Ġchristi ana
Ġchristi ani
ĠGuliel mo
Ġcomment ariis
Ġcommitt i
Ġdefens ionem
Ġdefens ione
Ð¾Ð¼ Ñĥ
Ġnarr abo
ĠCel torum
Ġru ina
Ġpign ori
ĠCant ab
Ġuide antur
Ġconson antia
ĠVis igoth
Ġcorpora libus
Ġfals ae
ĠVic inoniae
ĠÐ´ ÐµÐ²
Ġtang i
Ġtang et
ĠPhili ppi
Ġcorrig ere
Ġperturb atio
ĠEbor aco
Ġvar ias
Ġterm ini
Ġerip i
Ġinvestig atio
Ġsatisfac ere
Ġcolor atum
Ġcontumeli a
Ġcontumeli ae
Ġcave atur
Ġtransf re
Ġvine ae
Ġdesert ae
Ġinnumer abilibus
Ġexpon am
Ġperdit orum
Ġmonast erium
ĠEvangeli i
Ġpraevaric atus
Ġgraec i
Ġperegr ini
ĠInd ia
ĠInd iae
Ġtransfer ri
Ġproduct Variants
Ġna utae
Ġabb ati
Ġprol ong
Ġredit u
ĠTub ulo
Ġimpon ere
Ġartic ulus
Ġsta dia
Ġgess erunt
Ġabomin ationibus
Ġadiung it
Ġadiung atur
Ġosc ulum
Ġeunt ibus
Ġexcog itavit
Ġrett ulerunt
ĠAntioch us
ĠPhilipp o
Ġpraetere o
Ġregim inis
Ġdeprec ationem
Ġaegrot um
irent ur
ĠPhilosoph us
æĹ ¶
Ġverec unde
ĠGab a
Ġhaeret ici
con f
Ġseg n
Ġtet ig
ĠAur eli
Ġsecret o
Ġacquir itur
Ġconj ug
ĠCass ium
Ġresurrect ione
Ġaf ter
Ġcathed rali
Ġabst ulit
Ġfidel em
Ġterritor ium
Ġdaemon ium
Ġacquis itum
Ġconfite ar
Ġceler itatem
ĠCorne lio
Ġmit ig
ĠLitter ae
ĠTol le
ĠChrys ippum
ĠDolorem que
ww w
Ġteg enda
ĠCain an
ĠLoc utus
Ġconiur atio
Ġmur mur
Ġpotu issent
Ġmediae v
Ġincorrupt ibile
Ġpress uram
Ġcith ar
Ġtal k
Ġincho avit
Ġmodest e
Ġconfec isse
"\"\"\"\"\"\"\"\"\"\"\"\"\"\"\"\"\"\"\"\"\"\"\"\"\"\"\"\"\"\"\"\"\"\"\"\"\"\"\"\"\"\"\"\"\"\"\"\"\"\"\"\"\"\"\"\"\"\"\"\"\"\"\"\ "\"\"\"\"\"\"\"\"\"\"\"\"\"\"\"\"\"\"\"\"\"\"\"\"\"\"\"\"\"\"\"\"\"\"\"\"\"\"\"\"\"\"\"\"\"\"\"\"\"\"\"\"\"\"\"\"\"\"\"\"\"\"\"\
Inter rog
Cont ainer
Ġeuen ire
Ġpraedest inati
Ġsabb ati
Ġpra erog
ĠRosc ium
ĠFin landia
ĠpoÃ« ta
ĠEg one
Ġconfect ae
ĠSm yr
Ġcommin isc
Ġreplet i
Ġreplet us
Ġproverb ium
Ġconduc ere
å¹ ´
ĠSina i
ĠPub li
Ð¾Ð³ Ð¾
ĠAccus amus
iel d
Ġsess io
Ġpervers ius
ĠPecun iam
Ġcancell arius
Ġclem entiae
ãģ¾ ãģĻ
Ġimbec ill
Ġpersev erent
ĠReliqu um
Sec undum
Ġcolumb arum
Ġpraeterm issum
Ġavunc ulus
Ġsyllogis mus
Ġnoll em
Ġhar mon
ĠHisp ani
Ġreverter etur
ĠTheodisc ae
ĠAcha ia
Ġgymnas io
Ġgymnas ium
Ġnuc es
acc ess
ĠRuf us
Ġremans erunt
Ġpug no
ĠMediol ani
ĠNeap oli
Ġax is
Ġreb ell
ĠFerdin andus
Ġtyp ograph
ĠMalmog ia
ÑĨÐ¸ Ð¸
Ġfreg it
Ġexord ium
ĠLup us
ĠTul liae
åĽ ½
Ġrequis itus
ĠQuaest io
ĠGalilae am
prehens ibilia
Ġexequ iae
ĠMeli or
Ġincont entae
Ġsuperfl uum
Ġmerid ionali
Ġeici endum
Ġnup sit
Ġves pere
Ġcomplac ui
ĠLater ensis
ĠPhry g
ĠâĪ Ļ
ĠMesopotam iam
Mort ui
Serv i
ĠVerb o
Ġreminisc or
Ġausc ulta
Ġnund inae
ĠCyr us
ĠQuoc irca
Ġatram ento
Ġlabefac tare
ĠProd est
ĠCalend ario
à¥ ĭ
Ġinnit itur
ĠAra uris
ĠSurg e
ĠExpect oque
Ġperdidic eriti
Ġretex ueris
Ġdulced inem
Oper a
pret atio
Ġadprop inqu
Ġiuriscons ultus
ĠAristox eni
Ġdigest orum
eleg anter
Ġtenebros um
ĠSamu hel
Ġ$(" #
Ġsina pis
Ġnih ili
Ġquipp iam
ĠBUC H
! '
! Â»
( "
0 3
1 10
> </
A lex
B r
B as
B Ã©
B onum
C uius
C ast
C upid
D es
D uo
D iscip
E O
E d
E os
E odem
F A
H i
I uli
I gitur
L ae
L ire
O pp
P G
P ol
P lac
P ropter
S equ
T e
T ub
T amen
W h
X III
] ;
a w
a it
a urum
c l
d ownload
f ield
h ae
i j
i aria
k on
l ep
l ad
m s
n h
n u
n isi
n ote
o e
o em
p um
r andum
s p
s crip
s burg
t emp
t iles
u endam
u hn
v as
v isse
v ÄĽ
| |
° Ø´
È Ľ
Ë Ĳ
Ð ĺ
Ð Ŀ
Ø °Ø´
Ù ĥ
à ª
à ¬
æ Ħ
æ Į
æ ķ
ç ľ
è ¦
è ¯
è ĭ
é Ĥ
é Ŀ
ĉ ĉ
Ġ ..
Ġ iturum
Ġ Ñħ
Ġ ÏĦÎ¿
ļ nor
Ġe ar
Ġe amus
Ġe atenus
qu ick
um e
um bit
Ġa vi
Ġa ulae
Ġs om
Ġs erunt
it anice
us eb
in itas
Ġqu est
Ġqu erim
is io
Ġp ingu
Ġp urum
Ġp ensum
am ph
Ġc s
Ġc ena
Ġn u
Ġn anc
Ġn ationum
ae a
ae di
ae vol
st er
st on
st anc
st ema
Ġd ent
Ġd oli
Ġm ae
Ġm im
Ġm ih
Ġin b
Ġin hib
Ġin fectum
Ġin access
Ġin eleganter
ic iunt
ic ulus
ur ing
Ġv a
Ġv ap
Ġv ii
Ġv ento
Ġv illae
Ġv oto
Ġt op
Ġt ris
ut ius
ut atio
ut ioni
Ġi ret
Ġi rent
Ġf ist
Ġf ata
Ġf ram
Ġf rem
Ġf icus
Ġf ores
Ġf anum
Ġf eruntur
Ġf icul
li i
en h
en ius
en ne
en nam
es um
Ġh aus
et er
ar im
ar int
ar dum
an ov
an icae
an ea
id ibus
id ens
id itatem
ec e
ec erim
ul aria
ent iorem
Ġpr and
Ġpr act
Ġpr ioris
ia h
ib a
ib ia
ol em
un n
un it
Ġad qu
Ġad de
ed em
ed es
ed ita
oc o
oc hi
Ġre stant
Ġl an
Ġl ana
Ġquod si
ac is
ac ius
Ġut ere
Ġut ens
Ġut ram
Ġut erentur
Ġut ebantur
Ġut emur
Ġquae nam
ion a
ere unt
il aus
op ad
ant iqu
Ġsu ffectus
ĠE mp
ĠI is
ĠI ob
ĠA L
ĠA us
Ġex ult
Ġex quis
Ġex sequi
ĠS ur
ĠS ant
ĠS irm
ĠS crip
ĠC O
ĠC ret
ĠC up
ĠC ann
ĠC ON
Ġan hel
ag en
ĠD A
ĠD at
ĠD im
Ġdi oc
Ġme g
Ġqui es
Ġqui eta
Ġdic enti
est iae
end unt
Ġali m
Ġali menta
Qu os
Ġper re
Ġprae erat
Ġprae nunt
Ġb c
Ġb ro
Ġb racch
itur ae
ist e
ist s
ĠP H
ĠP S
ĠP i
ĠP ra
ĠP ob
ĠP erc
ra xerunt
ob ile
ĠQu ote
Ġsed ebunt
Ġg a
Ġg n
Ġg ood
Ġg eograph
Ġco unt
Ġco limus
ĠN ota
ĠN orth
ir am
ir or
ens que
Ġhab eres
Ġhab iturum
Ġhab uerint
Ġtu li
eg ner
Ġsc ivit
iv ere
ĠM ent
ĠM ov
ĠM ons
ĠM CCCC
Ġpot um
Ġpot entior
gn y
und urus
Ġ2 19
Ġ2 17
Ġcom itibus
Ġ( "
Ġetiam ne
Ġse e
Ġse io
pt us
Ġab err
Ġab usus
Ġab eced
Ġvid erer
Ġu an
Ġr os
Ġr ight
ĠL i
ĠL ith
ĠL oca
ĠL iturg
ĠL andarum
ĠL eden
ĠL incoln
Ġop tare
Ġop ifex
Ġer cisc
ell as
ĠR od
ĠR ip
ĠR he
Ġam ov
Ġam bi
ĠDe v
ĠDe pos
ĠF ul
ĠF ere
ĠF est
ĠF av
ĠF ide
ĠF all
ĠF actionis
Ġpag o
Ġpag um
Ġat ria
Ġpro ident
Ġpro lix
Ġpar ric
Ġte p
Ġte ipsum
ĠT eg
ĠT otam
Ġinc ons
Ġinc ensa
Ġaliqu ip
Ġvol entes
Ġvol ebant
Ġvol uerint
Ġcons ect
Ġcons ulis
Ġcons uerunt
Ġcons olid
Ġim itatio
ĠV es
ĠV as
ĠV ig
ĠV erc
ĠV asc
ĠV ER
Ġma ii
Ġsol iti
Ġsol utio
Ġun icus
Ġun ivoce
ĠG ar
ĠG ro
ĠG ris
ĠG oth
ĠG nae
ĠB i
ĠB ut
ĠB aet
ĠB ÅĻ
ust rum
Ġint ulit
Ġint uitus
Ġprop ior
Ġprop ero
Ġprop erant
Ġprop itium
Ġcont ulerunt
Ġcomm issis
âĢ į
ig ur
Ġfili arum
Ġor di
Ġor atorum
Ġres pici
Ġlib ellis
Ġsec urus
Ġsic que
inc ia
Ġpat ebit
int h
Ġst ric
Ġst olis
Ġanim antia
ro e
Ġ3 10
Ġ3 20
ran ea
de us
Ġcre at
Ġcre ari
Ġmin imis
ate or
ient iarum
Ġcor ne
uli er
uli ae
Ġleg erunt
Ġleg entibus
Ġfec eras
ĠIn noc
Ġven alem
Ġven iendum
Ġ19 31
ĠO lisip
Ġant i
Ġloc os
ator ium
ire ct
Ġsp iss
Ġsp ars
Ġsp atii
Ġus itata
Ġnum en
Ġsub ici
Ġsub acta
Ġsub stanc
Ġaud iatur
Ġob d
Ġprim itiae
esc at
ĠSed i
Ġimp ium
Ġimp ugn
Ġimp ressa
Ġimp raes
Ġquibus libet
Ġdu e
ad io
ĠAn n
ĠAn ni
Ġnatur arum
Ġdeb uerit
Ġdeb ebam
Ġdeb ebatur
Ġdeb itor
Ġdeb ebitur
Ġag e
Ġag erem
Ġag entis
Ġag ebatur
Ġag ros
Ġgen u
Ġgen eri
Ġgen itum
Ġgen ui
Ġgen imine
pon ius
aud i
Ġac uta
Ġvoc i
Ġvoc avi
Ġvoc abitur
Ġvoc abuli
Ġput abis
Ġurb anis
Ġpec orum
Ġtr am
Ġtr iduum
Ġcog antur
Ġrerum que
Ġcur is
Ġcur em
Ġcur ios
Ġsuper at
Ġsuper iora
Ġrem is
Ġrem ove
ĠÂ Ĺ
Ġcap iuntur
Ġhis p
Ġ18 3
Ġ18 19
Ġexp ecto
Ġexp ressa
Ġexp ressum
Ġiudic andum
Ġciv ilem
Ġamic ti
Ġdiv isi
Ġdiv ortium
Ġiur atum
Ġiur andum
Ġiur amentum
Ġrep res
Ġrep rehendi
Ġrep entina
ali m
ug no
Ġdec ursus
Ġas pexit
sequ atur
Ġdes erat
Ġcogn ito
ĠFranc is
ĠFranc icam
Ġsent iamus
Ġconc epta
Ġconc urrent
Ġserv itio
Ġserv avi
ont a
Ġeos que
Ġrec on
Ġgrat us
Ġscrib a
Ġact orum
Ġact uum
Ġusque quo
Ġdel ub
Ġdel atum
Ġdel ici
Ġdel inqu
Ġdel ectare
ĠCh in
ĠCh iliae
ĠÐ ĳ
ĠÐ ł
Ġpublic anis
Ġinv isit
Ġinv ictus
Ġinv ectio
iet as
Ġinf antibus
Ġviv e
Ġviv am
Ġviv es
Ġviv entes
Ġfid enter
Ġsequ ere
Ġins er
Ġins pect
Ġins aniam
Ġten endum
Ġten emus
Ġten ue
Ġten eretur
Ġcol oris
Ġcol lum
Ġcol oni
Ġplac eo
Ġmis isse
Ġcred eret
Ġcred enda
Ġdef uisse
Ġep ic
Ġep hem
Ġsap it
Ġdoc to
Ġdoc uerunt
Ġconsequ entia
Ġprov isa
Ġexc er
Ġexc epit
Ġexc epta
Ġexc itare
Ġvis urus
Ġval ebit
Ġmolest iam
Ġneg l
Ġprob etur
Ġprob itatem
Ġprob abilis
Ġpa us
ĠLat inarum
Ġcae dem
Ġinven iretur
Ġprincip e
Ġvest rorum
Ġform ale
Ġfr actum
unct ae
Ġnesc iat
Ġquaer endi
Ġquaer entes
vers us
Ġduc i
Ġduc is
Ġduc et
Ġduc tor
ĠJ anu
Ġeg eat
Ġeg red
Ġeg issent
Ġeg omet
Ġsanct issimo
Ġund ec
Ġext ant
Ġnecess itudinem
Ġtest atur
iti Ã¦
Ġabs entis
Ġintelleg amus
Ġsatis d
ĠAd v
10 7
Ġexerc itio
Ġexerc itium
ĠEccles iis
ĠEccles iarum
Ġvic ta
Ġvic imus
Ġvic ini
Ġmut atus
ĠMar d
ĠMar ius
Ġit s
Ġhum um
Ġhum ilis
Ġhum ilitate
Ġcognosc e
Ġcognosc unt
Ġcognosc ite
Ġreliqu isset
Ġ17 1
Ġ17 8
Ġ17 05
ĠEx onae
Ġ15 1
Ġtra i
Ġord ini
Ġaed ilibus
Ġappell abatur
Ġpet itis
Ġpet iit
Ġind utiae
Ġstud ent
ĠĠĠĠĠĠĠĠ ĠĠĠĠĠĠĠ
Ð¸ ÑĢ
Ġw ww
act u
Ġsen escit
Ġlong itudo
ĠCum undurus
Ġtui que
str ing
Ġconstit it
Ġibi que
Ġglor iatur
ĠCae lium
Ġtant arum
Ġtant opere
Ġintellig entiam
Ġintellig entiis
Ġmens us
iant es
Ġem ori
rah ere
enta libus
Ġpul vis
Ġpraedic tum
Ġpraedic atio
Ġpraedic ationem
Ġmuli erc
Ġpecc ator
Ġaccus atoribus
Ġlat ae
Ġlat ius
Ġlat inum
ãģ ı
Ġspec ul
Ġspec ulat
Ġspec iebus
Ġ16 7
Ġtrans ig
Ġtrans mis
ĠMa ior
Ġsignific ent
Ġadm ittere
Ġsoc ial
ĠAb bat
ĠAb ba
ĠPat av
ĠPat res
ĠOmn i
ĠOmn em
Ġrect o
Ġpon s
Ġaequ itatis
ĠK olos
ĠK osoviae
ĠK vÄĽ
lo yd
Ġsimul atione
Ġtim orem
Ġtim ide
Ġtim eatur
Ġaedific abitis
ĠGerman ice
ĠSic uli
Ġquant itatis
ĠIo atham
Ġepiscop is
crip to
ev erunt
Ġdiff erat
Ġdist incta
ider ant
Ġcontin ere
Ġult imam
13 5
Ġconven iret
Ġsing ulus
Ġpor rig
Ġperfect o
Ġquaest ores
Ġadd et
one y
Ġeffic iam
ĠPl ut
Ġunivers am
Ġfer rum
Ġfer amus
Ġfer enda
Ġpac ifice
Ġantiqu issima
Ġadvers aria
Ġadvers ario
ĠTh ars
Ġtrad o
Ġtrad id
Ġbeat itudinem
15 3
Ġmir ific
Ġmir abuntur
Ġmir abili
Ġmir acula
Ġmir abiliter
Ġmon ere
Ġmon uit
ach i
ach us
Ġgrav itas
Ġmand are
Ġmand ati
Ġed itum
Ġed untur
Ġed uxerunt
Ġlic ent
Ġrespond emus
Ġaetern ae
Ġsecund is
Ġart iculum
Ġarbit rii
ĠÃ ®
ĠÃ ļnor
Ġinstit ut
Ġreprehend at
Ġspir itibus
Ġredd unt
Ġredd atur
Ġredd ita
Ġprof eruntur
Ġfin itas
.... .....
Ġgaud eat
Ġprofect ae
uetud ine
Ġcal end
ĠAli is
Ġlabor ant
Ġclar itatis
Ġclar issimum
Ġclar issimi
Ġlect ione
ĠZ elph
eh em
Ġprom ulg
Ġprom issa
ĠSc iebat
ĠSc ientiam
ĠSc yth
Ġdict atura
Ġerr oris
Ġcop iose
Ġatt igit
ĠAegypt ios
ãĥ ĩ
Ġsept aginta
aus e
Ġ20 6
Ġexistim atione
Ġexistim avi
Ġdei ectum
Ġav us
Ġhost ili
ros oft
Ġsimil itudine
Ġmagist ros
Ġsalut at
Ġeff ecerit
ĠCar m
Ġon era
Ġreper ies
Ġreper tae
Ġ22 0
Ġsper ant
Ġy mag
Ġindic ant
Ġhonest atem
Ġproxim os
Ġcong ress
Ġcong ressus
ĠPer g
Ġaccid erunt
Ġaccid eret
Ġmeli oris
Ġ23 0
Ġ23 7
ĠCat ulo
Ġcupid itatis
Ġcupid itatibus
Ġport u
Ġport is
Ġport ae
Ġmitt itur
ĠAs sumenda
Ġ24 5
Ġscript uram
Ġdisput o
Ġdisput ationis
Ġarbitr arer
Ġdefin ire
Ġpropos uit
Ġpropos itionis
Ġpropos itiones
Ã¡ c
Ġterr ibilia
ĠAug usta
ĠLib enter
Ġaff ecta
ĠSpir itui
Ġmar m
Ġaug et
Ġaug mentum
Ġimag inis
Ġnav e
Ġnav icula
Ġoff ert
Ġinterrog atus
Ġinterrog abant
Ġsuas it
Ġ28 1
Ġconiunct is
Ġconiunct ionis
Ġads c
Ġcast ellum
ĠVol c
ĠNum idiae
Ġdivis um
Ġdim idio
Ġexspect andum
Ġhered e
Ġcompos iti
Ġass ert
Ġass imil
âĢ¦ )
Ġrelig iosi
Ġ30 4
Ġ30 6
Ġ30 7
Ġ30 9
Ġperf ugium
Ġperven iant
Ġadhib enda
ĠIacob o
Ġsubstantia le
elli um
ĠPar oec
Ġorient e
Ġarch aeolog
Ñĥ ÑĪ
Ġtut ius
Ġsch is
Ġordin arius
Ġla ici
ĠIp si
Ġpossid es
Ġpossid ebat
Ġpret ia
Ġpret ios
Ġ29 2
Ġcompar atum
Ġcens us
Ġcens uit
Ġcens entur
Ġrel ata
Ġarc em
Ġcunct os
Ġasper a
Ġpass word
Ġcustod imus
ĠThe olog
Ġnonn isi
Ġinvent u
Ġquaes iv
Ġturp itudinis
fac tus
Ġvinc unt
Ġmer eri
Ġcreatur as
ÃŃ jen
Ġprophet iae
Ġconting unt
Ġlaet itiae
Ġgl oss
ĠVen etiae
Ġargum entis
ĠDol oribus
Ġaudire nt
ĠUrb e
ĠUrb em
Ġvac uitatem
Ġgener al
amp s
Ġcapt i
Ġsalv ator
Ġsalv avit
ĠIoseph um
Ġpraesid ia
Ġpraesid ens
Ġconced as
Ġconced imus
Ġcrim inibus
ĠCl odi
ĠCl ass
ĠÎ ´
Ġvul nus
ãĢ ī
Ġrestit uta
Ġrestit utus
ĠLuc ret
Ġecclesiast icarum
Ġecclesiast icas
Ġpert im
Ġjust itia
Ġtac ite
ĠFac io
Ġangel os
Ġpere undum
Ġcomed ere
Ġcomed eres
Ġconsec rata
Ġsacerd ote
ĠEpiscop is
eatur es
Ġir ration
Ġcorrupt ionem
Ġsempiter nae
201 6
Ex erc
à´ ²
à´ ³
Ġacced ent
Ġeleg antia
Ġfest i
ĠRes publica
Ġgenerat im
Ġquad rata
Ġ36 3
Ġconsol atus
Ġindig enae
Ġcib aria
ĠSim onis
Ġspect aculum
Ġclam ore
Ġoperat i
Ġconsider anda
ĠAtt amen
Ġrelic ti
Ġfacies que
Ġsolv eret
Ġpolit icae
Ġpolit ica
Ġconvers um
Ġapostol um
Ġpossib ilis
Ġconcess eris
ĠSto icos
Ġori undus
ĠEs perant
ĠCol is
Ġillae que
ĠRe ipublicae
Ġobl ationem
Ġobl ationes
Ġrepet it
Ġiucund itas
Ġimperator iae
Ġrevert ere
ĠAcc ip
ĠGen er
Ġobi ecti
our s
Ġsil va
Ġcult orem
Ġhor rea
Ġprohib etur
Ġiuv entus
Ġtotius que
Ġdemonst ratum
ĠPers as
ĠLe vit
Ġlegit imus
ä¸ į
Ġ37 0
Ġschol ast
Ġedit io
Ġrecord ari
Ġmunicip io
Ġconp ens
Ġsumpt is
Ġsumpt ibus
Ġov is
ĠVal erius
Ġtract atu
Ġtribun o
Ġconclus ione
Ġur atur
Ġz u
Ġaccept urus
Ġcondit ionibus
ĠMult as
ĠAlp es
Ġ38 8
Ġexig uo
Ġpercip it
Ġimped ire
ĠInfer iorem
ĠXX V
Ġdecre vimus
ĠIst am
ĠIst uc
ĠNo Ã«
Ġinqu iren
ĠQuint e
Ġartific ium
Ġinterpret atur
Ġinterpret etur
Ġagnosc itur
Ġcern i
Ġmerit i
Ġmerit us
Ġveni endo
Ġ187 5
ĠVerum tamen
Ġquaereb ant
Ġcolleg io
pl ures
ĠSequ enti
Ġdiscess um
Ġquoc unque
Ġdissim iles
ĠIust us
ĠIust itiae
ĠMet rop
Ġ48 0
Ġoccid isti
Ġdeclar ata
Ar g
Ar rotundimentum
Ġabund at
Ġaccess io
Ġimprob i
Ġimprob um
Ġimprob os
Ġfing as
Ġâ ĸ
Ġventur am
Ġventur ae
Ġoccurr ere
Ġtrist itiae
Ġpraeced enti
Ġdetermin atur
Ġdetermin are
Ġhosp ites
Ġinuen it
Ġdivid endo
ĠMarc ell
ĠMarc elli
Ġuolunt atis
arch us
Ġintr oduct
Ġexcell entiam
Ġdilect ione
86 6
Ġpollic entur
ĠFort una
Ġcathol icus
Ġadven iens
ĠAlexand riam
Ġquer atur
Ġador avit
Ġador abunt
ĠAlb um
Ġdefic iunt
Ġpropon it
Iac op
Ġvindic andum
Ġlign eum
ĠOctob er
sec undum
Ġinsign i
Ġinsign es
Ġvulg us
ĠEv el
Ġerud itum
Ġconfus i
Ġnegleg entia
ĠMaxim a
Ġconcupisc entia
Ġhodiern us
Ġnef aria
Ġoeconom ia
Ġoeconom icae
Ġpraecl ari
ĠLatin orum
Ġdidic erim
Ġinm ut
Ġpraepar atio
Ġcommemor ationem
Ġconfit emur
Ġpraeclar ius
Ġfrig idum
Ġtradit ione
Ġvad o
Ġuerb orum
ĠIoh annis
Ġnut u
Ġnig er
ĠMol d
ĠLab ienus
Ġincred ibili
Ġservit utes
ĠSex tus
Ġcler icis
Ġcler icos
ĠApostol orum
Ġtene am
Ġnequit iae
Ġinduc itur
Ã´ n
Ġpasc uae
ĠOp pi
Ġrap uerunt
Ġsuffrag iis
Ġexst incta
Ġmatrim onii
Ġvan itatis
Ġreduc i
Ġeae dem
Ġspon sum
Ġcollig i
Ġdescend ens
ĠTheod orus
Ġdulc ius
Ġaccipi endo
Ġfelic itatem
ĠBe atum
Ġcontent ionem
Ġcontent iones
Ġcommunic ant
ĠÐº Ð¾Ð¼
Ð¾Ð² Ð°Ð½
Ġadministrat io
ĠHen rico
Ġconiung ere
Ġconiung untur
ĠPlac et
Ġcaec itas
ĠAene ae
esper asc
Ġgrammat icam
Ġger endi
Ġillumin are
Ġprocur atore
ĠPlat oni
Ġnarrat io
Ġmultiplic atur
Ġinsid iantem
Ġignosc e
Ġignosc o
Ġtemper antia
ä» ¥
Ġplan ius
Ġplant atum
ĠConf ecta
Ġthes auros
Ġcrudel itas
dom us
Ġdemonstr andum
Ġmyst erio
Ġumb ram
Ġfrum ento
ĠLae lio
ĠAntioc ho
ĠAnglic us
ĠConc ilii
Ġcalam itatis
Ġcalam itatum
Ġaffic i
Ġiunct ae
Ġsplend orem
Ġpulcherrim um
Ġcod ice
ĠLu k
Ġcomment arios
Ġdefens ionis
Ġtrah ere
Ġferm e
Ġru inas
Ġfornic atae
Ġantepon at
Ġrede unt
sel f
Ġrid ens
Ġuxoris que
Ġindivid uum
Ġindivid uis
Ġconsiderat ionem
Ġintent ione
Ġcanon icam
Ġsect am
Ġsect abantur
ĠIap oniae
Ġexaud ias
Ġconfess ione
Ġcelebr abitur
Ġdevor avit
Ġeb ur
Ġeb riet
ĠMil onis
ĠMil ites
ĠInde x
Ġterm inum
ĠUnivers a
á¿ ¦
Ġheb rae
Ġcompon endo
Ġsupp edit
ĠHier oboam
Ġpup illum
Ġconfer endum
ĠArg ob
Ġglori atus
Ġtyran nus
Prim a
Ġimit ari
Ġdecess isse
Ġnorm a
Ġinnumer abilis
Ġpersequ itur
Ġpersequ eris
Ġgraec a
Ġcoeper at
ĠMon ast
Ġual et
Ġtermin atur
ĠCa er
ĠCa iet
Ġornam entum
Ġcorpor alis
Ġcorpor alia
ez en
Ġced rinam
ĠNaz istae
ĠUr gent
Ġindustr iae
Ġpunct is
Ġinan ima
Ġaspic ere
ous e
ĠSap ientia
Ġuirtut is
Ġuirtut em
Ġtel um
Ġiung untur
ĠClaud ii
åĪ ĩ
Ġvect es
Ġrust icorum
Ġconscrip ta
Ġplor at
Ġinterfect is
Ġconclud itur
Ġexcog itasse
Ġsuad ere
ĠFlor entiae
Ġcarm inibus
ĠExerc i
ĠPlanc i
Ġmedit ari
Ġoffend itur
Ġtul isse
ĠLam ech
ĠTri arium
Ġremitt unt
Ġobsc urum
ĠEli as
Ġsuppon it
Ġresurrect ionis
Ġrhet orum
Ġincend ium
Ġ140 4
Ġhiem s
variant s
Ġchar itas
Ġchar acter
Ġseptentr ionali
Ġincommut abilem
Ġelev ati
Ġflagit iose
Sal ve
eff erson
æĪ ĸ
æĸ ĩ
Ġbo ok
ĠMD CCCC
ĠHomin em
ĠPeripatet ici
Il lum
Th is
Ġvendit ione
Ġconsoc iata
Ġlibid ini
Ġstir pis
Dol orem
Ġdere liquit
Ġmix tio
Ġtor que
ĠTib erius
Ġdup lo
Ġtrip lex
Ġremed ia
Ġadiut or
Ġiurisdict ionis
Ġbrach ia
uter onom
Ġherb is
Ġsublim itas
ĠSalom onis
Ġpus illum
ott ing
Ġdeclina verunt
Ġconiur ationem
Ġmasc ulum
Ġbenedixit que
Ġgratul or
ĠMartin us
Ġcontrist atur
Ġdiffin itionem
Ġeuen iunt
Ġliturg ici
ĠIon adab
ĠMath at
Ġsei uncta
Ġobj ectum
Ġobsequ ium
Ġdecip it
Ïī Î½
Ġgent iles
ĠRosc ius
Ġsuade as
Ġdiscipl inis
Ġfidelium ve
htt p
Ġintegr itate
ĠMichae lis
Ġgeomet ria
Ġcoop erantur
Ġpostr emus
Ġclav es
Ġmedicam enta
Ġfluct u
Ġattul eris
ĠMercur ium
à· Ĭ
ĠDub en
Ġbu y
Ġcoaeter na
ĠBrix iae
Ġmilli ones
Ġpericulos a
ĠCapit ol
ĠArchid ioeces
ĠNapole one
Ġpoc ulum
Ġnas um
Ġinert iae
Ġrost ra
Ġstet it
Ġá½ ģ
Om ne
Ġadquir itur
alog us
ĠNim irum
ĠBat av
ĠOper a
En im
word s
Ġnoll et
Ġmax illis
Ġtrit icum
ĠTrin itate
Ġmai estatis
Ġinterval lo
Ġsemit onium
Ġkal endas
Ġascens ura
ĠLaod iciae
Es se
len gth
Ġtorm entum
Ġexha ur
Ġabys so
Ġconsurg ens
Ġspha era
ĠQuaes ita
ĠCler icus
ĠArchiepiscop us
ĠBrunsv ici
åĮ º
ĠSeg or
Ġabdic avit
Ġrecurr ant
Ġlacess itus
Ð°Ð¹ ÑĤ
Ġfideicomm issum
ĠParisi orum
???????? ????????
Ġprouinc iae
Ġvov erit
Ġauth ent
ĠPisc atoris
ĠLo ide
ĠAmic itiam
Ġfestiv iorem
ĠBy zant
ĠÄĮerven ec
ĠCed ar
ĠMic rosoft
ĠHo egner
Ġlatron es
Ġthron o
ĠfÅĵ dus
ĠSallust ius
ĠLux emb
Ġextr erno
Ġferr iv
ĠIde oque
ĠSul picius
ĠTry get
ĠSucc essor
Ġcalciam entis
Ġsynagog a
Homin es
ĠDist inctio
Ġmad uras
escrip tion
Ġke ep
Ġmercenn arii
Ġpercut iam
ĠElisab eth
ĠThemist oc
Ġincur v
Ġepul arer
ãĤ¦ ãĥł
ĠObs erv
Ga ius
Ġoccurre bat
ĠAmp lius
Ġeph ipp
Ġflet u
ĠéĿĴ ç´Ļéĭ¼
ĠEun ice
Ġconflat ilem
Ġindoc tum
ĠPortug al
á¿Ĩ ÏĤ
Ġadimple o
ĠElector alem
Luneburg ensem
famili as
ç½ ĳ
usin ess
Ġadip isicing
ĠLuneburg ensis
Ġamar itudine
ĠCarth agin
ĠÅĺ ÃŃjen
Ġselected Product
Ġpellibus que
ĠÚ¯ Ø°Ø´
Hen ricus
Ioseph us
åŁ İ
Ġinlic itum
ĠSr pen
ĠList opad
Ġcapill oque
Ġarbitram ur
ĠZÃ¡ ÅĻÃŃ
Ġdeprehens us
ĠSyme on
Ġercisc undae
ĠBÅĻ ezen
ĠKvÄĽ ten
ĠÚ¯Ø°Ø´ ØªÙĩ
! âĢĿ.
' ?
) {
+ +
, ..
/ .
1 01
? ",
A V
A ll
B ulg
C ui
C oll
C red
D et
D el
D acoroman
E G
E l
E m
E lement
F am
F ort
F usce
G ame
H ae
H uius
H anc
I B
I M
I mp
J hn
L o
L ab
M o
M od
M arc
N ot
N ote
N atura
P ellentesque
R ed
R ev
S u
S int
S crip
T am
V et
V os
V ill
] )
a j
a ux
b ut
b unt
b amus
b ack
b oro
b arz
c m
c y
c am
c oni
d ec
d al
d ay
e an
f en
f aliae
f ree
h is
h ler
i ed
k el
m ir
m undus
n ac
n emo
o is
o ff
p as
p ub
r ere
r alis
s z
s per
s erit
s isse
s aces
t re
t os
t itor
u istis
v in
v ia
v erint
x issent
y se
y les
y lus
z on
z ed
z are
ª ãĥĸ
¸ ãĤ¦ãĥł
Å ĳ
Ì Ĩ
Ð ĳ
Ð ĵ
Ð ļ
Ñ Ĭ
Ó ©
á ¼
å §
å ī
å ĳ
æ º
è ª
è ¾
é ĥ
é Ĺ
Ġ ^
Ġ omin
Ġ Ñĩ
Ġ à¤
Ġ ÏĨ
Ġe ra
Ġe undum
Ġe lid
Ġe recta
qu in
qu ibus
um um
Ġa ri
Ġs qu
Ġs agin
Ġs arc
Ġs entiant
it ta
us sit
in ec
in ata
in ario
Ġqu or
Ġqu onam
is o
Ġp od
Ġp lic
Ġp uro
Ġp ila
Ġp abulum
Ġp inxit
am um
am ar
on orum
Ġc b
Ġc y
Ġc er
Ġc ass
Ġc rast
Ġn et
Ġn atio
Ġn iti
Ġn edum
Ġd b
Ġd os
Ġd amus
Ġd entibus
Ġm m
Ġm Ã¡s
or os
or ld
Ġin ique
Ġin num
Ġin ania
ic les
ic ii
ic Ã¦
ur t
ur ea
Ġv om
Ġt utus
Ġt itium
Ġet h
ut orium
re ad
re tor
re stem
Ġf ol
Ġf ust
Ġf eris
Ġf oli
Ġf aut
Ġest a
es us
im onium
im br
Ġh ard
Ġh ow
Ġh tt
et z
et ric
ar rae
an ima
an ensis
id era
id elis
ec om
ec isse
ul f
ul sit
ul sa
ent ionem
Ġpr id
Ġpr ag
ib ilibus
ol et
ol les
Ġad gn
Ġad dic
Ġad sumus
Ġad fectum
Ġad numer
Ġad inv
oc i
Ġre tor
Ġre lev
Ġl u
Ġl am
Ġl itt
Ġl ente
se at
ud a
ab ilitatis
Ġut etur
el t
el liae
Ġquae ve
Ġquae vis
Ġes paÃ±
il um
il it
ot oc
op ag
al li
ĠE cc
ĠE ffic
Ġcon atum
Ġcon di
ĠI C
ĠI ucundum
ĠA u
ĠA le
ĠA urum
ĠA eque
ĠA udi
ĠA elius
ĠA uctor
Ġex empt
Ġex amini
Ġex ierit
ĠS ion
ĠS and
ĠS ert
ĠS uo
ĠS te
ĠS ard
ĠS ortes
ĠC P
ĠC u
ĠC ust
ĠC inc
ĠC ord
ĠC lem
Ġan cip
Ġan glice
ĠD io
ĠD ip
ĠD ate
ĠD ici
ĠD icam
ĠD iab
Ġdi uis
Ġme ipso
Ġqui eti
Ġdic ione
Ġdic atis
Ġdic etis
est ius
ih el
Qu aec
Ġper a
Ġper cur
Ġper ivit
Ġper acta
Ġfac ilia
Ġfac ilem
Ġfac ete
Ġfac ilitate
Ġb ed
Ġb lack
ĠP unt
ĠP ann
ĠP oll
ĠP anam
ĠP lease
atur abilia
ob e
ob ar
ect an
ect ion
ect ionem
ĠQu inti
ĠQu attuor
Ġsed ent
Ġsed itionem
omin g
per unt
Ġg et
Ġg enti
Ġg eh
Ġg rec
no vit
Ġen ar
Ġco al
Ġco acta
ĠN i
ĠN in
ĠN ord
ĠN ationalis
ĠN epos
Ġhab erentur
Ġhab uimus
Ġpos itae
Ġpos uisset
uit que
Ġsc op
Ġsc ita
Ġsc orp
uc und
uc ti
ĠM ae
ĠM id
ĠM eg
ĠM are
ĠM AR
ĠM unicipia
ĠM obile
Ġpot entem
Ġpot ueris
aec at
Ġ2 11
Ġcom item
Ġ( '
Ġap es
Ġap tavit
Ġse a
Ġse orsum
Ġse quest
Ġab rip
Ġab ierunt
Ġab alien
Ġvel itis
Ġu h
Ġu inc
Ġu idit
Ġu indic
go viae
Ġr h
Ġr iv
Ġr arum
Ġr ivum
Ġop ertum
ĠH av
ĠH odi
ĠH oll
ĠH all
ĠH age
Ġid e
Ġid on
ell at
Ġne ptis
ĠR ic
ĠR en
ĠR et
ĠR atis
Ġam emus
Ġam entem
Ġam abo
Ġam issio
ĠDe orum
ĠDe lig
ĠF er
ĠF it
ĠF re
ĠF iat
ĠF red
ĠF rib
ĠF oro
emp ta
Ġat rio
Ġpar iunt
Ġpar ies
Ġpar abiles
ĠT or
ĠT om
ĠT el
ĠT ok
ĠT iro
Ġinc urr
Ġinc urrit
Ġinc erti
Ġinc erto
Ġinc umbit
Ġcu ivis
Ġaliqu atenus
Ġvol emus
Ġcons ortium
Ġnec avit
Ġqua ere
Ġqua propter
lib er
ior que
ess io
Ġsol eant
Ġsol utionem
Ġun s
Ġun icam
Ġtemp ori
ing er
ĠG entes
ĠG ubern
ĠB itur
ĠB ow
ĠB remae
ĠB revi
ust is
Ġint emper
Ġcomm isit
Ġmod orum
âĢ ĭ
ov icus
ig e
ig rationem
Ġfili abus
Ġinter pos
ĠEt h
ĠEt rusc
Ġres ol
Ġlib eretur
Ġlib rari
Ġsec reta
inc itur
Ġpat ent
Ġpat eris
fect o
Ġreg iae
atum que
Ġst abile
Ġ3 22
Ġ3 28
Ġ3 29
Ġ3 27
de am
Ġmin uit
Ġmin uere
Ġmin uitur
Ġar mon
Ġcor io
Ġleg atio
Ġfec istis
ĠIn do
Ġven erint
Ġven erant
Ġven issem
Ġven isses
ers i
Ġ19 1
ap se
Ġloc utiones
Ġdol ens
Ġdol endum
Ġnum mis
Ġincol atus
Ġser m
Ġsub it
Ġsub tem
Ġpost eri
Ġaud itu
Ġaud issent
Ġaud eas
Ġaud eam
Ġmult itudini
ific i
ific at
Ġob ire
Ġob ici
Ġman es
Ġman erent
Ġ" .
ĠSed em
Ġimp ar
Ġimp un
Ġimp lor
Ġimp rop
Ġimp ulsu
Ġdu Ã¦
ad or
ad dit
ad elph
Ġsim onia
ĠAn im
ĠAn imum
iat ionem
Ġdeb ebunt
Ġag itat
Ġag endo
Ġag ente
Ġag rorum
pon o
Ġnull atenus
Ġ4 00
Ġ4 01
Ġac r
Ġac riter
Ġpraes idi
Ġpraes cit
Ġvit i
Ġvit etur
Ġvoc etur
Ġvoc ales
ch us
ch is
ch en
Ġput ent
Ġput ares
Ġurb an
Ġtr ices
Ġcog untur
entur um
Ġcur ata
Ġcur ator
Ġcur ric
Ġcur asset
Ġsuper atus
ern ae
ĠÂ Ń
Ġcap iti
Ġcap ax
Ġ18 4
Ġ18 23
Ġ18 30
Ġ18 29
Ġ18 33
Ġ18 37
Ġ18 43
Ġexp le
Ġexp resse
Ġmal os
Ġmal uit
Ġiudic ati
Ġiudic avit
Ġiudic abis
Ġei ectus
Ġciv ilia
Ġamic issime
Ġamic issimus
Ġdiv item
Ġiur atus
Ġiur averunt
Ġdisc am
Ġdisc edit
Ġdisc endo
Ġrep rom
Ġrep ugno
Ġnomin ari
Ġnomin atum
Ġnomin amus
itud inibus
ug ae
ĠSi quidem
Ġdec er
Ġsua deo
Ġas otos
Ġded issem
Ġdes um
Ġdes pon
Ġdes inis
Ġdes ino
Ġdes pici
Ġcogn ata
Ġcogn ationem
ĠFranc of
ĠFranc ogal
Ġsent iri
Ġserv at
Ġserv iebat
Ġserv ientem
Ġomnis que
Ġrec edit
Ġrec epta
Ġrec olo
Ġmol li
Ġlit is
Ġlit ium
Ġgrat ae
Ġscrib ebat
Ġscrib ebam
Ġsemper que
Ġconf ert
Ġconf idunt
Ġconf essus
Ġconf lixit
Ġdel ine
Ġdel ata
ĠCh a
ĠCh am
ĠCh ir
Ġinv itavit
Ġiust issimum
Ġiust itias
Ġinf eriore
ret is
Ġnot ius
Ġnot issimum
Ġcl usum
he i
ĠAm bit
ĠCom mod
Ġcar is
Ġcar issimus
Ġsign i
Ġins it
Ġins im
Ġins pic
Ġins pex
Ġins aturabilia
Ġten eret
Ġten ebatur
Ġcol untur
Ġcol oniam
Ġcol enda
Ġcol uisti
Ġplac uerat
Ġmis ere
Ġpers aepe
Ġpers olv
Ġcred eretur
Ġmat ut
Ġlab itur
Ġlab ef
Ġpraeter ii
Ġpraeter ierunt
Ġdef endo
Ġnov erca
Ġsap iebam
Ġsap ien
ura stis
Ġdoc ebis
Ġval emus
Ġneg atur
Ġneg abat
Ġrespon deo
Ġprob et
Ġprob amus
Ġprob abiliter
Ġpa ulus
Ġpa ulis
Ð° Ñı
Ġred actus
Ġprincip i
Ġvest itum
Ġvest iuntur
Ġ8 00
Ġ8 59
Ġform e
Ġform ata
Ġsumm itatem
Ġfr uit
Ġfug iens
Ð¾ Ðµ
Ð¾ ÑģÑĤ
Ð¾ Ñĩ
Ġj un
Ġj ud
Ġj ucund
Ġnesc is
Ġquaer ant
Ġquaer emus
Ġquaer endus
ue f
Ġduc as
Ġduc eret
Ġduc amus
Ġduc entis
Ġduc ebant
Ġtum ultum
ill er
Ġeg imus
Ġsanct itatis
Ġimper fecta
Ġdilig entibus
Ġext ingu
Ġing ens
Ġing entes
ĠPr iv
ĠPr ior
iscop us
ĠChr on
Ġsus pect
Ġabs entia
Ġabs enti
Ġdign issimum
Ġsatis ne
ĠAd de
Ġvic erunt
Ġvic inis
Ġsens i
Ġmut um
ĠMar ion
Ġhon ori
Ġcogit abat
Ġaccip eret
Ġreliqu iis
Ġ17 25
Ġign ob
Ġign arus
Ġmed iis
Ġappell ationem
Ġpet itum
Ġpet endi
Ġpet ite
Ġind oles
Ġstud ii
Ð¸ ÑģÑĤ
Ð¸ ÐºÐ¸
Ġsup ponere
Ġw indow
Ġlaud anda
Ġlaud abilis
Ġ13 70
Ġsen um
ĠUt ilitatis
ĠCon d
str ibus
Ġstat uere
Ġconstit uisti
Ġproc ulus
ĠUn iti
Ġintellig ibiles
Ġmens urae
asc onice
ĠFoed us
Ġem b
Ġem i
Ġem p
Ġecclesia lis
Ġmun erum
Ġmun itissimus
Ġmil itis
Ġmil itavit
Ġfact u
Ġfact uri
Ġfact ionum
Ġsac ros
Ġsac co
ĠSan guis
ĠIud ex
Ġpraedic tam
ĠBr and
ĠBr itt
Ġpecc atoribus
Ġpo em
Ġpo etis
Ġaccus em
Ġaccus ari
Ġaccus atione
Ġaccus avitque
ãģ Ĩ
Ġ16 3
Ġtrans mitt
lin ae
Ġsignific ata
Ġfal lor
Ġfal cid
Ġimm itt
Ġliber are
Ġliber aret
Ġcup ivit
Ġoper as
Ġoper antur
Ġoper arius
Ġrect ius
Ġaequ as
Ġaequ ivoce
Ġoppid orum
lo go
Ġtim uit
Ġtim uerunt
Ġaedific io
Ġaedific aretur
Ġaedific astis
ĠGerman is
ĠGerman icam
Ġadi udic
Ġadi utus
Ġregn ant
Et enim
ev ens
ev ille
Ġmet hod
Ġmov eamur
Ġult ionem
Ġdet rac
Ġluc i
13 3
Ġconven iens
lar ae
Ġpraecip e
Ġpraecip uus
tr act
Ġprod erunt
Ġprod uxit
Ġperfect is
Ġperfect ius
Ġquaest us
Ġscient em
uri arum
ĠPl ane
Ġunivers ae
Ġunivers ale
Ġfer ens
ĠW al
ĠW ag
ĠW ith
ĠW ashington
ĠEr n
ĠEr it
ĠEr illus
ĠTh is
Ġtrad as
Ġtrad uc
Ġtrad eretur
Ġcond ime
Ġvet at
Ġarg ento
Ġarg uitur
ĠReg n
Ġconsul ari
Ġev oc
Ġev erter
Ġgrav iorem
Ġgrav iora
Ġgrav ioribus
ĠSp art
Ġmot i
Ġfamili is
Ġamp la
Ġrespond eri
Ġrespond ebit
Ġphilosoph ari
ĠÃ ¢
ĠÃ ¨
Ġreprehend erim
ĠAnt ea
Ġspir ita
Ġredd es
Ġredd eretur
la us
Ġch art
Ġcausam que
Ġprof ug
ĠPrae fectus
ĠId est
ĠId circo
Ġperm isit
Ġbib ens
.... ...
Ġgaud ebat
Ġpraest es
Ġdiss erere
Ġdiss entias
Ġdiss ensione
Ġlabor at
Ġlabor as
Ġlabor amus
Ġclar uit
ĠZ ama
Ġcan es
Ġprom pta
Ġessentia libus
ĠSc ilicet
ĠSc aevol
ĠSc ientiarum
Ġdict as
Ġaccep issem
Ġatt endit
Ġatt endere
Ġatt amen
Ġsept imum
Ġ20 2
Ġ20 3
Ġ20 9
ĠChristi ana
Ġdiffic ilia
Ġexistim ationem
Ġexistim ans
Ġexistim abit
Ġav ide
Ġrecip eret
Ġmagist ris
Ġdelect atur
Ġincip ient
Ġincip eret
Ġsupra dic
ĠInt erim
Ġsalut avit
Ġreper tus
Ġ22 3
Ġ22 6
Ġ22 9
Ġpauc iores
Ġsper nit
ĠSt al
ĠSt rat
Ġhonest as
Ġhonest atis
Ġhonest issime
Ġaccid isse
Ġ23 6
Ġnob ilius
Ġnob ilibus
Ġnob ilitatis
Ġquot a
ĠEp iph
ĠCat uli
Ġfur em
Ġpotentia s
Ġopin ionis
Ġport at
Ġport io
Ġport titor
Ġk h
Ġk oi
Ġsucc edit
Ġiudicium que
Ġ24 4
Ġingen ue
Ġpriv asse
hen es
Ġdisput andi
Ġdisput ationes
26 4
Ġdefin itum
ãĤ µ
Ġrev er
Ġaur ium
Ġ194 0
Ġ194 2
Ġperd ita
Ġperd iscere
Ġq c
Ġaff ert
Ġaff initatis
Ġusus fruc
Ġmar g
Ġlud io
Ġhabit am
Ġhabit ans
Ġiac ebat
Ġgest iret
Ġ25 5
Ġ25 6
Ġ25 8
Ġmiss am
Ġmiss ionem
Ġoff endi
Ġoff erre
Ġinterrog averit
Ġ28 0
Ġ28 2
Ġ28 8
ĠPa uper
Ġextra ordin
ĠAugust ini
Ġveh iculum
Ġintellect ui
ĠAc ut
ĠAc et
Ġdivis ionibus
Non ne
Ġdivers itas
Ġignor ant
Ġexspect as
Ġeven iat
Ġvers ae
Ġvers ion
ith eat
Ġrelig ioni
Ġrelig ionum
Ġsociet atibus
Ġfig urae
Ġperven imus
Ġadhib ita
Ġlum inibus
inqu itur
ĠPar t
ĠPar vi
Ġ27 2
Ġordin at
ĠIun onem
Ġiniqu os
Ġiniqu ius
Ġ29 7
Ġcompar ata
pi anus
Ġhort atus
Î¿ Î»
Ġcunct orum
Ġuol o
Ġsimplic es
Ġsimplic ia
Ġsimplic ibus
ĠNull o
ister et
ĠThe ologiae
Ġdis ponere
Ġnonn ihil
Ġnonn unquam
Ġle onis
Ġle ones
Ġsy stema
Ġquaes isse
Ġturp issime
Ġturp itudine
fac ti
Ġret ic
Ġret ine
Ġmer uerunt
Ġprophet as
Ġprophet are
Ġconting at
Ġmilit are
Ġnat orum
Ġperpet uae
ĠQua eris
ĠQua ero
Ġaestim es
Ġaestim abat
Ġaestim anda
De u
Ġgener are
Ġgener ans
Ġgener alem
Ġsalv are
Ġsusc it
Ġsusc episse
ĠIoseph o
ĠEcclesia st
ĠInter iores
Ġnim iam
ĠEpic ureum
Ñĭ Ð²
Ġadv esperasc
ãĢ Ī
Ġpraem ii
Ġpen ates
Ġpert ran
Ġhistor ica
Ġhistor icus
ĠFac ta
Ġstult ius
Ġcomed is
Ġconsec r
Ġconsec uti
Ġconsec ravit
Ġpoen is
Ġir rig
Ġasc endere
Ġbenefic i
Ġsempiter nus
à´ Ł
Ġacced at
Ġacced am
Ġacced erem
Ġeleg ans
Ġeleg anter
Ġdubit em
Ġdorm iens
Ġelect or
ĠMin or
ĠMin erva
Ġsingul aria
ĠPompe ii
ĠLut her
Ġindig ent
Ġindig ena
mat icam
Ġtoll at
Ġ34 4
Ġ34 7
Ġalt ari
Ġalt aris
ĠAng eli
ĠAng elop
ĠAng elo
ĠGermaniae que
Ġspect et
Ġinfin itus
Ġconsider ans
ĠAtt ica
Ġconfirm avit
Ġextrem o
Ġconvers ionem
Ġpossib ilem
Ġ195 9
iz ania
Ġinst all
Ġdev ov
Ġdev elop
Î¹ Ïĥ
ĠSec undus
ho uld
ĠEs rom
ĠCol um
Ġiucund issimum
Ġque unt
Ġrevert ar
Ġrevert amur
Ġdeduc itur
Ġconstr uctum
ĠGen ava
Ġparticip ant
Ġsuspic or
Ġproficisc untur
Ġort i
Ġort ae
ĠAthen ae
ĠAthen arum
ĠMart ias
Ġhor ae
Ġcad ent
Ġcad eret
Ġcommend as
Ġappar atus
Ġproport ione
Ad d
ĠPers ae
ĠPers em
ĠLe e
ĠLe one
Ġlegit imis
ä¸ º
Ġexter arum
Ġconserv are
Ġconserv ata
Ġconserv aretur
Ġinterfic eres
Ġinterfic erent
Ġom issio
Ġcess et
Ġimpet ravit
Ġcomprehend itur
Ġcomprehend erit
Ġconp l
Ġconp lex
ĠVal ent
Ġ186 4
Ġsacerdot ium
Ġsoli da
ĠLeg is
ĠLeg es
ĠLeg io
ĠLeg ionis
Ġaccept ae
Ġmemin imus
Ġ40 6
Ġuir g
Ġglad iis
ĠPontific e
Ġjudic es
At t
Ġpraepos iti
Ġpraepos Ã¬
Ġuen erunt
Ġinteg er
Ġimped iri
Ġoccult issimarum
ĠComm une
Ġdur atio
Ġdur atione
ĠXX IX
Ġdig itos
Ġuoc e
Ġimagin ari
Ġgubern atio
Ġinterpret atione
Ġcoep imus
Ġcoep issent
Ġfacie i
ĠMan asses
ĠMan ifestum
Ġsuff us
Ġcontemp sit
Ġdiscess u
ĠIust um
Ġcapit uli
Ġdeclar ant
Ġdeclar atum
Ġdamn ari
Ar ist
Ġadulesc entiae
Ġadmon eo
Ġimprob us
Ġfing it
Ġrequir unt
ĠÑģ Ð²
ĠTer ram
Ġanimad verter
Ġlap ide
Ġpraeced ant
Ġhosp item
Ġmom ento
Ġinuen itur
Ġsuav iter
ĠMich ol
Ġoppos itio
null um
Ġpres entibus
Ġpati ebatur
Ġappare bit
ĠApr il
ĠApr ili
ĠEuropae um
Ġauct orum
Ġ180 2
200 9
Ġacceper ant
Ġadven iret
ĠHab eo
ĠAlb ae
Ġprog en
Ġpopul are
Ġpopul aribus
Ġprec ed
Ġprec epit
ĠRep rehenderit
ĠBib ulus
Ġdixerit is
Ġqual iscumque
Ġinp ort
Ġvindic are
Ġ190 2
Ġpoet as
Ġlign ea
Ġsat ag
Ġaddit ae
Ġadmitt untur
Ġadmitt antur
Ġconfus ioque
Ġnegleg ere
Ġnegleg entiae
ĠAmeric anis
Ġconcupisc entiae
ĠSocrat is
Ġinfirm i
Ġinfirm itatem
ĠLatin itatem
ĠLatin itatis
Ġsuccess ione
ï¼ ģ
Ġdidic isse
ĠEl averis
Ġperhib ente
Ġuis quam
Ġmagnific entia
ĠÐ² Ñĭ
Ġgrad atim
lu unt
Ġaer op
ĠDuc ato
ĠTe ut
Ġioc a
Ġcontempl ari
Ġcontempl antibus
Ġfun us
Ġperg eret
Ġtex tum
ak ne
Ġadopt ionis
Ġexprim at
á½ ¹
Ġfav or
Ġhabita vi
Ġ188 4
Ġinduc i
Ġpasc ebat
ĠServ i
Ġcresc ere
Ġsubt rah
ĠDi od
ĠDi ff
ĠDi anae
Ġvan itate
Ġvari e
ĠCirc um
Ġintro iens
Ġreduc erem
ĠPraes ens
Ġpud ore
Ġpas si
Ġspon so
Ġcollig ere
Ġdescend entem
Ġvuln erat
Ġvuln eribus
Ġinstr uct
Ġinstr uam
Ġinstr uctum
ipot ens
Ġimb er
Ġpartic ulari
Ġaccipi emus
Ġadmirat ionem
ĠThom am
Ġdestr uitur
ĠAustr iam
ĠÐº Ð°Ðº
ĠJud Ã¦
ĠHen rici
ada it
Ġproduc it
ĠPlac entiae
Ġdimitt at
Ġdimitt et
Ġdimitt as
Ġmatur ius
Ġmatur itatis
ĠAene a
ĠDum nor
Ġnex u
yri i
ĠAem ilius
Ġcolloc ata
Ġcolloc avit
Ġcondemn ari
Ġpe ior
Ġfat eri
Ġger itur
Ġimport atis
Ġeffug iam
Prae s
Ġquint us
Ġvixit que
Åį s
Ġcat eg
Ġá¼ Ī
ä» ¬
Ġsemet ips
Ġdoct ior
Ġconiug e
Ġtribu unt
à«¨ à«
ÙĪ ÙĦ
ÙĪ Ùħ
ĠDom um
Ġexpect ata
Ġabsur de
Ġnuntia re
Ġnuntia verunt
Ġnavig atur
Ġnavig atio
Ġbaptiz at
[...]
