{"<s>":0,"<pad>":1,"</s>":2,"<unk>":3,"<mask>":4,"!":5,"\"":6,"#":7,"$":8,"%":9,"&":10,"'":11,"(":12,")":13,"*":14,"+":15,",":16,"-":17,".":18,"/":19,"0":20,"1":21,"2":22,"3":23,"4":24,"5":25,"6":26,"7":27,"8":28,"9":29,":":30,";":31,"<":32,"=":33,">":34,"?":35,"@":36,"A":37,"B":38,"C":39,"D":40,"E":41,"F":42,"G":43,"H":44,"I":45,"J":46,"K":47,"L":48,"M":49,"N":50,"O":51,"P":52,"Q":53,"R":54,"S":55,"T":56,"U":57,"V":58,"W":59,"X":60,"Y":61,"Z":62,"[":63,"\\":64,"]":65,"^":66,"_":67,"`":68,"a":69,"b":70,"c":71,"d":72,"e":73,"f":74,"g":75,"h":76,"i":77,"j":78,"k":79,"l":80,"m":81,"n":82,"o":83,"p":84,"q":85,"r":86,"s":87,"t":88,"u":89,"v":90,"w":91,"x":92,"y":93,"z":94,"{":95,"|":96,"}":97,"~":98,"¡":99,"¢":100,"£":101,"¤":102,"¥":103,"¦":104,"§":105,"¨":106,"©":107,"ª":108,"«":109,"¬":110,"®":111,"¯":112,"°":113,"±":114,"²":115,"³":116,"´":117,"µ":118,"¶":119,"·":120,"¸":121,"¹":122,"º":123,"»":124,"¼":125,"½":126,"¾":127,"¿":128,"À":129,"Á":130,"Â":131,"Ã":132,"Ä":133,"Å":134,"Æ":135,"Ç":136,"È":137,"É":138,"Ê":139,"Ë":140,"Ì":141,"Í":142,"Î":143,"Ï":144,"Ð":145,"Ñ":146,"Ò":147,"Ó":148,"Ô":149,"Õ":150,"Ö":151,"×":152,"Ø":153,"Ù":154,"Ú":155,"Û":156,"Ü":157,"Ý":158,"Þ":159,"ß":160,"à":161,"á":162,"â":163,"ã":164,"ä":165,"å":166,"æ":167,"ç":168,"è":169,"é":170,"ê":171,"ë":172,"ì":173,"í":174,"î":175,"ï":176,"ð":177,"ñ":178,"ò":179,"ó":180,"ô":181,"õ":182,"ö":183,"÷":184,"ø":185,"ù":186,"ú":187,"û":188,"ü":189,"ý":190,"þ":191,"ÿ":192,"Ā":193,"ā":194,"Ă":195,"ă":196,"Ą":197,"ą":198,"Ć":199,"ć":200,"Ĉ":201,"ĉ":202,"Ċ":203,"ċ":204,"Č":205,"č":206,"Ď":207,"ď":208,"Đ":209,"đ":210,"Ē":211,"ē":212,"Ĕ":213,"ĕ":214,"Ė":215,"ė":216,"Ę":217,"ę":218,"Ě":219,"ě":220,"Ĝ":221,"ĝ":222,"Ğ":223,"ğ":224,"Ġ":225,"ġ":226,"Ģ":227,"ģ":228,"Ĥ":229,"ĥ":230,"Ħ":231,"ħ":232,"Ĩ":233,"ĩ":234,"Ī":235,"ī":236,"Ĭ":237,"ĭ":238,"Į":239,"į":240,"İ":241,"ı":242,"Ĳ":243,"ĳ":244,"Ĵ":245,"ĵ":246,"Ķ":247,"ķ":248,"ĸ":249,"Ĺ":250,"ĺ":251,"Ļ":252,"ļ":253,"Ľ":254,"ľ":255,"Ŀ":256,"ŀ":257,"Ł":258,"ł":259,"Ń":260,"Ġe":261,"qu":262,"um":263,"er":264,"Ġa":265,"Ġs":266,"it":267,"us":268,"in":269,"Ġqu":270,"is":271,"Ġp":272,"at":273,"nt":274,"am":275,"on":276,"Ġc":277,"Ġn":278,"ae":279,"st":280,"Ġd":281,"em":282,"Ġm":283,"or":284,"Ġin":285,"ic":286,"ur":287,"Ġv":288,"Ġt":289,"Ġet":290,"ut":291,"Ġi":292,"re":293,"Ġf":294,"li":295,"en":296,"Ġest":297,"om":298,"es":299,"im":300,"Ġh":301,"unt":302,"od":303,"et":304,"ar":305,"an":306,"id":307,"os":308,"ec":309,"ul":310,"ent":311,"Ġnon":312,"Ġpr":313,"ia":314,"ib":315,"ol":316,"un":317,"que":318,"čĊ":319,"Ġad":320,"ed":321,"oc":322,"Ġre":323,"Ġl":324,"se":325,"ud":326,"Ġquod":327,"ac":328,"ab":329,"Ġut":330,"el":331,"ius":332,"as":333,"iam":334,"Ġquae":335,"ion":336,"Ġes":337,"Ġsunt":338,"ere":339,"il":340,"ot":341,"op":342,"Ġcum":343,"ant":344,"Ġde":345,"Ġsu":346,"al":347,"ĠE":348,"ibus":349,"Ġcon":350,"ĠI":351,"ĠA":352,"Ġex":353,"Ġquam":354,"ĠS":355,"ĠC":356,"io":357,"Ġan":358,"ag":359,"omn":360,"Ġesse":361,"ĠD":362,"Ġdi":363,"Ġ1":364,"Ġomn":365,"Ġme":366,"Ġqui":367,"Ġdic":368,"Ġil":369,"est":370,"ih":371,"end":372,"Ġali":373,"ta":374,"iae":375,"itat":376,"Qu":377,"ip":378,"Ġper":379,"orum":380,"Ġaut":381,"ter":382,"Ġfac":383,"Ġprae":384,"Ġill":385,"Ġb":386,"itur":387,"rat":388,"ist":389,"ĠP":390,"ra":391,"ium":392,"atur":393,"ob":394,"ect":395,"ĠQu":396,"ili":397,"Ġsi":398,"Ġsed":399,"omin":400,"per":401,"Ġg":402,"no":403,"Ġen":404,"Ġco":405,"ĠN":406,"Ġip":407,"quam":408,"ir":409,"ens":410,"Ġhab":411,"Ġtu":412,"Ġenim":413,"Ġpos":414,"cc":415,"uit":416,"eg":417,"ost":418,"Ġsc":419,"iv":420,"Ġeius":421,"uc":422,"Ġquid":423,"ĠM":424,"Ġhoc":425,"Ġpot":426,"arum":427,"gn":428,"aec":429,"und":430,"eb":431,"Ġ2":432,"iss":433,"Ġcom":434,"Ġ(":435,"Ġap":436,"are":437,"Ġquo":438,"ort":439,"Ġver":440,"Ġetiam":441,"Ġse":442,"pt":443,"Ġips":444,"and":445,"ina":446,"Ġposs":447,"Ġautem":448,"Ġab":449,"ihi":450,"Ġvel":451,"Ġvid":452,"ita":453,"Ġu":454,"fic":455,"Ġmihi":456,"go":457,"imus":458,"Ġr":459,"ĠL":460,"Ġop":461,"ĠH":462,"Ġsit":463,"Ġid":464,"Ġer":465,"av":466,"erunt":467,"ell":468,"ionem":469,"Ġne":470,"ct":471,"ĠR":472,"Ġca":473,"Ġam":474,"ĠDe":475,"ult":476,"ĠF":477,"Ġanno":478,"emp":479,"Ġpag":480,"Ġat":481,"Ġpro":482,"lic":483,"ore":484,"Ġpar":485,"ihil":486,"Ġte":487,"ĠT":488,"ione":489,"Ġpagina":490,"Ġinc":491,"Ġcu":492,"Ġaliqu":493,"Ġapud":494,"erit":495,"Ġvol":496,"isc":497,"etur":498,"Ġcons":499,"Ġim":500,"ĠV":501,"atus":502,"Ġpl":503,"Ġnec":504,"Ġqua":505,"Ġnihil":506,"Ġquia":507,"Ġea":508,"lib":509,"Ġtam":510,"Ġeum":511,"ibi":512,"ior":513,"Ġmag":514,"ert":515,"ĠEa":516,"unc":517,"Ġfuit":518,"ari":519,"ess":520,"Ġpotest":521,"Ġma":522,"Ġsol":523,"Ġun":524,"Ġtemp":525,"..":526,"ing":527,"ĠĠ":528,"ĠG":529,"Ġacc":530,"Ġess":531,"ĠB":532,"ust":533,"erum":534,"Ġint":535,"Ġprop":536,"Ġscr":537,"ub":538,"Ġcont":539,"Ġcomm":540,"Ġeo":541,"Ġmod":542,"âĢ":543,"Ġsum":544,"ov":545,"Ġatque":546,"Ġhaec":547,"ig":548,"ine":549,"ull":550,"Ġfili":551,"obis":552,"Ġinter":553,"Ġfu":554,"Ġor":555,"ĠEt":556,"Ġres":557,"Ġlib":558,"erat":559,"tum":560,"orem":561,"Ġhomin":562,"Ġ[":563,"bi":564,"Ġsec":565,"Ġdix":566,"Ġsic":567,"ep":568,"inc":569,"Ġpat":570,"Ġbon":571,"fect":572,"00":573,"lig":574,"eri":575,"oqu":576,"int":577,"Ġreg":578,"atum":579,"Ġst":580,"Ġanim":581,"ro":582,"Ġ3":583,"ran":584,"ri":585,"Ġita":586,"de":587,"rum":588,"Ġcre":589,"Ġmin":590,"ate":591,"Ġtibi":592,"Ġar":593,"les":594,"Ġomnia":595,"ient":596,"Ġcor":597,"Ġnost":598,"uli":599,"upt":600,"ata":601,"Ġleg":602,"undum":603,"ven":604,"itum":605,"eris":606,"Ġfec":607,"Ġneque":608,"ĠIn":609,"untur":610,"atis":611,"Ġven":612,"Ġvir":613,"issim":614,"isi":615,"ers":616,"Ġ19":617,"abul":618,"ĠO":619,"ap":620,"Ġant":621,"Ġquidem":622,"Ġloc":623,"Ġerat":624,"Ġ,":625,"iter":626,"ator":627,"Ġloqu":628,"Ġter":629,"ire":630,"Ġdol":631,"Ġsp":632,"ccles":633,"Ġquis":634,"Ġal":635,"antur":636,"Ġus":637,"Ġnum":638,"Ġincol":639,"Ġego":640,"Ġoc":641,"Ġser":642,"eat":643,"Ġsub":644,"Ġpost":645,"Ġaud":646,"Ġmult":647,"isti":648,"Ġmort":649,"ĠU":650,"Ġcaus":651,"Ġ-":652,"ific":653,"Ġob":654,"Ġipsum":655,"endum":656,"Ġprim":657,"Ġman":658,"Ġtamen":659,"Ġomnes":660,"Ġmodo":661,"Ġ\"":662,"le":663,"Ġdom":664,"Ġscrip":665,"esc":666,"urb":667,"ii":668,"ffic":669,"eo":670,"ĠDomin":671,"ĠSed":672,"Ġnobis":673,"Ġimp":674,"Ġquibus":675,"Ġvolupt":676,"Ġnos":677,"Ġincolarum":678,"Ġann":679,"itas":680,"ero":681,"Ġmagn":682,"entia":683,"Ġcuius":684,"Ġdu":685,"eret":686,"ad":687,"amus":688,"ĠRom":689,"Ġo":690,"Ġsim":691,"isse":692,"ĠAn":693,"Ġesset":694,"Ġnisi":695,"ris":696,"Ġsecundum":697,"udic":698,"alis":699,"Ġnatur":700,"Ġcommun":701,"xim":702,"ionis":703,"iat":704,"iunt":705,"Ġaliquid":706,"Ġquem":707,"Ġdeb":708,"res":709,"itus":710,"Ġag":711,"Ġgen":712,"pon":713,"dam":714,"aud":715,"Ġsem":716,"Ġvero":717,"Ġnull":718,"Ġ4":719,"ati":720,"Ġac":721,"Ġrat":722,"iis":723,"dic":724,"itate":725,"Ġiam":726,"Ġpart":727,"Ġpraes":728,"Ġergo":729,"itatem":730,"avit":731,"cip":732,"tus":733,"Ġvit":734,"Ġvoc":735,"ch":736,"Ġput":737,"Ġurb":738,"Ġist":739,"Ġeam":740,"gitur":741,"ie":742,"ff":743,"Ġpec":744,"Ġante":745,"oniam":746,"rae":747,"Ġille":748,"ile":749,"Ġtr":750,"ĠNon":751,"Ġcog":752,"Ġnunc":753,"Ġtabul":754,"ĠDeus":755,"entur":756,"orm":757,"Ġquas":758,"Ġrerum":759,"lius":760,"Ġcur":761,"ias":762,"Ġhabet":763,"Ġsuper":764,"ern":765,"Ġrem":766,"ĠÂ":767,"Ġsan":768,"Ġcap":769,"pe":770,"icae":771,"ux":772,"si":773,"ando":774,"atio":775,"Ġhis":776,"Ġipse":777,"ebat":778,"ui":779,"Ġ18":780,"Ġexp":781,"ne":782,"\"\\":783,"Ġmal":784,"Ġiudic":785,"antum":786,"Ġei":787,"ĠĠĠĠ":788,"iones":789,"Ġciv":790,"emus":791,"uius":792,"Ġamic":793,"Ġverb":794,"\"\\\"\\":795,"stit":796,"atem":797,"endi":798,"Ġdixit":799,"Ġigitur":800,"Ġdiv":801,"Ġiur":802,"Ġdisc":803,"dem":804,"Ġeccles":805,"erc":806,"Ġrep":807,"Ġapp":808,"ĠâĢ":809,"Ġnomin":810,"Ġsicut":811,"ali":812,"itud":813,"ene":814,"Ġcui":815,"tor":816,"og":817,"ulum":818,"ulo":819,"ug":820,"ationem":821,"ĠSi":822,"ranc":823,"Ġdec":824,"ĠQuid":825,"Ġsua":826,"Ġas":827,"Ġmaxim":828,"Ġded":829,"Ġmortu":830,"Ġpop":831,"dit":832,"Ġillud":833,"Ġquoniam":834,"sequ":835,"01":836,"itatis":837,"ept":838,"Ã¦":839,"Ġilla":840,"Ġomnibus":841,"Ġcomp":842,"Ġdes":843,"oris":844,"Ġis":845,"itt":846,"Ġmea":847,"ingu":848,"sum":849,"anno":850,"ici":851,"Ġintell":852,"Ġtot":853,"Ġquoque":854,"Ġeorum":855,"inem":856,"Ġpu":857,"Ġ200":858,"ram":859,"ublic":860,"rim":861,"Ġcogn":862,"Ġ5":863,"Ġmagis":864,"entes":865,"icum":866,"Ġdicitur":867,"Ġtempore":868,"Ġ:":869,"era":870,"ĠQuod":871,"ĠFranc":872,"Ġsent":873,"Ġconc":874,"Ġserv":875,"ont":876,"ica":877,"Ġhic":878,"Ġeos":879,"Ġdie":880,"Ġomnis":881,"itatus":882,"Ġfort":883,"isset":884,"Ġrec":885,"di":886,"Ġocc":887,"Ġpossunt":888,"irc":889,"entum":890,"osc":891,"Ġmol":892,"Ġcausa":893,"Ġlit":894,"Ġgrat":895,"Ġscrib":896,"quid":897,"Ġsemper":898,"Ġact":899,"Ġusque":900,"eli":901,"ĠRoman":902,"ex":903,"Ġconf":904,"Ġcorp":905,"Ġsine":906,"Ġfacere":907,"rem":908,"Ġtua":909,"Ġsint":910,"Ġdel":911,"Ġillum":912,"ĠCh":913,"Ġvos":914,"omen":915,"II":916,"ĠÐ":917,"Ġpublic":918,"ĠAt":919,"ios":920,"Ġinv":921,"Ġiust":922,"iet":923,"tin":924,"raec":925,"Ġmaior":926,"Ġel":927,"bus":928,"Ġinf":929,"Ġviv":930,"ret":931,"quit":932,"Ġfid":933,"Ġnot":934,"Ġcl":935,"Ġsuo":936,"Ġnumquam":937,"icus":938,"he":939,"Ġpossit":940,"Ġpraec":941,"Ġsequ":942,"ores":943,"Ġquos":944,"Ġfrat":945,"Ġnam":946,"Ġeis":947,"ĠAm":948,"ĠCom":949,"Ġmortuus":950,"umque":951,"Ġipsa":952,"Ġlingu":953,"ilis":954,"Ġminus":955,"ĠNam":956,"Ġcar":957,"Ġsign":958,"Ġlitter":959,"Ġ7":960,"Ġubi":961,"Ġins":962,"Ġdicit":963,"Ġ'":964,"Ġten":965,"Ġcol":966,"urae":967,"Ġplac":968,"Ġmis":969,"Ġpers":970,"Ġcred":971,"Ġmat":972,"Ġlab":973,"Ġpraeter":974,"Ġsibi":975,"Ġdef":976,"ve":977,"Ġ6":978,"atione":979,"Ġprinc":980,"Ġvobis":981,"isp":982,"Ġsolum":983,"Ġsuam":984,"Ġsae":985,"Ġmor":986,"stant":987,"Ġnov":988,"Ġep":989,"Ġerit":990,"Ġsap":991,"Ġ201":992,"Ġfecit":993,"ĠIta":994,"Ġvide":995,"Ġbonum":996,"ura":997,"Ġopt":998,"Ġdoc":999,"Ġconsequ":1000,"ti":1001,"lum":1002,"Ġhuius":1003,"Ġopp":1004,"Ġcommune":1005,"erm":1006,"vit":1007,"ula":1008,"Ġbene":1009,"inis":1010,"Ġpraefect":1011,"iens":1012,"Ġprov":1013,"entiam":1014,"sit":1015,"Ġfi":1016,"Ġexc":1017,"to":1018,"Ġvis":1019,"oed":1020,"anc":1021,"Ġquasi":1022,"up":1023,"ilia":1024,"...":1025,"sus":1026,"Ġval":1027,"icet":1028,"enda":1029,"Ġmolest":1030,"Ġneg":1031,"Ġmeum":1032,"Ġrespon":1033,"Ġprob":1034,"Ġcirc":1035,"itia":1036,"Ġpa":1037,"Ġaliud":1038,"entiae":1039,"odo":1040,"Ð°":1041,"ĠLat":1042,"Ġcae":1043,"Ġnomen":1044,"odi":1045,"Ġdomin":1046,"Ġinven":1047,"Ġred":1048,"Ġtantum":1049,"ino":1050,"Ġprincip":1051,"ann":1052,"Ġvidetur":1053,"Ġcert":1054,"ĠAr":1055,"erem":1056,"Ġvest":1057,"andum":1058,"Ġ8":1059,"ulta":1060,"Ġmem":1061,"Ġpropter":1062,"Ġform":1063,"Ġilli":1064,"Ġsumm":1065,"Ġfr":1066,"Ġsal":1067,"unct":1068,"ĠDominus":1069,"Ġpars":1070,"Ġcontra":1071,"Ġfug":1072,"Ð¾":1073,"Ġfactum":1074,"Ġj":1075,"lor":1076,"Ġalter":1077,"Ġadh":1078,"ĠGraec":1079,"Ġux":1080,"ini":1081,"enti":1082,"ora":1083,"reh":1084,"Ġnesc":1085,"Ġquaer":1086,"ĠQuae":1087,"Ġnulla":1088,"glic":1089,"ulus":1090,"Ġpecun":1091,"vers":1092,").":1093,"Ġaet":1094,"ĠIs":1095,"ue":1096,"Ġduc":1097,"Ġtum":1098,"pic":1099,"oribus":1100,"ima":1101,"aret":1102,"Ġpossum":1103,"ix":1104,"aria":1105,"Ġnatura":1106,"Ġmaxime":1107,"Ġvolunt":1108,"ĠJ":1109,"ea":1110,"Ġreli":1111,"ĠDei":1112,"ong":1113,"ill":1114,"Ġeg":1115,"edit":1116,"Ġquando":1117,"ans":1118,"Ġsuum":1119,"Ġterra":1120,"Ġsanct":1121,"tut":1122,"Ġund":1123,"ato":1124,"Ġimper":1125,"Ġmund":1126,"Ġtran":1127,"mon":1128,"uta":1129,"Ġius":1130,"entem":1131,"eretur":1132,"Ġdicere":1133,"omo":1134,"ass":1135,"Ġdilig":1136,"itatibus":1137,"Ġpraefecturae":1138,"ulis":1139,"Ġext":1140,"ĠQui":1141,"Ġing":1142,"Ġgra":1143,"Ġnecess":1144,"ĠPr":1145,"ĠHoc":1146,"Ġillis":1147,"ĠDeo":1148,"esse":1149,"ale":1150,"iscop":1151,"epit":1152,"Ġtest":1153,"ite":1154,"Ġ9":1155,"ĠChr":1156,"ectus":1157,"fer":1158,"Ġillo":1159,"Ġoffic":1160,"oli":1161,"Ġprimum":1162,"Ġ12":1163,"glice":1164,"Ġsus":1165,"iti":1166,"Ġtempus":1167,"Ġfilius":1168,"Ġrebus":1169,"Ġabs":1170,"cr":1171,"Ġaliquam":1172,"Ġsaepe":1173,"equ":1174,"Ġplur":1175,"Ġintelleg":1176,"Ġcaput":1177,"ĠComitatus":1178,"Ġomnium":1179,"Ġdign":1180,"erb":1181,"Ġregione":1182,"eper":1183,"Ġvita":1184,"Ġposse":1185,"Ġsatis":1186,"utus":1187,"Ġfam":1188,"ĠAd":1189,"Ġrei":1190,"10":1191,"Ġexerc":1192,"ĠEccles":1193,"\"\\\"\\\"\\\"\\":1194,"Ġsapient":1195,"Ġvic":1196,"Ġsens":1197,"Ġmut":1198,"Ġquaedam":1199,"ĠMar":1200,"Ġit":1201,"urum":1202,"Ġhon":1203,"ies":1204,"Ġtab":1205,"Ġcogit":1206,"Ġunum":1207,"Ġhabere":1208,"Ġvirtut":1209,"ord":1210,"Ġait":1211,"Ġsaec":1212,"Ġaccip":1213,"Ðµ":1214,"Ġhomo":1215,"aris":1216,"Ġfacta":1217,"Ġinquit":1218,"iqu":1219,"Ġhum":1220,"Ġmeus":1221,"endo":1222,"itiae":1223,"Ġcognosc":1224,"Ġhomines":1225,"dum":1226,"mn":1227,"Ġtuum":1228,"Ġreliqu":1229,"Ġ17":1230,"Ġalia":1231,"Ġiure":1232,"Ġfut":1233,"ecta":1234,"ĠEx":1235,"Ġ15":1236,"vis":1237,"Ġomni":1238,"ĠX":1239,"Ġign":1240,"Ġmed":1241,"Ġvitae":1242,"Ġtra":1243,"Ġord":1244,"Ġaed":1245,"itis":1246,"Ġtuam":1247,"Ġappell":1248,"Ġfieri":1249,"Ġpet":1250,"Ġind":1251,"ionibus":1252,"ĠAmer":1253,"Ġmulta":1254,"Ġunde":1255,"cce":1256,"Ġcet":1257,"Ġstud":1258,"ĠĠĠĠĠĠĠĠ":1259,"ice":1260,"ente":1261,"Ġvelit":1262,"Ġipso":1263,"Ġloquitur":1264,"ll":1265,"Ð¸":1266,"erv":1267,"Ġpatr":1268,"ito":1269,"emo":1270,"12":1271,"Ġsup":1272,"uct":1273,"Ġverum":1274,"Ġw":1275,"ilium":1276,"Ġhanc":1277,"Ġconi":1278,"pos":1279,"Ġull":1280,"Ġ|":1281,"Ġlaud":1282,"Ġtuus":1283,"oph":1284,"Ġhabent":1285,"act":1286,"rehend":1287,"eres":1288,"erent":1289,"Ġ13":1290,"ĠHaec":1291,"Ġsen":1292,"Ġpertin":1293,"pect":1294,"omodo":1295,"Ġph":1296,"ĠUt":1297,"Ġlong":1298,"Ġidem":1299,"Ġiis":1300,"ecum":1301,"ĠCum":1302,"Ġtui":1303,"inde":1304,"ĠCon":1305,"Ġintel":1306,"str":1307,"Ġurbs":1308,"idit":1309,"Ġstat":1310,"Ġconstit":1311,"uum":1312,"inam":1313,",\"":1314,"Ġibi":1315,"Ġglor":1316,"Ġillius":1317,"Ġbell":1318,"ÑĤ":1319,"Ġod":1320,"Ġdiscip":1321,"Ġprovinc":1322,"Ġmolestiae":1323,"Ġ14":1324,"Ġproc":1325,"Ġdolorem":1326,"Ġ11":1327,"Ġnomine":1328,"vi":1329,"ĠCae":1330,"Â»":1331,"ĠUn":1332,"ana":1333,"Ġsuae":1334,"Ġista":1335,"uper":1336,"Ġtant":1337,"Ġpropr":1338,"Ġfilii":1339,"Ġintellig":1340,"Ġmens":1341,"inum":1342,"ĠDeum":1343,"asc":1344,"iant":1345,"ĠFoed":1346,"Ġsubstant":1347,"Ġem":1348,"enter":1349,"ph":1350,"uerunt":1351,"Ġannum":1352,"Ġecclesia":1353,"Ġmun":1354,"imo":1355,"Ġiste":1356,"ique":1357,"Ġoport":1358,"Ġmil":1359,"Ġexist":1360,"Ġdomum":1361,"Ġaliis":1362,"Ġfact":1363,"ĠLorem":1364,"Ġsac":1365,"rah":1366,"Ġomne":1367,"Ġerant":1368,"erman":1369,"\":":1370,"enta":1371,"Ġpul":1372,"Ġhominum":1373,"ath":1374,"entis":1375,"uv":1376,"sa":1377,"ĠSan":1378,"ĠQuam":1379,"Ġadhuc":1380,"Ġconsequatur":1381,"bit":1382,"ĠIud":1383,"Ġpraedic":1384,"Ġ10":1385,"Ġaqu":1386,"Ġaper":1387,"Ġmuli":1388,"Ġfaci":1389,"Ġfacit":1390,"Ġloco":1391,"oll":1392,"Ġpotius":1393,"ĠBr":1394,"Ġrex":1395,"Ġpecc":1396,"Ġplus":1397,"Ġpo":1398,"entibus":1399,"Ġmeam":1400,"Ġaccus":1401,"An":1402,"ast":1403,"Ġlat":1404,"Ġcontr":1405,"Ġsubi":1406,"Ġquin":1407,"ãģ":1408,"Ġdicta":1409,"Ġspec":1410,"if":1411,"Ġ16":1412,"arent":1413,"ĠÂ·":1414,"Ġtrans":1415,"lin":1416,"ĠMa":1417,"cumque":1418,"Ġsive":1419,"Ġvoluptatem":1420,"ĠQuis":1421,"Ġsignific":1422,"umquam":1423,"Ġfal":1424,"Ġimm":1425,"itiam":1426,"Ġadm":1427,"Ġliber":1428,"ffect":1429,"Ġdisp":1430,"Ġsoc":1431,"Ġdub":1432,"urg":1433,"Ġcup":1434,"ebant":1435,"ĠAb":1436,"ĠAl":1437,"ĠPat":1438,"ĠOmn":1439,"abo":1440,"irm":1441,"Ġoper":1442,"Ġuna":1443,"Ġrect":1444,"ilius":1445,"âĢĿ":1446,"Ġideo":1447,"ĠCiv":1448,"arii":1449,"odie":1450,"Ġbe":1451,"ivers":1452,"Ġost":1453,"ationis":1454,"Ġpon":1455,"alem":1456,"Ġmemor":1457,"Ġomnem":1458,"Ġmater":1459,"ĠCaes":1460,"Ġsui":1461,"Ġopus":1462,"Ġaequ":1463,"itio":1464,"Ġthe":1465,"tem":1466,"Ñģ":1467,"ĠK":1468,"Ġtunc":1469,"ĠPh":1470,"Ġnostra":1471,"ĠAp":1472,"Ġdeus":1473,"Ġfuisse":1474,"eque":1475,"ectum":1476,"14":1477,"Ġoppid":1478,"uo":1479,"ĠâĢľ":1480,"lo":1481,"Ġtamquam":1482,"Ġipsi":1483,"Ġnostrum":1484,"Ġsimul":1485,"ane":1486,"Ġtim":1487,"Ġsuis":1488,"Ġdies":1489,"erint":1490,"Ġomnino":1491,"Ġfuerit":1492,"jus":1493,"ani":1494,"Ġaedific":1495,"Ð½":1496,"Ġsumus":1497,"uerit":1498,"ĠAnno":1499,"ide":1500,"ĠIes":1501,"Ġtuae":1502,"ĠGerman":1503,"Ġratione":1504,"Ġquomodo":1505,"ĠSanct":1506,"avi":1507,"Ġadi":1508,"Ġcumque":1509,"ĠCo":1510,"ĠSic":1511,"itudo":1512,"Ġvoluptas":1513,"Ġquant":1514,"Ġpater":1515,"Ġterram":1516,"asse":1517,"ĠIo":1518,"Ġregn":1519,"Ġsermon":1520,"iles":1521,"Ġnatus":1522,"Ġnemo":1523,"imum":1524,"ulos":1525,"Ġdedit":1526,"issime":1527,"Ġepiscop":1528,"lis":1529,"nam":1530,"iatur":1531,"ric":1532,"arium":1533,"Ġitaque":1534,"Ã©":1535,"Ġbona":1536,"issimum":1537,"Et":1538,"xit":1539,"crip":1540,"ev":1541,"uet":1542,"Ġdem":1543,"Ġmagna":1544,"bul":1545,"Ġdiff":1546,"ebam":1547,"Ġfactus":1548,"Ġscripta":1549,"Ġmet":1550,"odem":1551,"ano":1552,"inae":1553,"anum":1554,"Ġpossimus":1555,"Ġverba":1556,"Ġmov":1557,"Ġexs":1558,"libus":1559,"ĠFoederat":1560,"Ġdist":1561,"ua":1562,"ider":1563,"Ġloqui":1564,"tere":1565,"Ġhac":1566,"anus":1567,"ilicet":1568,"Ġparte":1569,"18":1570,"ang":1571,"Ġcontin":1572,"Ġult":1573,"Ġnoc":1574,"Ġdet":1575,"Ġluc":1576,"ilos":1577,"13":1578,"vert":1579,"idunt":1580,"Ġconven":1581,"Ġquantum":1582,"lar":1583,"so":1584,"atae":1585,"Ġfl":1586,"Ġhominem":1587,"Ġratio":1588,"ĠEcclesiae":1589,"te":1590,"th":1591,"Ġth":1592,"Ġcreatus":1593,"Ġsing":1594,"Ġquorum":1595,"Ġanima":1596,"Ġdolor":1597,"Ġpor":1598,"Ġpraecip":1599,"Ġvoluptate":1600,"tr":1601,"Ġdon":1602,"Ġprod":1603,"ĠIuli":1604,"Ġperfect":1605,"%)":1606,"Ġquaest":1607,"ales":1608,"Ġadd":1609,"uxta":1610,"Ġmalum":1611,"iorum":1612,"ÑĢ":1613,"inus":1614,"ilosoph":1615,"one":1616,"Ġscilicet":1617,"Ġinquam":1618,"Ġdictum":1619,"Ġscient":1620,"Ġeffic":1621,"uri":1622,"Ġauc":1623,"Ġtrib":1624,"ena":1625,"Ġmodi":1626,"ĠAmericae":1627,"num":1628,"reg":1629,"Ġfit":1630,"itatu":1631,"Ġessent":1632,"ĠPl":1633,"Ġunivers":1634,"Ġecclesiae":1635,"ĠFranciae":1636,"11":1637,"Ġfer":1638,"Ġpac":1639,"Ġaliqua":1640,"rog":1641,"ign":1642,"ĠW":1643,"Ġfor":1644,"Ġantiqu":1645,"Ġadvers":1646,"Ġduo":1647,"19":1648,"Ġlibero":1649,"Ð»":1650,"ĠEr":1651,"ĠTh":1652,"Ġtrad":1653,"lia":1654,"Ġbeat":1655,"In":1656,"andi":1657,"onis":1658,"Ġvult":1659,"entium":1660,"ibile":1661,"Ġdico":1662,"ĠHic":1663,"Ġverbum":1664,"ĠFrancicum":1665,"15":1666,"Ġmir":1667,"icam":1668,"Ġcond":1669,"emb":1670,"Ġvet":1671,"Ġarg":1672,"Ġearum":1673,"ĠquÃ¦":1674,"Ġdum":1675,"Ġprius":1676,"plic":1677,"lim":1678,"ĠReg":1679,"Ġprimo":1680,"Ġ{":1681,"Ġelig":1682,"Ġquic":1683,"Ġmon":1684,"ach":1685,"Ġpossess":1686,"Ġanimi":1687,"),":1688,"Ġ%)":1689,"arem":1690,"Ġmulto":1691,"Ġutrum":1692,"Ġconsul":1693,"Ġdebet":1694,"Ġev":1695,"iores":1696,"Ġquisquam":1697,"ung":1698,"lex":1699,"Ġcomitatus":1700,"Ġvenit":1701,"Ġlingua":1702,"ime":1703,"ard":1704,"abit":1705,"Ġaudiv":1706,"Ġgrav":1707,"Ġmand":1708,"Ġhunc":1709,"oth":1710,"Ġdici":1711,"Ġaudi":1712,"Ġnecesse":1713,"16":1714,"Ġpostea":1715,"ĠEst":1716,"Ġmelius":1717,"Ġcomitatu":1718,"Ġanimo":1719,"Ġhaud":1720,"Ġrationem":1721,"Ġauctor":1722,"ĠSp":1723,"Ġeiusdem":1724,"terea":1725,"ĠDomini":1726,"ĠItaque":1727,"erbum":1728,"Ġpulch":1729,"Ġed":1730,"Ġlic":1731,"Ġannos":1732,"Ġmiser":1733,"Ġscire":1734,"ebatur":1735,"Anglice":1736,"na":1737,"Ġcel":1738,"Ġmot":1739,"Ġhabe":1740,"ei":1741,"endam":1742,"Ġeadem":1743,"cur":1744,"utum":1745,"Ġobs":1746,"Ġexplic":1747,"Ġsequitur":1748,"Ġfamili":1749,"Ġamp":1750,"Ġgenere":1751,"Ġrespond":1752,"Ġphilosoph":1753,"ys":1754,"Ġaetern":1755,"17":1756,"Ġnol":1757,"Ġsecund":1758,"ori":1759,"Ġtert":1760,"unty":1761,"ulp":1762,"Ġipsam":1763,"Ġart":1764,"Ġarbit":1765,".\"":1766,"ĠÃ":1767,"Ġinstit":1768,"Ġhodie":1769,"ĠNihil":1770,"Ġfilium":1771,"ĠRomae":1772,"ypt":1773,"urus":1774,"ĠCounty":1775,"ationes":1776,"ĠCan":1777,"averunt":1778,"Ġtuo":1779,"Ġreprehend":1780,"Ġecce":1781,"abat":1782,"Ġexemp":1783,"agin":1784,"ebit":1785,"ĠAnt":1786,"ilio":1787,"Ġspir":1788,"ĠCivitatibus":1789,"Ġamet":1790,"Ġperson":1791,"mo":1792,"Ġref":1793,"Ġcoll":1794,"Ġredd":1795,"Ġeas":1796,"Ġiuxta":1797,"Ġdicunt":1798,"Ġuel":1799,"ĠFoederatis":1800,"hib":1801,"la":1802,"ras":1803,"onem":1804,"icip":1805,"Ġlocum":1806,"Ġch":1807,"uti":1808,"Ġsoluta":1809,"Ġcausam":1810,"Ġdomus":1811,"Ġlae":1812,"idi":1813,"Ġmeo":1814,"ĠÂ«":1815,"Ġpossumus":1816,"Ġeodem":1817,"ation":1818,"Ġillam":1819,"alia":1820,"uis":1821,"red":1822,"ĠPost":1823,"Ġprof":1824,"ates":1825,"ĠPrae":1826,"anda":1827,"iorem":1828,"Ġtempora":1829,"Ġcorporis":1830,"ĠChrist":1831,"22":1832,"ico":1833,"icis":1834,"ĠId":1835,"erim":1836,"Ġfin":1837,"Ġperm":1838,"ĠIsrah":1839,"Ġbib":1840,"Ġparv":1841,"....":1842,"itudinem":1843,"ĠAeg":1844,"Ġcogitat":1845,"Ġgaud":1846,"arius":1847,"Ġpraest":1848,"Ġprofect":1849,"Ġminima":1850,"quis":1851,"ĠGal":1852,"Ġhominis":1853,"uetud":1854,"Ġdicuntur":1855,"Ġcirca":1856,"qui":1857,"Ġdiss":1858,"Ġnaturae":1859,"ĠIsrahel":1860,"Ġ.":1861,"Ġalic":1862,"Ġcal":1863,"ĠAli":1864,"iuntur":1865,"Ġhabeat":1866,"Ġunus":1867,"Ġoportet":1868,"uic":1869,"ensis":1870,"\"\\\"\\\"\\\"\\\"\\\"\\\"\\\"\\":1871,"Ġlabor":1872,"Ġaliquo":1873,"Ġprima":1874,"Ġimpedit":1875,"Ġpecuniam":1876,"Ġdicam":1877,"ĠNunc":1878,"Ġclar":1879,"Ġepist":1880,"ario":1881,"onium":1882,"essit":1883,"ĠAnglice":1884,"Ġnegot":1885,"ĠIll":1886,"Ġang":1887,"endit":1888,"erant":1889,"Ġquamquam":1890,"itates":1891,"Ġ2000":1892,"ento":1893,"21":1894,"Ġlocutus":1895,"Ġtur":1896,"ident":1897,"Ġlect":1898,"Ġdicendum":1899,"let":1900,"Ġdixi":1901,"Ġhuman":1902,"ĠZ":1903,"acob":1904,"Ġmanu":1905,"eh":1906,"ulg":1907,"Ġdicimus":1908,"Ġdolore":1909,"ispan":1910,"ma":1911,"Ġfaciam":1912,"Ġconsuetud":1913,"Ġoptio":1914,"Ġejus":1915,"Ġcan":1916,"\",":1917,"Ġfinem":1918,"Ġveniam":1919,"elim":1920,"ulae":1921,"Ġprom":1922,"Ġdicens":1923,"Ġerunt":1924,"Ġdomu":1925,"mod":1926,"Ġcust":1927,"Ġdep":1928,"ĠCur":1929,"Ġessentia":1930,"idem":1931,"Ġlux":1932,"ĠSc":1933,"Ġdict":1934,"Ġipsius":1935,"ox":1936,"itu":1937,"Ġden":1938,"antium":1939,"Ġerr":1940,"ons":1941,"Ġbre":1942,"Ġsex":1943,"Ġaccep":1944,"Ġcop":1945,"Ġmeae":1946,"Ġatt":1947,"Ġmortem":1948,"ĠAegypt":1949,"ãĥ":1950,"istis":1951,"Ġsept":1952,"Ġterrae":1953,"aus":1954,"modi":1955,"oni":1956,"Ġdil":1957,"Ġ20":1958,"ĠChristi":1959,"Ġdiu":1960,"Ġdiffic":1961,"iri":1962,"ĠÂ§":1963,"Ġexistim":1964,"Ġumquam":1965,"Ġdei":1966,"Ð¾Ð":1967,"Ġav":1968,"etis":1969,"Ġrecip":1970,"Ġ&":1971,"ĠIm":1972,"Ġmei":1973,");":1974,"Ġhost":1975,"ĠEgo":1976,"andae":1977,"Ġaliquando":1978,"Ġlege":1979,"Ġcerte":1980,"ros":1981,"Ġmagnam":1982,"land":1983,"itionem":1984,"Ġlicet":1985,"Ġdiem":1986,"Ġsimil":1987,"Ġpugn":1988,"Ġeligendi":1989,"Ġvidentur":1990,"\\/":1991,"rob":1992,"uere":1993,"ered":1994,"Ġto":1995,"Ġhominibus":1996,"Ġplaceat":1997,"liae":1998,"ĠIos":1999,"Ġmagist":2000,"Ġnaturam":2001,"Ġiuris":2002,"Ġdelect":2003,"Ġbellum":2004,"Ġtecum":2005,"Ġincip":2006,"Ġtabulat":2007,"Ġsupra":2008,"ĠPet":2009,"Ġvera":2010,"eph":2011,"Ġgenus":2012,"Ġuxorem":2013,"XX":2014,"Ġvig":2015,"ereb":2016,"ĠInt":2017,"Ġsalut":2018,"Ġpol":2019,"Ġeff":2020,"ĠCar":2021,"Ġpotestate":2022,"par":2023,"Ġon":2024,"Ġreper":2025,"Ġ22":2026,"Ġpauc":2027,"anu":2028,"issima":2029,"iret":2030,"Ġpopulo":2031,"Ġseu":2032,"Ġcorpus":2033,"Ġsper":2034,"Ġdeinde":2035,"Ġpropri":2036,"nis":2037,"Ġaliter":2038,"Ġalien":2039,"issent":2040,"Ġy":2041,"Ġindic":2042,"ĠSt":2043,"Ġtotum":2044,"Ġalio":2045,"Ġmultis":2046,"Ġtabula":2047,"Ġhonest":2048,"iarum":2049,"ĠNov":2050,"Ġproxim":2051,"Ġmodum":2052,"ixit":2053,"ĠIesus":2054,"cus":2055,"Ġmi":2056,"Ġcong":2057,"ipisc":2058,"ĠPer":2059,"Ġposset":2060,"Ġaccid":2061,"Ġvitam":2062,"eram":2063,"imur":2064,"Ġreprehenderit":2065,".,":2066,"uen":2067,"Ġmeli":2068,"Ġ23":2069,"âĢĻ":2070,"Ġlibert":2071,"Ġfugiat":2072,"Ġnob":2073,"Ġuid":2074,"Ġpartes":2075,"Ġvocem":2076,"Ġdesc":2077,"Ġtuis":2078,"Ġ2009":2079,"Ġvelim":2080,"ĠMag":2081,"Ġquot":2082,"ĠEp":2083,"ĠCat":2084,"ioec":2085,"Ġand":2086,"Ġpae":2087,"imis":2088,"ĠIudae":2089,"Ġcupid":2090,".)":2091,"erus":2092,"Ġfur":2093,"Ġpotentia":2094,"Ġopin":2095,"uncta":2096,"ioeces":2097,"aliter":2098,"Ġuno":2099,"Ġof":2100,"20":2101,"Ġport":2102,"Ġben":2103,"ĠErgo":2104,"Ġquaerat":2105,"Ġsumma":2106,"embris":2107,"28":2108,"50":2109,"Ġmundum":2110,"Ġmitt":2111,"Ġipsis":2112,"Ġmaius":2113,"Ġsuscip":2114,"athol":2115,"oque":2116,"ulam":2117,"andem":2118,"Ġmultum":2119,"Ġcogitari":2120,"Ġk":2121,"Ġnunt":2122,"abitur":2123,"ĠAs":2124,"23":2125,"ou":2126,"accur":2127,"Ġsucc":2128,"ĠAut":2129,"ĠNec":2130,"Ġquidam":2131,"Ġfuerunt":2132,"Ġiudicium":2133,"Ġequ":2134,"Ġ24":2135,"Ġingen":2136,"accurate":2137,"tu":2138,"ich":2139,"ecto":2140,"ebus":2141,"Ġpriv":2142,"Ġlac":2143,"Ġaliae":2144,"Ġhabeo":2145,"Ð°Ð":2146,"hen":2147,"uss":2148,"Ġfaciunt":2149,"Ġscript":2150,"Ġputo":2151,"Ġdisput":2152,"26":2153,"ni":2154,"Ġinim":2155,"Ġpraed":2156,"ivit":2157,"Ġlibro":2158,"Ġforte":2159,"Ġgratiam":2160,"Ġarbitr":2161,"rac":2162,"Ġsuos":2163,"ĠQuia":2164,"Ġvolo":2165,"Ġcorr":2166,"III":2167,"Ġdefin":2168,"Ġcr":2169,"Ġrog":2170,"ress":2171,"Ġfortasse":2172,"Ġpublica":2173,"Ġfrater":2174,"Ġiterum":2175,"24":2176,"ugn":2177,"ãĤ":2178,"Ġmanus":2179,"Ġfruc":2180,"atu":2181,"atibus":2182,"entus":2183,"Ġadipisc":2184,"Ġrev":2185,"Ġconv":2186,"Ġtemporibus":2187,"Ġteneb":2188,"het":2189,"pet":2190,"inct":2191,"Ġculp":2192,"Ġfere":2193,"Ġperic":2194,"ĠQuo":2195,"epta":2196,"Ġprovincia":2197,"Ġrecte":2198,"lem":2199,"Ġaur":2200,"Ġquaecumque":2201,"Ġalii":2202,"Ġpropos":2203,"Ġfecisti":2204,"Ġquicquam":2205,"lus":2206,"ulorum":2207,"Ġuti":2208,"Ġpuer":2209,"ĠUnde":2210,"ce":2211,"Ã¡":2212,"ariae":2213,"ilem":2214,"issimus":2215,"Ġopera":2216,"Ġ194":2217,"Ġterr":2218,"25":2219,"Ġpostquam":2220,"pr":2221,"Ġcas":2222,"Ġperd":2223,"irum":2224,"Ġlabore":2225,"Ġ<":2226,"Ġeffect":2227,"erentur":2228,"ioni":2229,"ĠAug":2230,"Ġ26":2231,"Ġoratio":2232,"iit":2233,"natus":2234,"Ġ;":2235,"antes":2236,"Ġalias":2237,"Ġ199":2238,"Nam":2239,"Ġ/":2240,"Ġaest":2241,"ĠNeque":2242,"Ġdomo":2243,"anae":2244,"Ġq":2245,"Ġmecum":2246,"Ġnondum":2247,"Ġincidunt":2248,"rb":2249,"ron":2250,"itationem":2251,"ensi":2252,"ĠLib":2253,"ĠĠĠĠĠĠĠĠĠĠĠĠĠĠĠĠ":2254,"erimus":2255,"Ġaff":2256,"ĠHispan":2257,"ĠSpir":2258,"ĠDav":2259,"tare":2260,"Ġviri":2261,"Ġusus":2262,"Ġnar":2263,"Ġmar":2264,"Ġlud":2265,"ĠHi":2266,"Ġpopulum":2267,"Ġgratia":2268,"Ġfuturum":2269,"Ġaug":2270,"Ġquodam":2271,"Ġfacile":2272,"Ġhabit":2273,"Ġquibusdam":2274,"Ġpopulus":2275,"annes":2276,"ifest":2277,"ren":2278,"abis":2279,"Ġdiebus":2280,"Ġpotuit":2281,"Ġaliquod":2282,"Ġimag":2283,"Ġhomine":2284,"Ġiac":2285,"Ġfem":2286,"Ġgest":2287,"Ġannis":2288,"Ġpertinet":2289,"Ġped":2290,"Ġnav":2291,"ict":2292,"Ġtestim":2293,"Ġ25":2294,"Ġlocus":2295,"Ġpuell":2296,"Ġsententia":2297,"Ġvalde":2298,"Ġrespondit":2299,"Ġnesciunt":2300,"30":2301,"Ġson":2302,"Ġmiss":2303,"Ġhos":2304,"Ġutil":2305,"libet":2306,"Ġcoram":2307,"Ġnullum":2308,"Ġcogno":2309,"Ġsequi":2310,"Ġdeum":2311,"Ġfacti":2312,"Ġanni":2313,"Ġoff":2314,"itudine":2315,"verunt":2316,"Ġli":2317,"erd":2318,"Ġini":2319,"endus":2320,"Ġinterrog":2321,"Ġvivere":2322,"Ġlinguam":2323,"Ġforma":2324,"icem":2325,"rec":2326,"Ġfoed":2327,"ĠSept":2328,"Ġvidere":2329,"Ġsane":2330,"Ġverbis":2331,"Ġfortun":2332,"Ġlitteras":2333,"aretur":2334,"iora":2335,"Ġagere":2336,"Ġsententiae":2337,"ionum":2338,"Ġsuas":2339,"Ġ28":2340,"Ġscriptum":2341,"Ġurbe":2342,"Ġambul":2343,"ĠVerbum":2344,"ĠEtiam":2345,"Ġsin":2346,"ĠPa":2347,"Ġsaeculo":2348,"Ġconiunct":2349,"itiis":2350,"uris":2351,"Ġiuc":2352,"Ġpublicae":2353,"Ġextra":2354,"ĠAugust":2355,"ĠDavid":2356,"ru":2357,"yr":2358,"Ġmerc":2359,"icorum":2360,"Ġveh":2361,"Ġads":2362,"iscum":2363,"Ġpatrem":2364,"Ġscrips":2365,"ĠDomine":2366,"Ġrepell":2367,"Ġintellect":2368,"Ġmaiores":2369,"antibus":2370,"Ġcast":2371,"ĠVol":2372,"Ġnostri":2373,"lam":2374,"Ġdam":2375,"ĠAc":2376,"ĠNum":2377,"ostol":2378,"Ġurbem":2379,"Ġdivis":2380,"Num":2381,"Non":2382,"Ġdim":2383,"itati":2384,"Ġdivers":2385,"Ġignor":2386,"Ġexspect":2387,"pici":2388,"olog":2389,"Ġrelin":2390,"ĠIl":2391,"Ġmeis":2392,"Ġlinguae":2393,"Ġoppidum":2394,"Ġeven":2395,"quir":2396,"ulit":2397,"Ġmundo":2398,"eperunt":2399,"Ġaux":2400,"Ġnasc":2401,"Ġetsi":2402,"Ġvers":2403,"Ġessem":2404,"Ġmulti":2405,"Ġdux":2406,"ĠâĢĵ":2407,"ĠProv":2408,"Ġra":2409,"Ġhered":2410,"ania":2411,"oss":2412,"endis":2413,"Ġpartem":2414,"Ġpraesens":2415,"Ġcaelum":2416,"Ġodio":2417,"ola":2418,"Ġaccepit":2419,"Ġcompos":2420,"Ġsor":2421,"itae":2422,"ulator":2423,"Ġillos":2424,"ĠÂ»":2425,"uisse":2426,"ith":2427,"Ġhuic":2428,"ares":2429,"Ġass":2430,"Ġpopuli":2431,"Ġtota":2432,"Ġullam":2433,"29":2434,"âĢ¦":2435,"Ġanimae":2436,"Ġcura":2437,"amur":2438,"Ġadf":2439,"Ġrelig":2440,"Ġvideb":2441,"ave":2442,"Ġ30":2443,"Ġfide":2444,"Ġvideatur":2445,"rent":2446,"Ġperf":2447,"istor":2448,"ĠPom":2449,"ustr":2450,"Ġfiliis":2451,"issimi":2452,"Ġmanifest":2453,"Ġcorpore":2454,"Ġmulier":2455,"Ġsust":2456,"urr":2457,"Ġfabul":2458,"ĠII":2459,"ĠDec":2460,"Ġsociet":2461,"Ġmemoria":2462,"ow":2463,"usc":2464,"Ġfig":2465,"anis":2466,"Ġperven":2467,"Ġbonorum":2468,"Ġ2011":2469,"Ġadhib":2470,"Ġquar":2471,"Ġparum":2472,"Ġlum":2473,"ĠIacob":2474,"Ġhabuit":2475,"Ġpatris":2476,"Ġscriptor":2477,"Ġnullo":2478,"onte":2479,"Ġsubstantia":2480,"inqu":2481,"endere":2482,"Ġvi":2483,"elli":2484,"ĠPar":2485,"Ġ27":2486,"Ġorient":2487,"Ġarch":2488,"Ġstatim":2489,"Ġmundus":2490,"nit":2491,"Ðº":2492,"Ñĥ":2493,"eros":2494,"Ġaffect":2495,"Ġtut":2496,"enus":2497,"ense":2498,"ĠDic":2499,"ĠPrim":2500,"ectetur":2501,"Ġsch":2502,"Ġdixerunt":2503,"Ġnostro":2504,"Ġordin":2505,"aginta":2506,"unquam":2507,"Ġla":2508,"ĠIp":2509,"ertim":2510,"ariis":2511,"Ġlitteris":2512,".'":2513,"Ġeu":2514,"onia":2515,"idie":2516,"Ġrefer":2517,"Ġpossid":2518,"atores":2519,"Ġfidem":2520,"33":2521,"rorum":2522,"uram":2523,"ĠIun":2524,"Quis":2525,"Quid":2526,"Ġpariatur":2527,"Ġaliquis":2528,"Ġculpa":2529,"iendum":2530,"rip":2531,"Ġpret":2532,"Ġiniqu":2533,"Ġfre":2534,"ĠIanu":2535,"Ġdicis":2536,"Ġ29":2537,"ĠTum":2538,"ĠVid":2539,"Ġbonis":2540,"Ġlegem":2541,"Ġmanum":2542,"Ġcompar":2543,"Ġfratres":2544,"Ġmateria":2545,"27":2546,"Ġcens":2547,"Ġdeo":2548,"iva":2549,"Ġquidquid":2550,"Ġmala":2551,"Ġ2010":2552,"Ġnescio":2553,"Ġalicuius":2554,"mus":2555,"pi":2556,"ond":2557,"Ġhort":2558,"Ġrel":2559,"endae":2560,"Ġarc":2561,"Ġmagni":2562,"Î¿":2563,"oniae":2564,"Ġvia":2565,"Ġvere":2566,"issem":2567,"Ġamicitia":2568,"Ġcircum":2569,"Ġpecunia":2570,"Ġofficia":2571,"pectu":2572,"\",\"":2573,"Ġpal":2574,"Ġcunct":2575,"Ġuol":2576,"Ġscripsit":2577,"Ġsimplic":2578,"Ġtotam":2579,"ĠAtque":2580,"Ġdemon":2581,"Ġpossessionem":2582,"Ġaudivi":2583,"ax":2584,"ante":2585,"Ġhabebat":2586,"andam":2587,"Ġsolus":2588,"Ġasper":2589,"Ġpass":2590,"all":2591,"ĠNull":2592,"ĠMos":2593,"Ġ21":2594,"Ġdare":2595,"Ġvidit":2596,"Ġuero":2597,"Ġintra":2598,"Ġboni":2599,"Ġregem":2600,"Ġnostris":2601,"Ġvalet":2602,"ĠLatine":2603,"Ġtanta":2604,"Sed":2605,"rop":2606,"ister":2607,"ara":2608,"ecit":2609,"Ġnonne":2610,"opt":2611,"Ġquamvis":2612,"Ġanimam":2613,"Ġassum":2614,"ĠRomani":2615,"Ġuxor":2616,"Ġmundi":2617,"Ġcustod":2618,"ĠProvinc":2619,"itione":2620,"stat":2621,"enn":2622,"ĠThe":2623,"Ġconsectetur":2624,"Ġoculis":2625,"Ġsententiam":2626,"quidem":2627,"Ġquat":2628,"Ġdis":2629,"Ġment":2630,"entius":2631,"Ġnonn":2632,"Ġle":2633,"Ġnumquid":2634,"Ġpraesertim":2635,"eptum":2636,"Ġinvent":2637,"Ġsaep":2638,"Ġsensus":2639,"Ġprovinciae":2640,"oh":2641,"erg":2642,"Ġsy":2643,"Ġtem":2644,"Ġquaes":2645,"Ġanimus":2646,"Ġfaciat":2647,"Ġfacilis":2648,"Ġregis":2649,"Ġturp":2650,"fac":2651,"lect":2652,"Î±":2653,"Ġagn":2654,"Ġparent":2655,"ure":2656,"Ġvinc":2657,"abile":2658,"Ġtemporis":2659,"Ġ197":2660,"Ġquisque":2661,"Ġlittera":2662,"quod":2663,"Ġhi":2664,"ulc":2665,"Ġret":2666,"Ġconsum":2667,"000":2668,"Ġfeci":2669,"iebat":2670,"amen":2671,"Ġmer":2672,"Ġcreatur":2673,"Ġ196":2674,"Ġnumero":2675,"Ġdominus":2676,"32":2677,"ÃŃ":2678,"Ġquaeso":2679,"Ġprophet":2680,"Ġconting":2681,"Ġmilit":2682,"eant":2683,"uam":2684,"umb":2685,"Ġinde":2686,"ete":2687,"ĠMed":2688,"Ġantea":2689,"ĠLatina":2690,"Ġlaet":2691,"36":2692,"qua":2693,"Ġprimus":2694,"Ġgl":2695,"Ġscel":2696,"ĠVen":2697,"Ġprincipio":2698,"Ġisti":2699,"itam":2700,"Ġnat":2701,"Ġfund":2702,"imi":2703,"ĠCic":2704,"Ġperpet":2705,"abulator":2706,"Ġplacet":2707,"ĠQuamquam":2708,"Ġargum":2709,"lator":2710,"ĠItem":2711,"ĠDol":2712,"ĠQua":2713,"ĠNe":2714,"unda":2715,"Ġisto":2716,"crib":2717,"gu":2718,"sc":2719,"Ġviam":2720,"Ġvix":2721,"ech":2722,"ĠEcce":2723,"Ġpossint":2724,"Ġplen":2725,"Ġfecerit":2726,"Ġaudire":2727,"Ġduae":2728,"Ġecclesiam":2729,"Ġalterum":2730,"Ġdiffer":2731,"Ġaestim":2732,"Ġiniur":2733,"De":2734,"Ġadul":2735,"Ġlex":2736,"Ġpotes":2737,"Ġdolores":2738,"ĠUrb":2739,"bulator":2740,"Ġporro":2741,"Ġnati":2742,"Ġvac":2743,"Ġfel":2744,"ĠSunt":2745,"Ġdicat":2746,"Ġscio":2747,"ioris":2748,"Ġfilios":2749,"Ġgener":2750,"Ġamplius":2751,"Ġintellectu":2752,"non":2753,"ute":2754,"ĠCor":2755,"ĠâĢĺ":2756,"Ġprincipium":2757,"ĠPater":2758,"amp":2759,"ecim":2760,"ratus":2761,"Ġcapt":2762,"Ġconsilium":2763,"Ġpauper":2764,"Ġsalv":2765,"Ġsusc":2766,"Ġproprium":2767,"ĠIoseph":2768,"ay":2769,"Ġcondic":2770,"Ġcivitatis":2771,"Ġdecem":2772,"ontific":2773,"Ġexercitationem":2774,"Ġceteris":2775,"ĠIuda":2776,"rin":2777,"Ġdata":2778,"Ġplane":2779,"ĠEcclesia":2780,"Ġpropria":2781,"ĠInter":2782,"eremus":2783,"Ġsemp":2784,"Ġutique":2785,"Ġexper":2786,"eps":2787,"Ġpraesid":2788,"Ġconced":2789,"cript":2790,"ha":2791,"uae":2792,"Ġquare":2793,"Ġnim":2794,"Ġta":2795,"itatum":2796,"Ġaliquem":2797,"essus":2798,"Ġtestimonium":2799,"Ġcrim":2800,"ocrat":2801,"ĠEpic":2802,"ĠCl":2803,"Ġvideri":2804,"Ġ33":2805,"Ġalb":2806,"Ġsignum":2807,"ĠIanuarii":2808,"lac":2809,"rus":2810,"Ñĭ":2811,"ĠÎ":2812,"Ġtres":2813,"Ġfiat":2814,"Ġadv":2815,"Ġlev":2816,"Ġvideo":2817,"Ġpartibus":2818,"Haec":2819,"Ġaquam":2820,"Ġvul":2821,"ese":2822,"abatur":2823,"ilibus":2824,"Ġhabemus":2825,"ivi":2826,"Ġveritatis":2827,"Ġsitum":2828,"Ġvirum":2829,"Ġantequam":2830,"Ġmisit":2831,"ĠBrit":2832,"Ġsubiectum":2833,"Ġostend":2834,"Ġregnum":2835,"Ġutrumque":2836,"ãĢ":2837,"quae":2838,"Ġha":2839,"abilis":2840,"ĠIam":2841,"Ġpraem":2842,"Ġbest":2843,"Ġprofic":2844,"Ġusu":2845,"ressus":2846,"Ġpecuniae":2847,"Ġaquae":2848,"Ġdistinct":2849,"Ġrestit":2850,"Quod":2851,"Ġpotestatem":2852,"inti":2853,"Ġceleb":2854,"Ġrelinqu":2855,"leg":2856,"Ġvim":2857,"Ġtandem":2858,"ĠLuc":2859,"Ġhomini":2860,"Ġnoster":2861,"Ġpostul":2862,"Ġgeneris":2863,"Ġputas":2864,"Ġtestam":2865,"Ġitem":2866,"Ġecclesiast":2867,"Ġfrequ":2868,"ribus":2869,"eta":2870,"ule":2871,"ulli":2872,"ĠQuare":2873,"ĠTu":2874,"iori":2875,"Ġloquor":2876,"Ġpraeses":2877,"Ġurbis":2878,"Ġvoluntatem":2879,"CC":2880,"].":2881,"Ġpen":2882,"Ġpert":2883,"Ġfilio":2884,"Ġcorde":2885,"Ġjust":2886,"Ġbened":2887,"Ġ...":2888,"Ġmus":2889,"urre":2890,"Ġtac":2891,"Ġtalis":2892,"Ġharum":2893,"Ġhistor":2894,"ĠAg":2895,"ĠFac":2896,"Ġstult":2897,"Ġnomina":2898,"Ġtenetur":2899,"Ġcetera":2900,"Ġangel":2901,"cum":2902,"eas":2903,"ver":2904,"Ġno":2905,"Ġcommod":2906,"Ġmagnum":2907,"dus":2908,"Ġ0":2909,"Ġpere":2910,"aniae":2911,"Ġquaeque":2912,"antia":2913,"Ġcomed":2914,"Ġconsec":2915,"Ġamicitiae":2916,"Ġfugit":2917,"Ġvoluntate":2918,"Ġsacerd":2919,"Ġpoen":2920,"ĠOmnia":2921,"ĠEpiscop":2922,"ĠBritann":2923,"eatur":2924,"inist":2925,"atorum":2926,"Ġdia":2927,"Ġir":2928,"abunt":2929,"Ġdepos":2930,"ĠCap":2931,"Ġfecerunt":2932,"Ġasc":2933,"Ġbenefic":2934,"eperit":2935,"Ġcorrupt":2936,"Ġsempiter":2937,"Ġnunquam":2938,"redi":2939,"eniti":2940,"ĠCathol":2941,"Ġcivitate":2942,"itudinis":2943,"ĠIsrae":2944,"201":2945,"Ex":2946,"à´":2947,"itias":2948,"onom":2949,"enim":2950,"ĠEn":2951,"Ġalius":2952,"Ġbland":2953,"Ġacced":2954,"Ġeleg":2955,"Ġsuscipit":2956,"iu":2957,"uisti":2958,"Ġfest":2959,"ĠEur":2960,"ĠMo":2961,"Ġcausae":2962,"Ġ2012":2963,"Ġulla":2964,"Si":2965,"ioc":2966,"idic":2967,"ive":2968,"Ġorb":2969,"Ġdesider":2970,"Ġ2008":2971,"Ġscribere":2972,"Ġhuiusmodi":2973,"Ġplures":2974,"Î½":2975,"atam":2976,"Ġfore":2977,"abant":2978,"ĠRes":2979,"Ġconsilio":2980,"Ġtabulato":2981,"Ġactum":2982,"\":\"":2983,"ĠProvincia":2984,"ok":2985,"uven":2986,"umus":2987,"orsus":2988,"iderat":2989,"ĠSal":2990,"Ġdubit":2991,"\"\\\"\\\"\\\"\\\"\\\"\\\"\\\"\\\"\\\"\\\"\\\"\\\"\\\"\\\"\\\"\\":2992,"uto":2993,"idere":2994,"ĠDeinde":2995,"Ġbono":2996,"Ġ198":2997,"Ġgenerat":2998,"sign":2999,"Ġofficium":3000,"Ġofficiis":3001,"Ġfutura":3002,"Ġmensis":3003,"Ġprofecto":3004,"etiae":3005,"age":3006,"Ġcoepit":3007,"Ġhabes":3008,"Ġamb":3009,"Ġquad":3010,"Ġcommodi":3011,"Ġ36":3012,"Ġvirtus":3013,"Ġmaiorem":3014,"tav":3015,"rare":3016,"Ġpoterit":3017,"eruntur":3018,"Ġanimal":3019,"ĠDomino":3020,"ÐµÐ":3021,"ĠImper":3022,"az":3023,"ht":3024,"Ġdorm":3025,"iderunt":3026,"Ġpros":3027,"Ġaliam":3028,"Ġtabulas":3029,"Ġverborum":3030,"Ġelect":3031,"Ġquaeritur":3032,"ĠCaesar":3033,"ĠIulii":3034,"ĠIsrael":3035,"rib":3036,"ationibus":3037,"onum":3038,"antem":3039,"Ġalium":3040,"ĠMin":3041,"igin":3042,"Ġlocis":3043,"Ġdeserunt":3044,"Ġ2007":3045,"Ġcaelo":3046,"illa":3047,"Ġquinque":3048,"Ġsingul":3049,"ĠPompe":3050,"\".":3051,"lud":3052,"Ġflum":3053,"Ġsuffic":3054,"Ġens":3055,"Ġhabitat":3056,"ĠLut":3057,"Ġconsol":3058,"Ġplura":3059,"Ġcontem":3060,"Ġfuisset":3061,"rix":3062,"Ġvirtute":3063,"Ġindig":3064,"ÑģÑĤ":3065,"com":3066,"eam":3067,"mat":3068,"Ġot":3069,"Ġtoll":3070,"Ġpraet":3071,"Ġsep":3072,"Ġfiliae":3073,"ĠOr":3074,"Ġmale":3075,"Ġnota":3076,"Ġpraecepta":3077,"ĠArist":3078,"Ġgloriam":3079,"Ġfaciem":3080,"Ġbeatus":3081,"Ġsecundo":3082,"Ġprud":3083,"Ġmali":3084,"Ġprope":3085,"Ġinterp":3086,"Ġ34":3087,"Ġsermo":3088,"adem":3089,"Ġiudicio":3090,"Ġdedisti":3091,"dign":3092,"Ġelit":3093,"Ġsigna":3094,"Ġdomine":3095,"angeli":3096,"Ġanc":3097,"Ġfacult":3098,"erumque":3099,"Ġalt":3100,"Ġsubs":3101,"Ġexped":3102,"Ġcivitatem":3103,"Ġiustitiam":3104,"Ġnotare":3105,"Ġquaerere":3106,"Ġreliqua":3107,"ĠOmnes":3108,"39":3109,"ly":3110,"Ġcib":3111,"Ġcant":3112,"ursus":3113,"ĠSim":3114,"ensum":3115,"itavit":3116,"ĠAng":3117,"Ġactu":3118,"Ġoptime":3119,"Ġexcept":3120,"Ġlonge":3121,"iantur":3122,"ke":3123,"Ġ?":3124,"quo":3125,"Ġdioeces":3126,"ĠCal":3127,"ebantur":3128,"Ġveritatem":3129,"Ġquaerit":3130,"Ġcredit":3131,"Ġminor":3132,"Ġtria":3133,"Ġcivitas":3134,"Ġmaxima":3135,"Ġscribis":3136,"Ġsummum":3137,"ĠGermaniae":3138,"¿½":3139,"ï¿½":3140,"Ġdatur":3141,"iamus":3142,"Ġscit":3143,"averit":3144,"Ġsola":3145,"Ġsecum":3146,"Ġlegatus":3147,"Ġoccup":3148,"Ġmori":3149,"Ġsenatus":3150,"Ġerror":3151,"hod":3152,"abam":3153,"Ġalios":3154,"Ġopere":3155,"Ġnostram":3156,"Ġspect":3157,"Ġiusto":3158,"Ġinfin":3159,"Ġclam":3160,".[":3161,"37":3162,"Ġau":3163,"imae":3164,"Ġdex":3165,"Ġoperat":3166,"Ġconsider":3167,"Ġ39":3168,"ĠDominum":3169,"Ġiudices":3170,"ĠRomanae":3171,"ĠAtt":3172,"modum":3173,"ĠEurop":3174,"apt":3175,"Ġiter":3176,"Ġvend":3177,"Ġrelic":3178,"iliter":3179,"Ġfacies":3180,"ĠMat":3181,"Ġpossim":3182,"ĠLa":3183,"Ġsolv":3184,"Ġunius":3185,"Ġpatre":3186,"Ġ185":3187,"Ġconfirm":3188,"Ġiustitiae":3189,"Ġformam":3190,"Ġextrem":3191,"Ġtabern":3192,"Ġpolit":3193,"35":3194,"åİ":3195,"icarum":3196,"Ġfirm":3197,"Ġconvers":3198,"Ġgoth":3199,"Ġapostol":3200,"Ġpossib":3201,"Ġminist":3202,"Ġ195":3203,"Ġconcess":3204,"Ġiustus":3205,"Ġpluribus":3206,"ĠCons":3207,"tis":3208,"Ġloque":3209,"udi":3210,"Ġfacilius":3211,"ĠPro":3212,"Ġessentiam":3213,"Ġputamus":3214,"uxit":3215,"Ġoperam":3216,"iz":3217,"Ñĩ":3218,"Ġinst":3219,"Ġdev":3220,"ala":3221,"ĠSto":3222,"ilii":3223,"Ġetiamsi":3224,"Ġipsorum":3225,"Ġsollic":3226,"Ġvenire":3227,"Ġoculi":3228,"Ġnecessitatibus":3229,"Ġbrev":3230,"Ġgothica":3231,"ps":3232,"rag":3233,"Î¹":3234,"errim":3235,"Ġnata":3236,"ĠAf":3237,"ĠSec":3238,"Ġdiceret":3239,"Ġunam":3240,"âĢĶ":3241,"Ġori":3242,"iosum":3243,"Ġcael":3244,"Ġsapientia":3245,"ho":3246,"iore":3247,"Ġx":3248,"ĠEs":3249,"ĠCol":3250,"Ġillae":3251,"Ġtuas":3252,"ĠMihi":3253,"ĠRe":3254,"Ġobl":3255,"Ġscripsi":3256,"Ġdixitque":3257,"Ġrepet":3258,"Ã¦c":3259,"Ġfidei":3260,"Ġcirciter":3261,"Ġbeatae":3262,"Ġdenique":3263,"Ġiucund":3264,"Ġque":3265,"aed":3266,"ĠSam":3267,"Ġgentes":3268,"Ġpatet":3269,"Ġdefend":3270,"ĠSancti":3271,"Ġultra":3272,"Ġscientia":3273,"Ġcupiditate":3274,"pp":3275,"ÏĦ":3276,"err":3277,"ines":3278,"emur":3279,"ĠPot":3280,"obus":3281,"Ġipsos":3282,"Ġvenerunt":3283,"Ġpraesentium":3284,"Ġservus":3285,"Ġeget":3286,"Ġimperator":3287,"Ġabsol":3288,"Ġvirtutis":3289,"Ġfructum":3290,"Ġvehem":3291,"Ġrevert":3292,"ota":3293,"ioribus":3294,"issimo":3295,"Ġdeduc":3296,"Ġdelectus":3297,"Ġfides":3298,"Ġdoctr":3299,"Ġaperiam":3300,"Ġspecies":3301,"ĠMaii":3302,"Ñı":3303,"Ġfiunt":3304,"ote":3305,"Ġconstr":3306,"ĠAcc":3307,"ella":3308,"ĠGen":3309,"ĠUbi":3310,"Ġobi":3311,"Ġnullam":3312,"Ġparticip":3313,"Ġiustitia":3314,"Ġsuspic":3315,"Ġadduc":3316,"Ġexplicabo":3317,"Ġproficisc":3318,"Ġort":3319,"Ġpron":3320,"ĠIII":3321,"ressi":3322,"ĠRomana":3323,"ĠAthen":3324,"Ġfratrem":3325,"ĠMart":3326,"Ġodit":3327,"Ġquanto":3328,"Ġadversus":3329,"Ġmiseric":3330,"tuor":3331,"ĠIlle":3332,"åİ¿":3333,"05":3334,"hi":3335,"mis":3336,"our":3337,"su":3338,"Ġsil":3339,"Ġsomn":3340,"itor":3341,"Ġcult":3342,"icula":3343,"Ġhor":3344,"ĠPol":3345,"Ġsedes":3346,"Ġcad":3347,"Ġprohib":3348,"ĠTur":3349,"Ġcommend":3350,"Ġusum":3351,"Ġappar":3352,"Ġactus":3353,"Ġlitterae":3354,"Ġsapientiae":3355,"Ġobserv":3356,"utis":3357,"Ġiuv":3358,"abantur":3359,"Ġincom":3360,"Ġeaque":3361,"Ġproport":3362,"Ġmorte":3363,"Ġtotius":3364,"Ġpublicam":3365,"Ġadiuv":3366,"Ġdemonst":3367,"Ad":3368,"circ":3369,"uus":3370,"uas":3371,"uimus":3372,"à«":3373,"itium":3374,"atim":3375,"onae":3376,"liv":3377,"ĠIt":3378,"ĠPers":3379,"ĠLe":3380,"Ġlegit":3381,"Ġdomi":3382,"alium":3383,"Ġrecus":3384,"Ġmoribus":3385,"Ġnocte":3386,"Ġmelior":3387,"34":3388,"uisset":3389,"ä¸":3390,"eribus":3391,"Ġexter":3392,"ubern":3393,"Ġ37":3394,"Ġannorum":3395,"Ã¢":3396,"ĠQ":3397,"Ġprorsus":3398,"Ġpraeterea":3399,"ĠPis":3400,"ellum":3401,"Ġconserv":3402,"ertum":3403,"ertur":3404,"âĢī":3405,"Ġfilia":3406,"Ġinterfic":3407,"Ġleges":3408,"Ġcommunia":3409,"iosam":3410,"Ġaltera":3411,"ĠChristus":3412,"Ġsalutem":3413,"Ġschol":3414,"ximus":3415,"Ġedit":3416,"ites":3417,"Ġdiximus":3418,"Ġantep":3419,"Ġsangu":3420,"Ġrecord":3421,"Ġlitterarum":3422,"Ġvestra":3423,"Ġsensu":3424,"Ġmutationem":3425,"Ġappellatur":3426,"Ġprocessus":3427,"Ġmunicip":3428,"Ġsaepius":3429,"Ġloqueb":3430,"Ġom":3431,"Ġcess":3432,"Ġmy":3433,"Ġhorum":3434,"ida":3435,"ĠScip":3436,"ipp":3437,"Ġpraetor":3438,"Ġillic":3439,"ĠNost":3440,"Ġconspectu":3441,"Ġoculos":3442,"Ġimpet":3443,"Ġgenera":3444,"Ġvocabul":3445,"Ġistud":3446,"Ġmalo":3447,"Ġcomprehend":3448,"Ġservi":3449,"Ġsubstantiae":3450,"ci":3451,"uras":3452,"Ġconp":3453,"Quae":3454,"Ġvelle":3455,"Ġconsc":3456,"essor":3457,"âĢľ":3458,"Ġsumpt":3459,"Ġmortui":3460,"Ġdebent":3461,"Ġperspic":3462,"Ð¸Ð":3463,"Ġsubstantiam":3464,"Ġviginti":3465,"piciatis":3466,"eor":3467,"uitur":3468,"Ġov":3469,"erius":3470,"Ġaeg":3471,"inibus":3472,"Ġnem":3473,"uro":3474,"aecati":3475,"ĠHel":3476,"ĠVal":3477,"ustra":3478,"Ġbonus":3479,"Ġregum":3480,"Ġnostrae":3481,"Ġtract":3482,"Ġ186":3483,"Ġdeleniti":3484,"Ġpraecepit":3485,"Ġconsequuntur":3486,"Ġducimus":3487,"Ġaqua":3488,"Ġfalsum":3489,"Ġtribun":3490,"Ġuniversa":3491,"Ġsacerdot":3492,"ĀĀ":3493,"Ġsis":3494,"Ġdy":3495,"Ġmente":3496,"abilia":3497,"ĠSuper":3498,"Ġperitus":3499,"Ġplerumque":3500,"Ġorn":3501,"Ġamici":3502,"Ġmagister":3503,"Ġconclus":3504,"retur":3505,"ĠXV":3506,"au":3507,"Ġur":3508,"itter":3509,"Ġindign":3510,"ices":3511,"olus":3512,"Ġquaeris":3513,"Ġanimum":3514,"Ġduod":3515,"Ġduas":3516,"ittere":3517,"Ġpueri":3518,"diu":3519,"ĠRomanus":3520,"Ġnovum":3521,"ĠItaliae":3522,"ermin":3523,"Ġepiscopalis":3524,"ĠVolupt":3525,"ierunt":3526,"Ġz":3527,"Ġsoli":3528,"Ġsese":3529,"ursum":3530,"Ġturb":3531,"Ġii":3532,"Ġconfic":3533,"Ġillorum":3534,"Ġhabeb":3535,"ĠMirum":3536,"ĠLeg":3537,"ĠRhod":3538,"Ġaccept":3539,"Ġminime":3540,"Ġlegis":3541,"Ġmultae":3542,"Ġelectus":3543,"Ġmemin":3544,"Ġfuga":3545,"Ġfactionis":3546,"Ġinventore":3547,"men":3548,"ria":3549,"rig":3550,"Ġcec":3551,"Ġcot":3552,"utio":3553,"Ġcondit":3554,"ĠMult":3555,"Ġsepar":3556,"Ġmagno":3557,"ientia":3558,"Ġlegibus":3559,"issimos":3560,"Ġ40":3561,"Ġlaborum":3562,"Ġnovi":3563,"Ġabsc":3564,"Ġpeccatum":3565,"ĠAliquam":3566,"',":3567,"ind":3568,"atore":3569,"Ġnub":3570,"Ġvox":3571,"Ġire":3572,"Ġvidet":3573,"Ġuir":3574,"Ġagitur":3575,"Ġbello":3576,"Ġdiscipuli":3577,"Ġaccusamus":3578,"Ġadminist":3579,"ĠAlp":3580,"âĢĿ.":3581,"Ġmotus":3582,"ĠSpiritus":3583,"Ġquattuor":3584,"Ġglad":3585,"31":3586,"48":3587,"Ã¨":3588,"ÏĤ":3589,"emor":3590,"Ġmont":3591,"utionem":3592,"Ġhae":3593,"entr":3594,"erest":3595,"Ġpraef":3596,"ĠPontific":3597,"Ġvides":3598,"Ġuerbum":3599,"Ġproeli":3600,"Ġ38":3601,"Ġnominis":3602,"Ġmemb":3603,"Ġjudic":3604,"Ġalterius":3605,"Ġvictor":3606,"Ġpersonae":3607,"Ġpaene":3608,"Ġterrarum":3609,"At":3610,"rius":3611,"Ġos":3612,"Ġty":3613,"eth":3614,"Ġexig":3615,"Ġpercip":3616,"Ġpraepos":3617,"Ġuen":3618,"Ġinteg":3619,"deo":3620,"Ġimped":3621,"Ġagit":3622,"Ġvocatur":3623,"ĠâĢ¢":3624,"Ġoccult":3625,"ĠComm":3626,"Ġaccipere":3627,"Ġmedio":3628,"Ġpacem":3629,"Ġproprie":3630,"PD":3631,"Ġdur":3632,"Ġmentem":3633,"Ġiuven":3634,"Ġretin":3635,"issa":3636,"ĠFilius":3637,"Ġpatri":3638,"Ġ35":3639,"ĠInfer":3640,"Ġnullus":3641,"Ġmoll":3642,"Ġcertum":3643,"Ġaetate":3644,"ĠProp":3645,"ĠXX":3646,"Ġpaenit":3647,"Ġpereg":3648,"ĠCatholicae":3649,"circo":3650,"ade":3651,"eum":3652,"ueris":3653,"art":3654,"Ġdig":3655,"Ġamore":3656,"Ġaliquot":3657,"ientem":3658,"Ġdecre":3659,"ĠIoannes":3660,"Ġspiritus":3661,"ĠIllud":3662,"ĠÂ»Â»":3663,"Ġassumenda":3664,"Ġmisericord":3665,"da":3666,"erere":3667,"Ġnoli":3668,"Ġline":3669,"ĠIst":3670,"Ġperfic":3671,"ĠNo":3672,"ĠRuss":3673,"Ġfuerint":3674,"Ġspes":3675,"Ġvoluptatum":3676,"Ġdedi":3677,"Ġoccas":3678,"Ġcaeli":3679,"Ġcogitare":3680,"Ġlectorum":3681,"Ġfructus":3682,"Ġimago":3683,".âĢĿ":3684,"natur":3685,"erta":3686,"Ġquarum":3687,"Ġinqu":3688,"Ġtit":3689,"eles":3690,"Ġconvert":3691,"ĠCuius":3692,"Ġuoc":3693,"Ġimagin":3694,"Ġviro":3695,"Ġistis":3696,"icumque":3697,"Ġactio":3698,"Ġfalsa":3699,"namicus":3700,"ĠPrimum":3701,"iginta":3702,"Cum":3703,"Ġquum":3704,"Ġdo":3705,"ial":3706,"ĠQuint":3707,"Ġgubern":3708,"ensio":3709,"Ġvolumus":3710,"Ġmagnus":3711,"Ġverbo":3712,"Ġscribam":3713,"Ġnotae":3714,"ĠGraeci":3715,"Ġartific":3716,"ĠZen":3717,"Ġadipiscing":3718,"Ġinterpret":3719,"Hoc":3720,"vent":3721,"Ġuit":3722,"Ġsita":3723,"atorem":3724,"ona":3725,"Ġmilia":3726,"aculum":3727,"abor":3728,"Ġcoep":3729,"ellae":3730,"Ġamor":3731,"ĠFeb":3732,"Ġtempor":3733,"Ġfiliorum":3734,"Ġinterdum":3735,"Ġoratione":3736,"Ġcivitates":3737,"Ġepiscopus":3738,"Ġcondita":3739,"Ġtertio":3740,"Ġsustin":3741,"Ġagnosc":3742,"44":3743,"ga":3744,"ppe":3745,"sent":3746,"tae":3747,"Ġcern":3748,"Ġmerit":3749,"ibulum":3750,"Ġadeo":3751,"ĠDem":3752,"Ġdierum":3753,"Ġfacie":3754,"ĠMan":3755,"Ġveni":3756,"Ġloquuntur":3757,"Ġcommunis":3758,"Ġtriginta":3759,"Ġ187":3760,"Ġdelic":3761,"ĠÐ¿":3762,"Ġinvicem":3763,"Ġfiduc":3764,"Ġpatria":3765,"Ġconsuetudium":3766,"ĠPetrum":3767,"'.":3768,"vol":3769,"Ïĥ":3770,"eras":3771,"arn":3772,"Ġsuff":3773,"Ġdicatur":3774,"ratum":3775,"ectae":3776,"ivum":3777,"ĠVel":3778,"ĠVerum":3779,"Ġquaereb":3780,"Ġcontemp":3781,"Ġminister":3782,"issimis":3783,"Ġmanibus":3784,"Ġsimilis":3785,"Ġmaximum":3786,"Ġvoluntas":3787,"Ġtabu":3788,"Ġgloria":3789,"Ġsignificat":3790,"Ġsermonem":3791,"Ġcolleg":3792,"Ġseptem":3793,"Ġadipisci":3794,"Ġdynamicus":3795,"nus":3796,"nae":3797,"pl":3798,"Ġore":3799,"isus":3800,"Ġpisc":3801,"Ġhas":3802,"Ġconstat":3803,"ĠSequ":3804,"Ġquippe":3805,"Ġvidemus":3806,"Ġub":3807,"ĠBo":3808,"Ġpublicus":3809,"Ġplacuit":3810,"Ġperspiciatis":3811,"Ġconvenit":3812,"Ġblanditiis":3813,"40":3814,"Ã³":3815,"Ġsod":3816,"imentum":3817,"Qui":3818,"raph":3819,"Ġlibri":3820,"Ġ31":3821,"Ġspem":3822,"Ġvoce":3823,"Ġiudicia":3824,"Ġdiscess":3825,"Ġconcup":3826,"Ġcarn":3827,"Ġhonor":3828,"ĠAmerica":3829,"Ġbeatum":3830,"ĠCaesaris":3831,"laritas":3832,"Ġfortuna":3833,"quaquam":3834,"Lorem":3835,"min":3836,"Ġquoc":3837,"isit":3838,"atos":3839,"Ġcentum":3840,"Ġdissim":3841,"anquam":3842,"abiles":3843,"ĠIust":3844,"rata":3845,"ectura":3846,"ĠMet":3847,"ĠVir":3848,"ertus":3849,"Ġdolorum":3850,"Ġvoluptates":3851,"Ġduos":3852,"Ġ48":3853,"Ġcapit":3854,"Ġoccid":3855,"103":3856,"Ġsaeculum":3857,"Ġordine":3858,"Ġquaestio":3859,"Ġalbum":3860,"ÑĮ":3861,"liam":3862,"Ġquoddam":3863,"Ġdicentes":3864,"Ġscimus":3865,"ĠTemp":3866,"Ġquaero":3867,"Ġnihilo":3868,"Ġloci":3869,"Ġoblig":3870,"Ġduobus":3871,"admodum":3872,"Ġpeculi":3873,"Ġdeclar":3874,"Ġoccident":3875,"Ġdomino":3876,"Ġordinem":3877,"asti":3878,"Ġadversum":3879,"Ġparva":3880,"Ġdamn":3881,"Ar":3882,"ain":3883,"Ġent":3884,"utem":3885,"ĠAlex":3886,"obiscum":3887,"Ġgreg":3888,"ĠNumquam":3889,"Ġhabetur":3890,"Ġabund":3891,"Ġexpet":3892,"Ġtoto":3893,"Ġfratribus":3894,"Ġabsque":3895,"Ġpraecipue":3896,"Ġfamiliae":3897,"Ġyou":3898,"Ġarbitror":3899,"Ġrepellendus":3900,"Ġadulesc":3901,"Ġdistinctio":3902,"IV":3903,"Ut":3904,"auc":3905,"cta":3906,"Ġá":3907,"Ġdap":3908,"Ġinitio":3909,"rep":3910,"Ġadmon":3911,"ĠDuo":3912,"Ġabi":3913,"Ġaccess":3914,"Ġmultos":3915,"Ġimprob":3916,"Ġamicus":3917,"Ġinvid":3918,"Ġvivit":3919,"Ġmatrem":3920,"Ġvideantur":3921,"Ġvisum":3922,"Ġvestrum":3923,"Ġdignum":3924,"Ġitin":3925,"ĠOmnis":3926,"Ġorientalis":3927,"Ġdapibus":3928,"46":3929,"bat":3930,"modo":3931,"icos":3932,"Ġtale":3933,"Ġiub":3934,"Ġfing":3935,"Ġrequir":3936,"ĠPy":3937,"ravit":3938,"ĠNemo":3939,"ientes":3940,"Ġintellectus":3941,"iose":3942,"Ġinfer":3943,"Ġcredo":3944,"ariant":3945,"?\"":3946,"rit":3947,"Ġâ":3948,"ĠÑģ":3949,"ones":3950,"onius":3951,"Ġventur":3952,"lium":3953,"olis":3954,"ĠSy":3955,"Ġfaciet":3956,"Ġpossis":3957,"Ġuer":3958,"ĠTer":3959,"Ġanimad":3960,"Ġsponte":3961,"Ġvoluptatibus":3962,"Ġ46":3963,"Ġ189":3964,"eptus":3965,"Ġoccurr":3966,"Ġnecessaria":3967,"Ġsapientiam":3968,"Ġlucem":3969,"Ġpulchra":3970,"Ã«":3971,"Ïģ":3972,"onus":3973,"Ġhodi":3974,"econom":3975,"Ġlap":3976,"anti":3977,"Ġfaceret":3978,"Ġnequaquam":3979,"ultus":3980,"ĠIns":3981,"Ġistam":3982,"Ġtrist":3983,"Ġappet":3984,"Ġpraeced":3985,"Ġinsip":3986,"Ġuxore":3987,"Ġsancti":3988,"Ġexercitus":3989,"Ġstudio":3990,"Ġullo":3991,"Ġfactae":3992,"Ġsermone":3993,"Ġdetermin":3994,"trib":3995,"Ġlaboriosam":3996,"Ġhosp":3997,"Ġele":3998,"Ġmom":3999,"Ġinuen":4000,"Ġhuc":4001,"Ġheres":4002,"arb":4003,"ibilis":4004,"ille":4005,"Ġsuav":4006,"ĠIV":4007,"ĠDixit":4008,"ĠQuomodo":4009,"ensa":4010,"Ġhabens":4011,"ĠMich":4012,"undem":4013,"Ġ45":4014,"Ġamicum":4015,"Ġamicis":4016,"Ġdivid":4017,"ĠâĢĶ":4018,"iosus":4019,"Ġoppos":4020,"Ġinvenire":4021,"ĠMarc":4022,"Ġspecie":4023,"Ġquanta":4024,"Ġpropriet":4025,"Ġnobiscum":4026,"Ġcasu":4027,"Ġcunctis":4028,"Ġuolunt":4029,"ĠFebru":4030,"--":4031,"38":4032,"Sa":4033,"iebam":4034,"lina":4035,"null":4036,"ogn":4037,"Ġare":4038,"inarum":4039,"Ġqualis":4040,"Ġder":4041,"utae":4042,"rect":4043,"arch":4044,"anam":4045,"iac":4046,"abuntur":4047,"Ġquoad":4048,"Ġidcirco":4049,"Ġconsili":4050,"overs":4051,"Ġdixisti":4052,"Ġall":4053,"Ġnumerus":4054,"Ġimposs":4055,"Ġsimili":4056,"Ġsimile":4057,"Ġ47":4058,"Ġistum":4059,"Ġelem":4060,"Ġoptimum":4061,"Ġpatribus":4062,"Ġsermonum":4063,"Ġeduc":4064,"Ġhabeant":4065,"Ġepistulam":4066,"Ġsimiliter":4067,"ĠLutetiae":4068,"eunt":4069,"rud":4070,"rot":4071,"Ġå":4072,"indic":4073,"Ġpres":4074,"arg":4075,"anos":4076,"Ġexhib":4077,"ĠPic":4078,"iliae":4079,"Ġquidquam":4080,"Ġuerum":4081,"erte":4082,"Ġintr":4083,"Ġpropterea":4084,"Ġfuerat":4085,"incidunt":4086,"Ġpati":4087,"aph":4088,"Ġolim":4089,"Ġdebeat":4090,"Ġappare":4091,"Ġpaulo":4092,"Ġpatriam":4093,"ĠApr":4094,"Ġcogitatione":4095,"ĠEuropae":4096,"??":4097,"Datum":4098,"nunt":4099,"Ã®":4100,"Îµ":4101,"Ġauct":4102,"Ġaeque":4103,"Ġcuncta":4104,"Ġfe":4105,"arc":4106,"ulas":4107,"ĠSu":4108,"ĠSol":4109,"ĠQuoniam":4110,"Ġveritate":4111,"Ġamare":4112,"Ġinterret":4113,"ĠOct":4114,"Ġnumerum":4115,"sumus":4116,"Ġgratiae":4117,"Ġnotum":4118,"Ġsequuntur":4119,"Ġcognoscere":4120,"ĠÃ¥":4121,"Ġcongreg":4122,"ĠIunii":4123,"49":4124,"Ġnatum":4125,"Ġmalis":4126,"aced":4127,"ĠCont":4128,"Ġhaberet":4129,"Ġvidebatur":4130,"Ġ32":4131,"Ġarb":4132,"Ġquemadmodum":4133,"Ġcivitatibus":4134,"Ġexcell":4135,"Ġdilect":4136,"Ġvehementer":4137,"Ġmollitia":4138,"86":4139,"plex":4140,"Ġvobiscum":4141,"Ġtincidunt":4142,"illim":4143,"Ġdeorum":4144,"Ġaliorum":4145,"ĠQuem":4146,"ĠNomen":4147,"ebo":4148,"Ġrursus":4149,"ĠVale":4150,"ientiam":4151,"Ġaudit":4152,"Ġdebitis":4153,"Ġ180":4154,"ĠâĢ¦":4155,"Ġeloqu":4156,"Ġcontrovers":4157,"Ġauctoritate":4158,"Ġmotum":4159,"Ġpollic":4160,"Ġarchit":4161,"200":4162,"Ita":4163,"Ġquale":4164,"Ġmare":4165,"Ġpraeb":4166,"Ġbapt":4167,"issum":4168,"ĠFort":4169,"ĠTro":4170,"Ġpleb":4171,"Ġlibris":4172,"ĠInc":4173,"ĠRomam":4174,"avitque":4175,"Ġtabulis":4176,"Ġgratias":4177,"Ġnova":4178,"Ġmolestias":4179,"Ġprincipes":4180,"ĠSanctum":4181,"Ġquicquid":4182,"ĠPraeterea":4183,"ĠChristo":4184,"Ġ*":4185,"Ġpre":4186,"Ġmore":4187,"lio":4188,"Ġprot":4189,"abilem":4190,"ĠEb":4191,"estas":4192,"Ġveritas":4193,"ellus":4194,"Ġsolet":4195,"Ġacceper":4196,"Ġmodus":4197,"Ġstip":4198,"atoris":4199,"Ġdoloribus":4200,"Ġcausis":4201,"Ġservum":4202,"Ġpraecept":4203,"Ġsapiente":4204,"uctio":4205,"Ġtanto":4206,"Ġmunus":4207,"Ġscientiae":4208,"Ġpriusquam":4209,"Ġspiritum":4210,"ĠNulla":4211,"usquam":4212,"Ġcathol":4213,"Ġfab":4214,"idum":4215,"Ġadven":4216,"abili":4217,"Ġconstant":4218,"ĠSum":4219,"ĠSit":4220,"ĠSem":4221,"Ġvidi":4222,"Ġidque":4223,"Ġparia":4224,"Ġinterest":4225,"Ġinterf":4226,"Ġliberi":4227,"ĠOm":4228,"Ġvitium":4229,"Ġtabulae":4230,"Ġcapite":4231,"iosa":4232,"Ġfratre":4233,"ĠItalia":4234,"inister":4235,"Ġeffectum":4236,"Ġrepellat":4237,"Ġlumen":4238,"ĠCicer":4239,"ĠAlexand":4240,"met":4241,"ĠY":4242,"Ġlig":4243,"Ġequidem":4244,"Ġquer":4245,"ors":4246,"une":4247,"Ġador":4248,"ĠNos":4249,"Ġpositum":4250,"ĠHab":4251,"Ġsolo":4252,"Ġrepudi":4253,"Ġinvenitur":4254,"Ġquaerimus":4255,"Ġpoena":4256,"ĠAlb":4257,"Ġmemoriae":4258,"Ġcorrupti":4259,"irat":4260,"å¸":4261,"Ġvex":4262,"arunt":4263,"ulerunt":4264,"edere":4265,"antis":4266,"Ġsuorum":4267,"ĠSch":4268,"Ġperc":4269,"Ġprog":4270,"ĠTar":4271,"Ġorationem":4272,"Ġlibrum":4273,"Ġlibenter":4274,"Ġard":4275,"ĠOb":4276,"Ġmultip":4277,"Ġprimis":4278,"Ġquemquam":4279,"ponitur":4280,"Ġsemen":4281,"Ġpopul":4282,"Ġoccaecati":4283,"Ġactionem":4284,"Ġsapiens":4285,"Ġinveni":4286,"Ġreliquit":4287,"Ġvirtutem":4288,"Ġsubiecto":4289,"Ġregni":4290,"Ġexemplum":4291,"ĠChristum":4292,"ĠAegypti":4293,"Ġmissus":4294,"ĠAcadem":4295,"Ġparentes":4296,"iem":4297,"Ġedic":4298,"inas":4299,"Ġprec":4300,"ialis":4301,"ela":4302,"Ġdefic":4303,"ecti":4304,"enses":4305,"isses":4306,"Ġrom":4307,"ello":4308,"ĠRep":4309,"Ġaccidit":4310,"fectum":4311,"fectus":4312,"ĠRoma":4313,"Ġrecta":4314,"Ġaetatis":4315,"asset":4316,"Ġdiligenter":4317,"Ġfaciendum":4318,"Ġbeata":4319,"Ġoppido":4320,"Ġaeternum":4321,"ioecesis":4322,"Ġeveniet":4323,"Ġoriunda":4324,"47":4325,"88":4326,"mi":4327,"ullius":4328,"illum":4329,"otus":4330,"ĠIdem":4331,"Ġdicamus":4332,"Ġbelli":4333,"rav":4334,"ĠMe":4335,"Ġviderunt":4336,"Ġamat":4337,"ĠBib":4338,"Ġpropon":4339,"Ġdixerit":4340,"Ġfecisse":4341,"Ġloquar":4342,"Ġimpl":4343,"Ġcommuni":4344,"Ġgenuit":4345,"Ġiudicem":4346,"Ġdivina":4347,"ercule":4348,"Ġdominum":4349,"ĠIesu":4350,"Ġpericulo":4351,"Ġpropositum":4352,"Ġsyll":4353,"Ġimpossibile":4354,"IT":4355,"Iac":4356,"by":4357,"ogo":4358,"Â«":4359,"Ã¶":4360,"Ġ)":4361,"eralis":4362,"Ġqual":4363,"Ġnusquam":4364,"Ġinp":4365,"icta":4366,"Ġvindic":4367,"omet":4368,"ĠCn":4369,"Ġdii":4370,"Ġpossent":4371,"ĠLig":4372,"Ġcub":4373,"episcop":4374,"ientibus":4375,"Ġ190":4376,"Ġamico":4377,"Ġdiscere":4378,"Ġfruct":4379,"illam":4380,"Ġdiligit":4381,"Ġpertinere":4382,"Ġpoet":4383,"Ġcognovit":4384,"Ġlign":4385,"ĠDecembris":4386,"ĠUrbs":4387,"ĠItal":4388,"ĠOctob":4389,"ry":4390,"Ġsat":4391,"aepe":4392,"Ġmense":4393,"Ġinius":4394,"Ġaddit":4395,"agina":4396,"atura":4397,"Ġscis":4398,"Ġabiit":4399,"Ġamant":4400,"Ġdixisset":4401,"Ġscribit":4402,"Ġmors":4403,"ĠArch":4404,"Ġsanctum":4405,"Ġsaeculi":4406,"Ġpertinent":4407,"Ġadmitt":4408,"Ġdispos":4409,"ĠKal":4410,"Ġaudivit":4411,"Ġspero":4412,"Ġcrud":4413,"ĠĠĠĠĠĠĠĠĠĠĠĠĠĠĠĠĠĠĠĠĠĠĠĠĠĠĠĠĠĠĠĠ":4414,"Ġquadr":4415,"Ġexpedita":4416,"pat":4417,"sec":4418,"Ġda":4419,"Ġdat":4420,"Ġmend":4421,"Ġinsign":4422,"Ġvulg":4423,"ariam":4424,"entio":4425,"ĠEv":4426,"irem":4427,"undo":4428,"Ġerud":4429,"Ġerga":4430,"ĠTex":4431,"Ġconsist":4432,"Ġliberis":4433,"Ġcuiusquam":4434,"Ġconfus":4435,"Ġpraeteritum":4436,"Ġprovident":4437,"Ġnegleg":4438,"Ġformae":4439,"Ġjam":4440,"ĠGraeciae":4441,"ĠJoh":4442,"ĠAmeric":4443,"Ġcontraria":4444,"ĠMaxim":4445,"Ġoperibus":4446,"Ġmirum":4447,"Ġliceat":4448,"Ġprofectus":4449,"ĠIpsum":4450,"Ġcreatura":4451,"Ġdexter":4452,"eorg":4453,"Ġconcupisc":4454,"Ġhodiern":4455,"Est":4456,"Ãª":4457,"usque":4458,"Ġinn":4459,"esimo":4460,"ĠIbi":4461,"ĠSocrat":4462,"ĠQuibus":4463,"Ġpoterat":4464,"Ġnef":4465,"Ġquadam":4466,"Ġrege":4467,"Ġoeconom":4468,"ressa":4469,"Ġtribus":4470,"Ġsancta":4471,"Ġamicos":4472,"Ġamicitiam":4473,"Ġcuique":4474,"rammat":4475,"Ġinfirm":4476,"Ġpraecl":4477,"Ġcaritas":4478,"Ġvisus":4479,"ĠLatin":4480,"ĠLatinam":4481,"Ð¾Ð»":4482,"Ġimperium":4483,"Ġplurimum":4484,"Ġlaudantium":4485,"Ġstatu":4486,"ĠIulius":4487,"Ġalienum":4488,"Ġsuccess":4489,"Ġauxilium":4490,"Mont":4491,"hem":4492,"iepiscop":4493,"var":4494,"ï¼":4495,"Ġ=":4496,"erre":4497,"Ġsort":4498,"Ġdidic":4499,"Ġinm":4500,"ides":4501,"acta":4502,"elis":4503,"ĠEl":4504,"Ġperhib":4505,"Ġfacio":4506,"Ġpraepar":4507,"Ġuis":4508,"ĠVest":4509,"Ġcommemor":4510,"Ġreges":4511,"atoribus":4512,"Ġmagnific":4513,"Ġcompet":4514,"Ġ2006":4515,"Ġconfit":4516,"Ġpraeclar":4517,"Ġsummo":4518,"Ġsummam":4519,"Ġintellegere":4520,"Ġstudium":4521,"Â».":4522,"Ġferre":4523,"Ġsecunda":4524,"Ġdifficult":4525,"erusalem":4526,"Ġaspernatur":4527,"ĠRespon":4528,"ĠAlpibus":4529,"100":4530,"oen":4531,"Î»":4532,"Ġpess":4533,"Ġnimis":4534,"Ġviae":4535,"Ġhora":4536,"olae":4537,"una":4538,"Ġlaus":4539,"Ġcondem":4540,"Ġquamdiu":4541,"ebas":4542,"ĠHodie":4543,"Ġvoluit":4544,"Ġrespic":4545,"Ġarm":4546,"Ġsemel":4547,"pex":4548,"Ġdivitiae":4549,"Ġiura":4550,"Ġapparet":4551,"ĠÐ²":4552,"Ġnamque":4553,"Ġprinceps":4554,"Ġ2016":4555,"ĠJes":4556,"Ġingredi":4557,"Ġgrad":4558,"Ġdoloremque":4559,"Ġaccusantium":4560,"Ġscientiam":4561,"Ġpaucis":4562,"Ġnimium":4563,"ĠFebruarii":4564,"Omn":4565,"lu":4566,"Ãł":4567,"Ġec":4568,"Ġaer":4569,"Ġpap":4570,"Ġfinis":4571,"imam":4572,"Ġrevers":4573,"Ġdeos":4574,"alt":4575,"ĠDuc":4576,"Ġdicas":4577,"ĠNorm":4578,"Ġsciam":4579,"Ġero":4580,"Ġtemporum":4581,"Ġesses":4582,"Ġfiliam":4583,"Ġduplic":4584,"ponere":4585,"ĠRomanum":4586,"Ġfrig":4587,"Ġexercitum":4588,"Ġtradit":4589,"Ġgloriae":4590,"Ġmetu":4591,"Ġalicui":4592,"Ġpedes":4593,"ĠSeptembris":4594,"Ġpretium":4595,"erer":4596,"Ġaurum":4597,"Ġmisi":4598,"orqu":4599,"Ġvad":4600,"Ġib":4601,"lid":4602,"Ġhinc":4603,"anem":4604,"endas":4605,"Quam":4606,"Ġfacias":4607,"iturus":4608,"ĠQuin":4609,"Ġuerb":4610,"ĠLingu":4611,"ĠTe":4612,"Ġregno":4613,"issimae":4614,"Ġtrium":4615,"Ġsanctific":4616,"ĠIoh":4617,"Ġflag":4618,"Ġdonec":4619,"Ġperfectum":4620,"Ġtertium":4621,"Ġincipit":4622,"Ġtestamentum":4623,"],":4624,"tio":4625,"Ð²":4626,"inia":4627,"Ġnut":4628,"Ġnig":4629,"Ġetc":4630,"Ġioc":4631,"ido":4632,"ĠDel":4633,"Ġdiut":4634,"estig":4635,"aturum":4636,"ĠQuot":4637,"ĠMol":4638,"ĠLab":4639,"Ġincred":4640,"Ġlegere":4641,"Ġvirg":4642,"Ġservit":4643,"Ġcaro":4644,"Ġcarnis":4645,"Ġordo":4646,"Ġmulieres":4647,"Ġimmo":4648,"Ġdubium":4649,"Ġrefert":4650,"Ġclaram":4651,"Ġdifficile":4652,"Ġutilitatem":4653,"Ġcontingit":4654,"ĠPontificatus":4655,"Ġcontempl":4656,"Ġanimadvert":4657,"Ġinterrete":4658,"45":4659,"mum":4660,"Ġnupt":4661,"Ġvinum":4662,"Ġtalem":4663,"reicae":4664,"Ġfun":4665,"oduct":4666,"ĠErat":4667,"ĠSex":4668,"itatio":4669,"Ġpraestant":4670,"iturum":4671,"Ġhabebit":4672,"Ġattin":4673,"Ġpotestas":4674,"ĠBor":4675,"Ġregio":4676,"Ġlegatum":4677,"Ġfecisset":4678,"Ġcurae":4679,"Ġexpugn":4680,"Ġiustum":4681,"Ġubique":4682,"Ġvirtutes":4683,"Ġappellantur":4684,"ĠThreicae":4685,"Ġmandata":4686,"Ġauctoritatem":4687,"Ġhonestum":4688,"Ġeffectus":4689,"Ġlumine":4690,"ĠNostri":4691,"å¸Ĥ":4692,"59":4693,"Franc":4694,"duc":4695,"hop":4696,"me":4697,"ns":4698,"Ã¼":4699,"ÉĻ":4700,"Ġ}":4701,"ins":4702,"Ġcit":4703,"Ġiud":4704,"elicet":4705,"tavit":4706,"Ġperg":4707,"Ġgr":4708,"undus":4709,"andus":4710,"Ġeram":4711,"Ġtex":4712,"Ġintu":4713,"Ġpropinqu":4714,"Ġloca":4715,"Ġobtin":4716,"Ġcuiusque":4717,"Ġdebere":4718,"Ġdebemus":4719,"Ġmortuum":4720,"Ġlatine":4721,"Ġmemoriam":4722,"Ġpuella":4723,"ĠAugusti":4724,"Ġcibum":4725,",'":4726,"41":4727,"ak":4728,"din":4729,"ek":4730,"nes":4731,"yl":4732,"Ġæ":4733,"stin":4734,"enc":4735,"Ġadopt":4736,"actus":4737,"Ġdicant":4738,"ipsum":4739,"Ġfacis":4740,"Ġpraedi":4741,"Ġgentibus":4742,"ĠMal":4743,"Ġamoris":4744,"isci":4745,"Ġconsent":4746,"Ġresist":4747,"iente":4748,"Ġveniunt":4749,"Ġdebetur":4750,"Ġexprim":4751,"Ġdesign":4752,"Ġcognitionem":4753,"Ġ50":4754,"Ġreceperunt":4755,"Ġmaiora":4756,"Ġcler":4757,"Ð°Ð½":4758,"Ġvestri":4759,"ĠGraece":4760,"Ġofficio":4761,"Ġfamilia":4762,"Ġsenect":4763,"Ġdubio":4764,"ĠCaesarem":4765,"ĠApostol":4766,"Ġoppida":4767,"Ġmetus":4768,"ĠReges":4769,"Ġpermitt":4770,"ĠNovembris":4771,"Ġtenebris":4772,"ĠNumquid":4773,"Ġrecusandae":4774,"Ġomitt":4775,"ĠHelv":4776,"ĠNormann":4777,"Hic":4778,"ai":4779,"á½":4780,"Ġeundem":4781,"erae":4782,"inn":4783,"Ġdatum":4784,"Ġtene":4785,"utione":4786,"Ġfav":4787,"Ġfons":4788,"och":4789,"otum":4790,"Ġsuus":4791,"Ġconcip":4792,"Ġdicebat":4793,"Ġsiue":4794,"Ġhabita":4795,"Ġposuit":4796,"ivis":4797,"Ġpotentiam":4798,"Ġvideretur":4799,"Ġnequit":4800,"Ġorationis":4801,"Ġobliv":4802,"Ġprimam":4803,"Ġ188":4804,"Ġinduc":4805,"Ġceteri":4806,"Ġtransl":4807,"ĠSicut":4808,"Ġcustodi":4809,"Ġlibertatem":4810,"Ġquarto":4811,"ĠStoici":4812,"ĠRhodano":4813,"Ġarchitecto":4814,"Ġrepudiandae":4815,"?'":4816,"Claritas":4817,"IX":4818,"Nihil":4819,"burg":4820,"Ã´":4821,"Ġago":4822,"Ġpasc":4823,"onam":4824,"entorum":4825,"antiam":4826,"ĠServ":4827,"ĠSyr":4828,"ĠCunt":4829,"Ġaliena":4830,"Ġgentium":4831,"Ġincid":4832,"Ġconsult":4833,"ĠVos":4834,"Ġsolis":4835,"Ġcresc":4836,"ĠOp":4837,"Ġsubt":4838,"Ġmanet":4839,"Ġmancip":4840,"Ġistius":4841,"ernia":4842,"ograph":4843,"raece":4844,"Ġcredunt":4845,"Ġnegat":4846,"Ġpast":4847,"Ġintellego":4848,"ectare":4849,"Ġdiscipulos":4850,"arentur":4851,"Ġcruc":4852,"ĠSeptentr":4853,"Ġrap":4854,"Ġconstructio":4855,"ĠPiso":4856,"Ġneminem":4857,"Ġsuffrag":4858,"Ġquocumque":4859,"Pr":4860,"nic":4861,"pagina":4862,"Ġï¿½":4863,"Ġinh":4864,"Ġtali":4865,"Ġtanquam":4866,"olo":4867,"Ġexst":4868,"ĠDi":4869,"ĠTunc":4870,"ĠVI":4871,"ĠVer":4872,"Ġtemplum":4873,"Ġresurre":4874,"Ġdomest":4875,"Ġactione":4876,"Ġtenere":4877,"Ġmatrim":4878,"Ġsensum":4879,"ÐµÐ½":4880,"Ġhumana":4881,"Ġcognoscit":4882,"Ġdiscipulis":4883,"Ġmilitum":4884,"ĠCaesare":4885,"ĠPhil":4886,"ĠApud":4887,"Ġaeterna":4888,"Ġtertia":4889,"Ġnegotium":4890,"ĠIlla":4891,"XXX":4892,"Ġnonnull":4893,"Ġduodecim":4894,"Ch":4895,"va":4896,"ze":4897,"Ø§":4898,"Ġaiunt":4899,"inium":4900,"aemon":4901,"oria":4902,"Ġvan":4903,"Ġvari":4904,"ose":4905,"anto":4906,"ĠCirc":4907,"Ġtuos":4908,"ĠMont":4909,"undia":4910,"Ġintro":4911,"ĠEtenim":4912,"Ġinfra":4913,"Ġclaus":4914,"Ġcredere":4915,"Ġfieret":4916,"Ġreduc":4917,"annis":4918,"Ġalteri":4919,"Ġaltero":4920,"Ġvirtutibus":4921,"Ġmedia":4922,"Ġpatriae":4923,"Ġsupplic":4924,"Ġempt":4925,"Ġostendit":4926,"ardia":4927,"Ġspiritu":4928,"ĠPraes":4929,"ĠAegypto":4930,"Ġmagistrat":4931,"Ġproximo":4932,"Ġfoedus":4933,"Ġpronunt":4934,"Ġloquebatur":4935,"ĠÂ»Â»Â»":4936,"Al":4937,"ER":4938,"Iacob":4939,"for":4940,"rupt":4941,"Äģ":4942,"Ġeae":4943,"itionis":4944,"Ġpud":4945,"Ġpas":4946,"ictus":4947,"able":4948,"asi":4949,"ions":4950,"ĠEum":4951,"Ġdicendi":4952,"ĠPor":4953,"Ġvellet":4954,"ĠVide":4955,"Ġsolent":4956,"Ġspon":4957,"Ġduxit":4958,"Ġvitia":4959,"Ġreman":4960,"Ġdesin":4961,"Ġreced":4962,"ĠRomanorum":4963,"ĠÐ¸":4964,"ĠÐ½":4965,"Ġcollig":4966,"Ġvideamus":4967,"Ġdocet":4968,"illae":4969,"Ġegestas":4970,"Ġnecessarium":4971,"Ġdignissimos":4972,"Ġconstitu":4973,"Ġaquas":4974,"Ġmulierem":4975,"Ġpersona":4976,"Ġdescend":4977,"ĠHispanicum":4978,"Ġnascitur":4979,"ĠVidetur":4980,"ĠTheod":4981,"Ġconsumm":4982,"Ġvuln":4983,"Ġfrequenter":4984,"ĠTurc":4985,"aur":4986,"man":4987,"Ġaus":4988,"item":4989,"isque":4990,"Ġpict":4991,"onio":4992,"Ġdulc":4993,"Ġinstr":4994,"aro":4995,"unque":4996,"abus":4997,"ĠSen":4998,"ĠSax":4999,"ipot":5000,"ĠNesc":5001,"undi":5002,"Ġui":5003,"Ġimb":5004,"ĠGeorg":5005,"Ġlibros":5006,"Ġpartic":5007,"Ġcuiquam":5008,"Ġcompl":5009,"Ġintellex":5010,"ĠArv":5011,"Ġsanctorum":5012,"Ġaccipi":5013,"Ġignis":5014,"Ġconstituta":5015,"Ġproced":5016,"Ġadmirat":5017,"Ġquanti":5018,"ĠThom":5019,"ĠLibero":5020,"Ġsoror":5021,"Ġviol":5022,"Ġsimpliciter":5023,"Ġdifferentia":5024,"Ġfelic":5025,"ãĢģ":5026,"ĠSecundum":5027,"ĠMartii":5028,"ĠTexiae":5029,"82":5030,"Hispan":5031,"Ġ+":5032,"Ġpell":5033,"odum":5034,"anorum":5035,"ole":5036,"Ġutuntur":5037,"anta":5038,"Ġdestr":5039,"allic":5040,"ĠAustr":5041,"ĠSent":5042,"Ġvidelicet":5043,"ĠLectura":5044,"ĠTusc":5045,"Ġsole":5046,"ĠBe":5047,"Ġcontent":5048,"Ġcord":5049,"Ġlegi":5050,"Ġnaturalis":5051,"Ġcommunic":5052,"Ġacta":5053,"Ġpartim":5054,"Ġnominatus":5055,"Ġdeclin":5056,"Ġpuerum":5057,"ĠRomanis":5058,"ĠÐº":5059,"ĠGraecis":5060,"ĠJud":5061,"Ġiussit":5062,"Ġtestis":5063,"Ġreliquum":5064,"Ġpeti":5065,"Ġquaestionem":5066,"quiesc":5067,"Ð¾Ð²":5068,"Ġtenebrae":5069,"ĠCicero":5070,"Ġpenitus":5071,"\"\\\"\\\"\\\"\\\"\\\"\\\"\\\"\\\"\\\"\\\"\\\"\\\"\\\"\\\"\\\"\\\"\\\"\\\"\\\"\\\"\\\"\\\"\\\"\\\"\\\"\\\"\\\"\\\"\\\"\\\"\\\"\\":5072,"Ġadministrat":5073,".]":5074,"uf":5075,"eria":5076,"aen":5077,"olum":5078,"Ġconst":5079,"ĠSin":5080,"ĠSac":5081,"ĠCamp":5082,"Ġbr":5083,"ominus":5084,"ĠHen":5085,"ĠHuius":5086,"ĠFret":5087,"ĠBel":5088,"Ġanimalia":5089,"Ġfecimus":5090,"Ġincolae":5091,"ada":5092,"Ġ44":5093,"Ġexcus":5094,"Ġvoluntatis":5095,"Ġvirtutum":5096,"Ġconiung":5097,"Ġprocul":5098,"Ġproduc":5099,"ĠPlac":5100,"Ġcolloqu":5101,"Ġchr":5102,"Ġdilectus":5103,"Ġdimitt":5104,"own":5105,"ĠMoses":5106,"Ġiniuriam":5107,"Ġcotidie":5108,"56":5109,"70":5110,"][":5111,"bo":5112,"hor":5113,"rom":5114,"rium":5115,"val":5116,"Ġquandam":5117,"atium":5118,"Ġcaec":5119,"Ġmatur":5120,"orium":5121,"Ġtalia":5122,"Ġhunt":5123,"entissime":5124,"Ġutile":5125,"ĠAene":5126,"ĠSab":5127,"ĠDum":5128,"ips":5129,"Ġfacto":5130,"Ġgign":5131,"ivae":5132,"ĠMC":5133,"Ġpoteris":5134,"Ġpotentiae":5135,"Ġvelut":5136,"ĠHeb":5137,"ĠHuic":5138,"Ġnex":5139,"Ġessentiae":5140,"ĠBal":5141,"Ġcommut":5142,"ĠNonne":5143,"ogen":5144,"sequi":5145,"Ġintellectum":5146,"ĠAtqui":5147,"Ġinform":5148,"Ġsaltem":5149,"Ġuxores":5150,"Ġintellegi":5151,"Ġconstituit":5152,"ĠAbrah":5153,"ĠPatrem":5154,"ĠSanctus":5155,"ationi":5156,"ĠPetrus":5157,"Ġargumentum":5158,"ĠOctobris":5159,"Ġiudex":5160,"lav":5161,"mata":5162,"uers":5163,"yri":5164,"Ġeandem":5165,"Ġpun":5166,"icas":5167,"Ġvicus":5168,"esper":5169,"aribus":5170,"ecerunt":5171,"ĠAem":5172,"ĠCras":5173,"Ġperfer":5174,"Ġbarb":5175,"Ġgrammat":5176,"Ġpotuerunt":5177,"ĠLud":5178,"ĠFuit":5179,"Ġnumer":5180,"Ġoculus":5181,"Ġoctav":5182,"Ġcausas":5183,"Ġ49":5184,"Ġcapere":5185,"Ġamicorum":5186,"Ġactiones":5187,"Ġcredimus":5188,"Ġnovam":5189,"iensis":5190,"itiarum":5191,"ĠPatre":5192,"ĠIesum":5193,"Ġcontinentur":5194,"Ġporno":5195,"Ġforo":5196,"Ġcelerit":5197,"Ġcolloc":5198,"Ġpericulum":5199,"Ġpalam":5200,"Ġpaupert":5201,"Ġpoliticarum":5202,"Ġsodalis":5203,"Ġcarnem":5204,"Saint":5205,"Ġsimilique":5206,"Ġappareat":5207,"Ġcondemn":5208,"ĠArvernia":5209,"ba":5210,"sal":5211,"àµ":5212,"ity":5213,"itos":5214,"Ġpe":5215,"atia":5216,"atius":5217,"Ġcav":5218,"Ġnud":5219,"Ġfat":5220,"ĠEodem":5221,"Ġpercus":5222,"Ġfaciant":5223,"ĠPap":5224,"Ġger":5225,"Ġposita":5226,"Ġscand":5227,"Ġeiusmodi":5228,"ebunt":5229,"ĠLoth":5230,"ĠRerum":5231,"ubi":5232,"Ġcontend":5233,"Ġsecus":5234,"Ġregi":5235,"Ġveniat":5236,"ĠOcc":5237,"Ġimpos":5238,"Ġimport":5239,"Ġillumin":5240,"Ġbenevol":5241,"Ġdomini":5242,"Ð¾ÑĤ":5243,"poss":5244,"Ġmunere":5245,"Ġsingulis":5246,"Ġprodest":5247,"Ġnolite":5248,"Ġeffug":5249,"Ġexcepturi":5250,"Ġinstrum":5251,"Ġdemonstrat":5252,"ĠPicardia":5253,"Prae":5254,"ail":5255,"cis":5256,"uerat":5257,"Ã¤":5258,"ÏĢ":5259,"Ġquint":5260,"ono":5261,"Ġdile":5262,"Ġvixit":5263,"Ġfiant":5264,"uniae":5265,"antiae":5266,"ĠAct":5267,"ĠCet":5268,"ĠCui":5269,"itata":5270,"Ġpossem":5271,"Ġrogo":5272,"Ġamitt":5273,"Ġvoluerunt":5274,"Ġregionem":5275,"Ġmans":5276,"Ġnosse":5277,"ĠAnd":5278,"Ġrationes":5279,"Ġurbibus":5280,"Ġmaled":5281,"Ġ56":5282,"Ġconcord":5283,"Ġinsula":5284,"Ġresponsum":5285,"ĠGraecos":5286,"Ġiusta":5287,"Ġmedium":5288,"Ġprocur":5289,"Ġmenses":5290,"Ġsacram":5291,"ĠAliter":5292,"ĠApoll":5293,"ĠPlat":5294,"Ġpace":5295,"Ġmira":5296,"Ġlacrim":5297,"Ġnarrat":5298,"Ġperfecta":5299,"Ġfiguras":5300,"Ġsempiternum":5301,"ĠNoe":5302,"Ġmultiplic":5303,"Ġattinet":5304,"ĠBoruss":5305,"do":5306,"tam":5307,"Åį":5308,"á»":5309,"erno":5310,"Ġso":5311,"Ġcat":5312,"ory":5313,"Ġinest":5314,"Ġetenim":5315,"entior":5316,"Ġlo":5317,"ĠAquit":5318,"raverunt":5319,"ivid":5320,"Ġpotui":5321,"ĠFT":5322,"Ġmaj":5323,"Ġorig":5324,"Ġarma":5325,"uliel":5326,"Ġviris":5327,"Ġlocuti":5328,"ires":5329,"Ġdolere":5330,"Ġspe":5331,"Ġocto":5332,"Ġaudac":5333,"iatio":5334,"Ġration":5335,"Ġurbes":5336,"Ġsuperb":5337,"Ġapplic":5338,"Ġpuero":5339,"Ġinsid":5340,"Ġdefunct":5341,"Ġnescit":5342,"Ġtranse":5343,"Ġhonorem":5344,"Ġ179":5345,"Ġignosc":5346,"Ġoportere":5347,"Ġfluv":5348,"numer":5349,"Ġevangeli":5350,"Ġaudivimus":5351,"Ġlicebit":5352,"Ġdescrip":5353,"Ġlacus":5354,"ĠPaulus":5355,"Ġtemper":5356,"Ġá¼":5357,"ĠNormannia":5358,"Hispanice":5359,"79":5360,"@Ą":5361,"Ali":5362,"Post":5363,"VI":5364,"ah":5365,"hon":5366,"oec":5367,"pot":5368,"ä»":5369,"Ġnulli":5370,"Ġmox":5371,"Ġmonte":5372,"Ġfine":5373,"olv":5374,"Ġleo":5375,"aci":5376,"actum":5377,"abimus":5378,"illi":5379,"ĠDiet":5380,"Ġmeas":5381,"itatur":5382,"ĠPraec":5383,"Ġsedis":5384,"andis":5385,"Ġvideat":5386,"ĠTamen":5387,"iscus":5388,"Ġplan":5389,"Ġplant":5390,"Ġfui":5391,"Ġliberum":5392,"Ġdixisse":5393,"Ġmanere":5394,"Ġsemet":5395,"Ġpraesentia":5396,"Ġvocant":5397,"Ġputant":5398,"Ġdivitias":5399,"Ġdesiderat":5400,"Ġdoct":5401,"sitan":5402,"Ġcerto":5403,"ĠJo":5404,"Ġimperii":5405,"Ġsusp":5406,"Ġconiug":5407,"ĠConf":5408,"ĠApp":5409,"Ġnoct":5410,"Ġthes":5411,"Ġtribu":5412,"Ġpactum":5413,"Ġvetust":5414,"Ġmotu":5415,"Ġpraestare":5416,"ĠImmo":5417,"Ġsimilitudinem":5418,"Ġbenign":5419,"Ġmanifestum":5420,"Ġvulgo":5421,"à«¨":5422,"Ġfiducia":5423,"Ġmomenti":5424,"ĠAprilis":5425,"byter":5426,"Ġcrudel":5427,"Ġceleriter":5428,"43":5429,"ca":5430,"lend":5431,"mitt":5432,"pta":5433,"sed":5434,"uos":5435,"yc":5436,"yn":5437,"ÂŃ":5438,"ÌĦ":5439,"ÙĪ":5440,"atto":5441,"Ġcito":5442,"Ġmentis":5443,"ibilia":5444,"ock":5445,"ĠCumque":5446,"ĠDom":5447,"ĠDie":5448,"Ġcoeperunt":5449,"Ġhabitavit":5450,"ebamus":5451,"Ġverbi":5452,"Ġipsae":5453,"Ġattrib":5454,"Ġplena":5455,"ove":5456,"Ġfeceris":5457,"Ġvenisset":5458,"Ġviros":5459,"Ġvocavit":5460,"Ġputa":5461,"Ġexpect":5462,"Ġcomput":5463,"ĠRomanos":5464,"Ġdoctor":5465,"Ġabsur":5466,"Ġhonore":5467,"Ġmedioc":5468,"Ġstudia":5469,"Ġwith":5470,"Ġlongius":5471,"Ġintelligi":5472,"Ġintelligere":5473,"Ġpeccata":5474,"Ġimmort":5475,"ĠIulia":5476,"Ġhabeam":5477,"Ġnuntia":5478,"Ġcasus":5479,"Ġgesta":5480,"Ġnavig":5481,"Ġaffectus":5482,"Ġbaptiz":5483,"ĠOmne":5484,"ĠMCM":5485,"42":5486,"57":5487,"AT":5488,"Cur":5489,"dom":5490,"pa":5491,"ton":5492,"Åĵ":5493,"Îº":5494,"Ð¿":5495,"äº":5496,"Ġcentes":5497,"Ġdabo":5498,"orsum":5499,"iculum":5500,"Ġfauc":5501,"esiae":5502,"unae":5503,"ĠQuir":5504,"ensem":5505,"ĠMaria":5506,"Ġ(-":5507,"elle":5508,"Ġcujus":5509,"ĠBen":5510,"Ġregionis":5511,"erisque":5512,"Ġloquimur":5513,"Ġmagnae":5514,"Ġmagnitudo":5515,"Ġputat":5516,"Ġcursus":5517,"Ġcivium":5518,"Ġecclesiis":5519,"ĠFrancicus":5520,"Ġsentire":5521,"Ġgratis":5522,"Ġinvoc":5523,"Ġclass":5524,"Ġ70":5525,"Ġpersuas":5526,"Ġoppugn":5527,"Ġprobare":5528,"Ġfrustra":5529,"ĠMarcus":5530,"Ġordinis":5531,"Ġdisplic":5532,"Ġrectum":5533,"Ġdemum":5534,"Ġdistingu":5535,"Ġporta":5536,"Ġmonst":5537,"ĠPostea":5538,"Ġaccepimus":5539,"Ġavar":5540,"Ġhostes":5541,"ĠCatala":5542,"Ġconviv":5543,"ĠSpiritum":5544,"Ġarchiepiscop":5545,"Ġdemonstr":5546,"Ġnatos":5547,"ĠCaput":5548,"Ġascend":5549,"ĠEnn":5550,"Ġsubsist":5551,"Ġextremum":5552,"Ġdoctrina":5553,"Ġmyst":5554,"Ego":5555,"iatis":5556,"uerint":5557,"yd":5558,"Ä«":5559,"Ð´":5560,"Ð¼":5561,"ĠÄ":5562,"Ġé":5563,"Ġumb":5564,"umentum":5565,"Ġfrum":5566,"ars":5567,"iderit":5568,"Ġadsum":5569,"ack":5570,"Ġutinam":5571,"ĠSoc":5572,"ĠSaepe":5573,"Ġomnipot":5574,"Ġmeos":5575,"Ġdicendo":5576,"ĠQuando":5577,"ĠNisi":5578,"ĠMulta":5579,"unde":5580,"Ġverius":5581,"ĠLae":5582,"Ġeris":5583,"Ġamo":5584,"Ġunquam":5585,"epi":5586,"issimam":5587,"Ġobt":5588,"Ġ43":5589,"onto":5590,"dixit":5591,"Ġfru":5592,"rehens":5593,"Ġsanctus":5594,"Ġimperio":5595,"Ġingressi":5596,"olia":5597,"Ġdignitate":5598,"Ġexercitu":5599,"pectum":5600,"Ġliberos":5601,"Ġcupio":5602,"Ġmateriae":5603,"ĠPhara":5604,"ĠPhaed":5605,"Ġtradidit":5606,"ĠAntioc":5607,"Ġrevoc":5608,"Ġfeminae":5609,"Ġmeridi":5610,"Ġadulter":5611,"ÑģÑĤÐ¸":5612,"Ġinfinitum":5613,"ĠCatalauniae":5614,"US":5615,"den":5616,"ien":5617,"rica":5618,"Ñħ":5619,"itorum":5620,"amentum":5621,"Ġfra":5622,"ĠhÃ¦c":5623,"arer":5624,"ularum":5625,"Ġlen":5626,"ĠEz":5627,"ĠDioecesis":5628,"Ġmeorum":5629,"tax":5630,"ĠQuorum":5631,"ilior":5632,"Ġpossibile":5633,"Ġvelis":5634,"ineat":5635,"Ġvenerit":5636,"Ġsimilia":5637,"Ġsimplex":5638,"ĠAnglic":5639,"ĠAnnis":5640,"ĠÐļ":5641,"iosi":5642,"Ġmaioris":5643,"Ġpraeceptum":5644,"Ġlinguis":5645,"Ð¾ÑĢ":5646,"ĠConc":5647,"Ġtantae":5648,"ĠFoederalis":5649,"Ġconvenire":5650,"Ġpulchr":5651,"Ġfamiliar":5652,"Ġpersonam":5653,"Ġperman":5654,"Ġbibendum":5655,"Ġgaudio":5656,"Ġcalam":5657,"Ġconsuetudo":5658,"Ġopinor":5659,"Ġrevel":5660,"price":5661,"Ġimaginem":5662,"rinsec":5663,"Ġfaucibus":5664,"60":5665,"aut":5666,"xerunt":5667,"erium":5668,"Ġaffic":5669,"Ġpiet":5670,"Ġnit":5671,"Ġnuper":5672,"Ġinquis":5673,"Ġvas":5674,"utrum":5675,"Ġiunct":5676,"aring":5677,"edi":5678,"anter":5679,"ĠPort":5680,"issemus":5681,"Ġvolut":5682,"ĠVII":5683,"Ġaccur":5684,"ĠBest":5685,"ĠBeat":5686,"Ġcontum":5687,"rans":5688,"Ġsplend":5689,"ĠUN":5690,"Ġobiit":5691,"Ġmane":5692,"Ġ41":5693,"Ġpraesum":5694,"Ġvocari":5695,"stitit":5696,"Ġsicuti":5697,"Ġpopulos":5698,"Ġservos":5699,"Ġgratum":5700,"Ġfratri":5701,"Ġdocuit":5702,"ĠLatinae":5703,"Ġsaecula":5704,"ÐµÑĤ":5705,"Ġlongum":5706,"Ġtanti":5707,"Ġpoeta":5708,"Ġmovetur":5709,"Ġefficitur":5710,"Ġmandatum":5711,"Ġpulcherrim":5712,"Ġrespondens":5713,"Ġreddere":5714,"Ġgaudium":5715,"Ġnegotio":5716,"Ġconsuetudinem":5717,"Ġcopia":5718,"Ġinimic":5719,"Ġpuellae":5720,"Ġambig":5721,"Ġcontemn":5722,"ÑĩÐ°":5723,"Ġcaelorum":5724,"Ġproportio":5725,"Ġchristi":5726,"@Ąą":5727,"IC":5728,"mae":5729,"uer":5730,"vid":5731,"Ġ$":5732,"Ġster":5733,"Ġcam":5734,"Ġcod":5735,"orp":5736,"Ġinop":5737,"Ġvade":5738,"omm":5739,"ilitate":5740,"ĠEph":5741,"ĠCam":5742,"ĠCerte":5743,"Ġbore":5744,"ĠPublic":5745,"ectio":5746,"Ġtuorum":5747,"Ġveluti":5748,"Ġvidimus":5749,"ĠLu":5750,"arios":5751,"esset":5752,"ĠGuliel":5753,"Ġcomment":5754,"Ġcommitt":5755,"ientiae":5756,"Ġnosti":5757,"Ġprimogen":5758,"Ġpraesentem":5759,"Ġvoces":5760,"Ġiudicare":5761,"Ġdesid":5762,"Ġ57":5763,"Ġsentio":5764,"Ġservo":5765,"Ġscribo":5766,"Ġvivunt":5767,"Ġcarne":5768,"Ġdefens":5769,"Ġtrah":5770,"ĠConsequ":5771,"Ġpropriam":5772,"Ġadmir":5773,"ĠPatris":5774,"Ġthat":5775,"Ġaudierit":5776,"Ġphilosophus":5777,"Ġexemplar":5778,"ationum":5779,"Ġdisser":5780,"Ġepistula":5781,"Ð¾Ð¼":5782,"Ð°Ð¿":5783,"Ġnarr":5784,"Ġradic":5785,"Ġirr":5786,"Ġpossibilia":5787,"Ġobiectum":5788,"Ġmunicipium":5789,"Ġmendac":5790,"Tor":5791,"guis":5792,"son":5793,"Ġquicumque":5794,"urn":5795,"Ġferm":5796,"Ġhave":5797,"osa":5798,"Ġadt":5799,"otae":5800,"ĠAch":5801,"ĠCel":5802,"Ġdiceretur":5803,"endos":5804,"Ġhaberi":5805,"Ġru":5806,"eritas":5807,"Ġvoluerit":5808,"ĠĠĠ":5809,"Ġsubl":5810,"Ġagendum":5811,"Ġistae":5812,"Ġcives":5813,"ĠRomano":5814,"Ġmaioribus":5815,"Ġingressus":5816,"Ġaccipit":5817,"Ġsubiecta":5818,"Ġaequum":5819,"Ġlucet":5820,"Ġfornic":5821,"Ġantiqua":5822,"Ġphilosophiae":5823,"Ġdissensio":5824,"ĠAegyptum":5825,"Ġhoneste":5826,"Ġ//":5827,"Ġcognov":5828,"Ġiucundum":5829,"Ġcastra":5830,"Ġfigura":5831,"ropter":5832,"Ġpoenam":5833,"Ġbeneficium":5834,"ĠMoys":5835,"ĠImperii":5836,"Ġantepon":5837,"Ġquadraginta":5838,"ĠMolest":5839,"ĠEzech":5840,"67":5841,"Ecce":5842,"cit":5843,"eus":5844,"mut":5845,"vel":5846,"Î·":5847,"erter":5848,"invent":5849,"Ġpign":5850,"Ġcent":5851,"Ġdid":5852,"empt":5853,"Ġfont":5854,"Ġhercule":5855,"Ġrede":5856,"sel":5857,"Ġquodcumque":5858,"ĠIgitur":5859,"ĠCant":5860,"Ġsig":5861,"ĠMus":5862,"ebis":5863,"Ġquoquo":5864,"Ġuide":5865,"Ġuiu":5866,"Ġrid":5867,"ĠHis":5868,"ĠFab":5869,"Ġaliqui":5870,"Ġconson":5871,"ĠVis":5872,"Ġuni":5873,"Ġintus":5874,"Ġnostros":5875,"Ġsimiles":5876,"Ġ42":5877,"Ġpraesenti":5878,"Ġputet":5879,"uxerunt":5880,"Ġdivin":5881,"ogallic":5882,"Ġcorpora":5883,"remo":5884,"Ġ69":5885,"Ġresponde":5886,"Ġuxoris":5887,"Ġduce":5888,"Ġdigna":5889,"Ġpetere":5890,"Ġindivid":5891,"Anno":5892,"Ġfals":5893,"Ġbeati":5894,"Ġveteres":5895,"Ġpossessio":5896,"Ġartis":5897,"ĠGalli":5898,"Ġattend":5899,"Ġalieno":5900,"Ġ1946":5901,"Ġsinist":5902,"Ġmerced":5903,"ologiae":5904,"Ġnascuntur":5905,"Ġsocietatem":5906,"Ġiniuria":5907,"ĠAristot":5908,"ĠAfric":5909,"Ġperegrin":5910,".:":5911,"hn":5912,"ik":5913,"mp":5914,"rici":5915,"ĠÅ":5916,"quot":5917,"Ġstare":5918,"isiones":5919,"Ġpontific":5920,"Ġcand":5921,"Ġcerta":5922,"oram":5923,"Ġtol":5924,"Ġfung":5925,"imini":5926,"Ġprodi":5927,"Ġadeptus":5928,"ilitatis":5929,"Ġfacerem":5930,"Ġbis":5931,"nov":5932,"ivo":5933,"Ġversus":5934,"Ġvellem":5935,"Ġvidisset":5936,"Ġrob":5937,"Ġconsiderat":5938,"ĠVic":5939,"Ġintent":5940,"Ġbonae":5941,"Ġvenen":5942,"Ġmultas":5943,"Ġduabus":5944,"Ġmaximam":5945,"entesimo":5946,"elium":5947,"ĠÐ´":5948,"Ġtenet":5949,"Ġ2013":5950,"Ġopprim":5951,"Ġexcel":5952,"Ġprincipia":5953,"Ġsancto":5954,"Ġnecessario":5955,"Ġlaudem":5956,"Ġsenatu":5957,"Ġlonga":5958,"Ġproprio":5959,"Ġmunera":5960,"ĠGermania":5961,"Ġdonum":5962,"Ġefficit":5963,"Ġforsitan":5964,"Ġfinibus":5965,"Ġcanon":5966,"Ġaccepi":5967,"Ġdefinitio":5968,"renae":5969,"Ġdisper":5970,"Ġlaetitia":5971,"ĠEpicuri":5972,"Ġnouit":5973,"riusque":5974,"ĠInferiori":5975,"ĠAquitania":5976,"cere":5977,"ef":5978,"eu":5979,"ricus":5980,"Ġë":5981,"ĠÃ¦":5982,"Ġsect":5983,"itiones":5984,"onii":5985,"Ġtang":5986,"real":5987,"lix":5988,"Ġhom":5989,"entiis":5990,"Ġredem":5991,"acula":5992,"ilitas":5993,"ĠIap":5994,"Ġexaud":5995,"Ġperse":5996,"Ġilluc":5997,"Ġsciat":5998,"Ġquidd":5999,"ĠMiss":6000,"Ġapt":6001,"ĠRhen":6002,"ĠVIII":6003,"ĠEadem":6004,"Ġmaiorum":6005,"ĠBurg":6006,"âĢĵ":6007,"ight":6008,"Ġinteresse":6009,"Ġresid":6010,"Ġpatres":6011,"Ġdoloris":6012,"Ġ--":6013,"Ġmansit":6014,"Ġcommunem":6015,"Ġurbicula":6016,"Ġcivis":6017,"Ġdecern":6018,"Ġ59":6019,"Ġconfess":6020,"ĠÐ¾":6021,"Ġpersec":6022,"Ġpraeterita":6023,"Ġvideor":6024,"Ġconsequi":6025,"Ġpraefectus":6026,"Ġducere":6027,"Ġgradus":6028,"Ġullum":6029,"Ġconstitutum":6030,"Ġpraedicatur":6031,"Ġfaciatis":6032,"Ġfaciebat":6033,"Ġquinqu":6034,"ãģ®":6035,"Ġaequo":6036,"ĠPhili":6037,"Ġsingula":6038,"Ġperfectio":6039,"Ġexemplo":6040,"ĠPostquam":6041,"Ġcorrig":6042,"product":6043,"Ġquartum":6044,"ĠIpse":6045,"Ġcelebr":6046,"Ġperturb":6047,"Ġdevor":6048,"ĠEsse":6049,"ĠEbor":6050,"ĠJohn":6051,"ĠPhaedrum":6052,"VIII":6053,"best":6054,"nde":6055,"ym":6056,"Ġol":6057,"Ġurg":6058,"Ġeb":6059,"Ġsag":6060,"Ġsimus":6061,"Ġsati":6062,"Ġpom":6063,"Ġpeperit":6064,"onensi":6065,"Ġvar":6066,"Ġlectus":6067,"abar":6068,"ĠEius":6069,"ĠAud":6070,"ĠSel":6071,"Ġdicebant":6072,"itatione":6073,"Ġbl":6074,"ĠPal":6075,"Ġcoh":6076,"Ġhabitus":6077,"ĠMil":6078,"ĠMaced":6079,"Ġpoterunt":6080,"Ġprofer":6081,"ĠTert":6082,"ĠTorqu":6083,"Ġincon":6084,"ĠBer":6085,"Ġorta":6086,"Ġrescrip":6087,"Ġliberat":6088,"eriis":6089,"Ġfecerat":6090,"ĠInde":6091,"ĠOpt":6092,"Ġterm":6093,"dict":6094,"ugiat":6095,"Ġcomplect":6096,"Ġinsulae":6097,"Ġmemini":6098,"Ġsalus":6099,"ĠUnivers":6100,"Ġcontrario":6101,"Ġepiscopi":6102,"quisque":6103,"Ġturpe":6104,"Ġluxur":6105,"Ġbrevi":6106,"âĢĻ.":6107,"ĠAss":6108,"Ġdiversa":6109,"âĢ¦]":6110,"Ġorbem":6111,"Montreal":6112,"ĠJesus":6113,"possibile":6114,"Ġvolutpat":6115,"Toronto":6116,"Graece":6117,"ge":6118,"ruc":6119,"ymn":6120,"Ð±":6121,"Ġsurg":6122,"ater":6123,"Ġcen":6124,"Ġflor":6125,"etum":6126,"arr":6127,"idae":6128,"Ġlorem":6129,"acti":6130,"Ġutriusque":6131,"ilitatem":6132,"ĠEquidem":6133,"ĠCre":6134,"Ġgem":6135,"nox":6136,"Ġhabentur":6137,"ĠMerc":6138,"Ġpotens":6139,"Ġpotissimum":6140,"Ġvert":6141,"ĠHer":6142,"Ġerip":6143,"Ġproi":6144,"Ġconsens":6145,"ariorum":6146,"Ġmaximus":6147,"ĠGrat":6148,"Ġaccessit":6149,"incip":6150,"Ġminorem":6151,"ĠOffic":6152,"Ġmultitudinem":6153,"raesent":6154,"Ġexpos":6155,"Ġcivibus":6156,"Ġnominibus":6157,"Ġfortitudo":6158,"Ġinvestig":6159,"Ġiustific":6160,"Ġfratris":6161,"Ġalteram":6162,"Ġaetatem":6163,"Ġgravis":6164,"Ġsatisfac":6165,"Ġsensibus":6166,"Ġphys":6167,"Ġdiscipulus":6168,"Ġdisciplin":6169,"Ġmateriam":6170,"Ġrespondere":6171,"Ġfines":6172,"ĠGalliae":6173,"ulgate":6174,"Ġyour":6175,"Ġcongue":6176,"Ġfemina":6177,"Ġquaesitum":6178,"Ġministrorum":6179,"ĠMichig":6180,"ĠAbraham":6181,"ĠLudov":6182,"ĠLotharing":6183,"51":6184,"80":6185,"Con":6186,"Mar":6187,"alibus":6188,"ujus":6189,"vm":6190,"á¿":6191,"Ĩĳ":6192,"Ġaere":6193,"Ġpurg":6194,"Ġcm":6195,"Ġmari":6196,"Ġheb":6197,"idium":6198,"ecc":6199,"entu":6200,"Ġutero":6201,"ila":6202,"oto":6203,"ĠSa":6204,"ĠSus":6205,"Ġperi":6206,"issis":6207,"Ġcompon":6208,"Ġconsilia":6209,"Ġaccom":6210,"ĠBene":6211,"Ġcontig":6212,"Ġcorrum":6213,"Ġnumeri":6214,"Ġagam":6215,"Ġhabetis":6216,"Ġdisced":6217,"Ġconfid":6218,"Ġcolor":6219,"Ġcertus":6220,"Ġformas":6221,"Ġnecessitate":6222,"Ġreliquerunt":6223,"Ġsupp":6224,"Ġdisciplina":6225,"Ġintelligit":6226,"ĠCivitatum":6227,"load":6228,"Ġcontinet":6229,"Ġpacto":6230,"Ġobsec":6231,"Ġobscur":6232,"Ġparvulus":6233,"Ġangust":6234,"iretur":6235,"Ġaccidens":6236,"ĠHier":6237,"Ġaugue":6238,"Ġvaletud":6239,"Ġcrimen":6240,"Ġflumen":6241,"Ġaufer":6242,"Ġantepos":6243,"Ġabscond":6244,"ĠVirg":6245,"Ġoccidentalis":6246,"ĠQuirites":6247,"Ġcontumeli":6248,"53":6249,"89":6250,"Dixit":6251,"Lib":6252,"of":6253,"Ġlim":6254,"Ġcave":6255,"sti":6256,"Ġdabit":6257,"Ġmores":6258,"orta":6259,"Ġtard":6260,"Ġira":6261,"Ġiratus":6262,"arus":6263,"Ġrequ":6264,"ĠDisc":6265,"Ġdicemus":6266,"Ġby":6267,"Ġgessit":6268,"Ġeiusque":6269,"Ġoperis":6270,"averat":6271,"ĠRem":6272,"Ġamorem":6273,"ĠFal":6274,"Ġpariter":6275,"Ġparoec":6276,"ĠBon":6277,"Ġinterc":6278,"Ġartem":6279,"Ġlegimus":6280,"Ġdolo":6281,"Ġsemin":6282,"Ġpup":6283,"Ġ51":6284,"Ġconfer":6285,"ĠÐĹ":6286,"Ġ76":6287,"Ġmathem":6288,"Ġdocere":6289,"Ġvale":6290,"Ġpax":6291,"ĠArg":6292,"Ġsanctae":6293,"Ġtransi":6294,"Ġmutare":6295,"Ġconiuncta":6296,"Ġglori":6297,"Ġexistimo":6298,"Ġtransf":6299,"Ð½Ñĭ":6300,"thag":6301,"Ġvultis":6302,"Ġampli":6303,"Ġcopiae":6304,"Ġcongru":6305,"Ġequum":6306,"Ġauxili":6307,"Ġpervenit":6308,"Ġmilites":6309,"ĠEpicurus":6310,"Ġcontempt":6311,"Ġpraetorem":6312,"Ġcaelest":6313,"Ġtyran":6314,"Ġpresbyter":6315,"ĠAcademiae":6316,"Ġsyllab":6317,"varic":6318,"ĠHelvet":6319,"ĠMCML":6320,"ĠUNIT":6321,"ET":6322,"Man":6323,"Nunc":6324,"ON":6325,"Prim":6326,"ase":6327,"sk":6328,"yp":6329,"Â§":6330,"æľ":6331,"Ġaustr":6332,"Ġpeper":6333,"Ġmo":6334,"ures":6335,"Ġvine":6336,"Ġirac":6337,"ligo":6338,"ibili":6339,"olit":6340,"ĠSil":6341,"ĠCato":6342,"ipso":6343,"orumque":6344,"Ġfacimus":6345,"ĠNap":6346,"Ġhabitum":6347,"Ġhabebant":6348,"Ġvident":6349,"Ġidone":6350,"Ġimit":6351,"Ġpotestis":6352,"ĠGa":6353,"ĠGu":6354,"Ġloquetur":6355,"Ġloqueris":6356,"Ġterris":6357,"Ġsubito":6358,"Ġmultarum":6359,"Ġdiscern":6360,"ĠâĢĿ":6361,"Ġnomini":6362,"enex":6363,"Ġdecess":6364,"Ġcomplex":6365,"Ġdesert":6366,"Ġoccur":6367,"Ġpublice":6368,"Ġquosdam":6369,"Ġ60":6370,"Ġ2014":6371,"Ġconsequens":6372,"Ġinvenit":6373,"ĠArd":6374,"ĠJos":6375,"Ġingred":6376,"ĠPrimus":6377,"Ġdignitatis":6378,"ĠMariae":6379,"Ġstudiis":6380,"Ġstudebat":6381,"ĠConstant":6382,"Ġspeciem":6383,"Ġfamilias":6384,"Ġpraesto":6385,"Ġatting":6386,"Ġmagistratus":6387,"Ġingenio":6388,"Ġscriptis":6389,"Ġdiversis":6390,"Ġsocietas":6391,"Ġdext":6392,"ĠQuintus":6393,"ĠInsula":6394,"Ġcontroversia":6395,"Ġfraud":6396,"Ġmathemat":6397,"('":6398,"German":6399,"Int":6400,"Lat":6401,"Res":6402,"iatum":6403,"san":6404,"Äĵ":6405,"çļ":6406,"Ġum":6407,"Ĭ¤":6408,"Ġpanem":6409,"Ġnorm":6410,"Ġinnumer":6411,"Ġvici":6412,"Ġtales":6413,"Ġforum":6414,"Ġfundum":6415,"etus":6416,"ulch":6417,"unicip":6418,"Ġutitur":6419,"ĠIup":6420,"Ġexpon":6421,"ĠSub":6422,"Ġdicti":6423,"Ġperdit":6424,"Ġillust":6425,"itura":6426,"aturus":6427,"omine":6428,"Ġhabui":6429,"Ġverae":6430,"ĠRec":6431,"ĠReli":6432,"Ġmaiore":6433,"ĠBas":6434,"Ġ[âĢ¦]":6435,"Ġregiones":6436,"Ġstup":6437,"Ġars":6438,"Ġoculorum":6439,"Ġsubd":6440,"Ġmultitudo":6441,"Ġmortis":6442,"Ġdomibus":6443,"Ġagunt":6444,"Ġrepugn":6445,"Ġdedic":6446,"Ġmortuo":6447,"Ġcognitione":6448,"Ġ52":6449,"Ġ54":6450,"entesque":6451,"ĠAtl":6452,"Ġinfam":6453,"Ġmiserum":6454,"isprud":6455,"Ġvestig":6456,"ĠGraecia":6457,"Ġsensit":6458,"Ġpeto":6459,"Ġsacra":6460,"ĠQuisque":6461,"Ġcontinuo":6462,"Ġmonast":6463,"Ġmanduc":6464,"Ġepistulae":6465,"Ġfaciamus":6466,"Ġaffirm":6467,"Ġcognovi":6468,"Ġperpetuum":6469,"ĠInterrog":6470,"Ġnimirum":6471,"Ġbenedic":6472,"ĠEpiscopus":6473,"Ġdioecesis":6474,"Ġeditae":6475,"Ġproelio":6476,"ĠEvangeli":6477,"ÑĩÐ°ÑģÑĤÐ¸":6478,"ĠÐĹÐ°Ð¿":6479,"):":6480,"77":6481,"Ab":6482,"VII":6483,"co":6484,"her":6485,"vs":6486,"za":6487,"²ł":6488,"åħ":6489,"ìĬ¤":6490,"íĬ":6491,"Ġç":6492,"itibus":6493,"inos":6494,"ated":6495,"Ġmeret":6496,"ary":6497,"queb":6498,"abiliter":6499,"Ġdictus":6500,"estus":6501,"Ġpersequ":6502,"Ġpraevaric":6503,"Ġgraec":6504,"Ġcoeper":6505,"ivus":6506,"Ġquiddam":6507,"ĠMon":6508,"ebar":6509,"Ġual":6510,"Ġopponitur":6511,"ĠHom":6512,"Ġinclud":6513,"inceps":6514,"Ġregibus":6515,"Ġarti":6516,"apropter":6517,"Ġtermin":6518,"Ġalbus":6519,"escit":6520,"Ġpartis":6521,"Ġputes":6522,"erna":6523,"Ġdivinum":6524,"Ġrepraesent":6525,"Ġdesper":6526,"Ġ53":6527,"Ġplacere":6528,"Ġvisa":6529,"...]":6530,"Ð¾Ð½":6531,"ĠGraecorum":6532,"Ġnesciebat":6533,"Ġegreg":6534,"Ġdiligentia":6535,"Ġ98":6536,"Ġplurima":6537,"Ġdignus":6538,"Ġaccipiat":6539,"Ġmedic":6540,"Ġwe":6541,"actenus":6542,"Ġprovinciam":6543,"athed":6544,"Ġponit":6545,"Ġtimere":6546,"Ġdifferunt":6547,"Ġultimum":6548,"Ġcondimentum":6549,"Ġgravius":6550,"Ġampl":6551,"Ġexempla":6552,"Ġprofess":6553,"Ġnegotia":6554,"Ġaccepta":6555,"Ġpauca":6556,"ĠMosellae":6557,"Ġaccedere":6558,"Ġancilla":6559,"ĠAthenis":6560,"ĠPropter":6561,"Ġperegr":6562,"ĠPyrenae":6563,"ĠSocrates":6564,"ĠÐĹÐ°Ð¿ÑĩÐ°ÑģÑĤÐ¸":6565,"²łìĬ¤":6566,"íĬ¸":6567,"²łìĬ¤íĬ¸":6568,"Nisi":6569,"Sic":6570,"sic":6571,"Ñİ":6572,"å®":6573,"umentis":6574,"Ġsel":6575,"itle":6576,"Ġqualem":6577,"Ġcras":6578,"Ġcamp":6579,"Ġvent":6580,"Ġvesc":6581,"Ġiact":6582,"idia":6583,"oca":6584,"ocr":6585,"Ġredi":6586,"alitas":6587,"Ġconl":6588,"ĠAdam":6589,"ĠSint":6590,"ĠCa":6591,"Ġ100":6592,"Ġscito":6593,"ĠMis":6594,"arumque":6595,"Ġsev":6596,"Ġvidentes":6597,"avis":6598,"ĠFilium":6599,"Ġintern":6600,"Ġornam":6601,"Ġlibera":6602,"oquin":6603,"Ġregionum":6604,"Ġcreata":6605,"Ġarte":6606,"ĠInd":6607,"Ġvenerat":6608,"Ġusur":6609,"Ġvitio":6610,"Ġsanguis":6611,"Ġdederit":6612,"Ġcorpor":6613,"Ġcaritate":6614,"Ġ79":6615,"Ġnovit":6616,"Ġprovid":6617,"Ð°ÑĤ":6618,"Ġpluris":6619,"ÐµÑĢ":6620,"Ġintelligitur":6621,"Ġemend":6622,"Ġtransfer":6623,"Ġfall":6624,"ĠSicilia":6625,"Ġsermones":6626,"Ġproduct":6627,"othec":6628,"Ġhabeatur":6629,"Ġbibere":6630,"Ġvigil":6631,"Ġonus":6632,"Ġquotidie":6633,"Ġingenium":6634,"Ġauxilio":6635,"Ġorientali":6636,"Ġnonnumquam":6637,"Ġhistoriae":6638,"Ġdiab":6639,"ĠAttico":6640,"Ġrelicta":6641,"Ġsilv":6642,"ĠScipio":6643,"PDF":6644,"Ġlinea":6645,"Ġoccidentali":6646,"ĠLigeris":6647,"Ġlignum":6648,"Ġinnoc":6649,"Ġprodierunt":6650,"Ġë²łìĬ¤íĬ¸":6651,"ĠLotharingia":6652,"Ġaustralis":6653,"55":6654,"Item":6655,"OR":6656,"The":6657,"ez":6658,"xi":6659,"Ã²":6660,"Î¼":6661,"ÑĨ":6662,"Ø±":6663,"áº":6664,"Ġul":6665,"Ġsursum":6666,"Ġced":6667,"Ġna":6668,"Ġnullius":6669,"Ġinu":6670,"Ġinut":6671,"Ġvesper":6672,"Ġiun":6673,"aremus":6674,"Ġquaesumus":6675,"ratur":6676,"ĠPos":6677,"ĠNaz":6678,"uch":6679,"ĠMor":6680,"Ġpotero":6681,"Ġabb":6682,"Ġviderit":6683,"Ġuera":6684,"ĠLond":6685,"ĠRub":6686,"Ġpariet":6687,"Ġconsue":6688,"Ġmoderat":6689,"003":6690,"Ġvirorum":6691,"Ġaudio":6692,"ĠUr":6693,"Ġprimae":6694,"Ġmagnitudine":6695,"Ġduorum":6696,"Ġdebeo":6697,"ressum":6698,"Ġagrum":6699,"Ġcapi":6700,"Ġiurisprud":6701,"itudines":6702,"Ġdesertum":6703,"Ġ2005":6704,"Ġnovem":6705,"Ġfama":6706,"Ġindustr":6707,"Ġwh":6708,"Ġwas":6709,"Ġ||":6710,"Ġpraedicantur":6711,"Ġlatinam":6712,"ĠCaesari":6713,"ĠFoederatarum":6714,"Ġthis":6715,"Ġperfectionem":6716,"Ġquaestiones":6717,"Ġefficere":6718,"Ġconsules":6719,"Ġgaudeo":6720,"Ġunusquisque":6721,"Ġlaboravit":6722,"Ġseptu":6723,"Ġ1945":6724,"Ġvidebitur":6725,"Ġpossidet":6726,"ãĢĤ":6727,"Ġtestamento":6728,"Ġangelus":6729,"2015":6730,"Ġmembra":6731,"Ġpraeclare":6732,"Ġpapa":6733,"Ġthesa":6734,"84":6735,"IN":6736,"Page":6737,"UM":6738,"cuius":6739,"psit":6740,"tt":6741,"Â°":6742,"ÑĪ":6743,"à¤":6744,"Ġsenex":6745,"inorum":6746,"Ġpunct":6747,"ony":6748,"Ġcare":6749,"Ġdari":6750,"Ġinan":6751,"Ġvias":6752,"Ġvariis":6753,"Ġtulit":6754,"Ġiuli":6755,"enas":6756,"esima":6757,"untia":6758,"arit":6759,"eci":6760,"ulatus":6761,"Ġprem":6762,"Ġprol":6763,"Ġredit":6764,"ĠIov":6765,"ĠAqu":6766,"ĠDes":6767,"Ġbas":6768,"rati":6769,"quamur":6770,"Ġhaberem":6771,"ivam":6772,"Ġpoterant":6773,"undis":6774,"ebitur":6775,"Ġvidetis":6776,"Ġoperi":6777,"avimus":6778,"ĠFr":6779,"ĠForm":6780,"ĠTub":6781,"Ġconsid":6782,"Ġconspic":6783,"Ġcontentus":6784,"Ġcommov":6785,"Ġpatitur":6786,"Ġstatum":6787,"Ġloquere":6788,"Ġspons":6789,"Ġoct":6790,"lev":6791,"Ġimpon":6792,"Ġcuiusdam":6793,"Ġaspic":6794,"diet":6795,"Ġoptimus":6796,"Ġinvenerunt":6797,"Ġ80":6798,"Ġegressus":6799,"Ġ129":6800,"Ġdignitatem":6801,"Ġaccipiunt":6802,"Ġpertinuit":6803,"ĠUnum":6804,"Ġapert":6805,"Ġcontrarium":6806,"ĠSancto":6807,"Etiam":6808,"Ġmovet":6809,"ardin":6810,"Ġphilosophi":6811,"Ġaeternitate":6812,"Ġnolo":6813,"ulpa":6814,"Ġartic":6815,"Ġclaritatem":6816,"ĠCarolus":6817,"Ġproximum":6818,"ĠAutem":6819,"Ġingenii":6820,"Ġinimici":6821,"Ġ1999":6822,"Ġmart":6823,"Ġfortunae":6824,"Ġasperiores":6825,"Ġmentionem":6826,"Ġplenum":6827,"Ġconsecutus":6828,"Ġorbis":6829,"comp":6830,"ï¼Į":6831,"Ġgradu":6832,"ownload":6833,"Ġaccurate":6834,"ĠAtlant":6835,"iani":6836,"lat":6837,"ous":6838,"uia":6839,"åı":6840,"Ġà«¨":6841,"Ġmass":6842,"Ġinesse":6843,"icia":6844,"Ġvulp":6845,"uth":6846,"utionis":6847,"Ġfas":6848,"liane":6849,"eni":6850,"Ġlarg":6851,"ĠElis":6852,"Ġexitum":6853,"ĠSap":6854,"ĠDion":6855,"Ġdices":6856,"Ġperv":6857,"istae":6858,"iliam":6859,"Ġsedul":6860,"Ġhabentes":6861,"ego":6862,"Ġsci":6863,"ĠMel":6864,"Ġcali":6865,"ĠTre":6866,"Ġtempest":6867,"Ġmodis":6868,"Ġsecutus":6869,"Ġstell":6870,"ienter":6871,"Ġvenio":6872,"ĠOc":6873,"Ġdebuit":6874,"Ġrationibus":6875,"Ġistuc":6876,"Ġiudicii":6877,"Ġdivinae":6878,"Ġcognitio":6879,"Ġpublicum":6880,"Ġvivendum":6881,"Ġdicitis":6882,"Ġmoritur":6883,"Ġfix":6884,"Ġcaeter":6885,"Ġjuxta":6886,"Ġimperdiet":6887,"Ġnecessitas":6888,"Ġvirtuti":6889,"Ġpulv":6890,"Ġoperatus":6891,"true":6892,"Ġvultus":6893,"ĠRegnum":6894,"Ġhabeamus":6895,"ĠGallia":6896,"Ġhostium":6897,"Ġsimilitudo":6898,"Ġpugna":6899,"Ġacciderit":6900,"âĢĻ,":6901,"Ġuidetur":6902,"Ġsonum":6903,"Ġscriptores":6904,"Ġschola":6905,"Ġscelere":6906,"Ġvacua":6907,"ĠIosephus":6908,"Ġbestiis":6909,"Ġecclesiasticae":6910,"Ġauf":6911,"Ġapparuit":6912,"Ġconclusio":6913,"Ġuirtut":6914,"Ġpercipi":6915,"ĠInferioris":6916,"Ġmisericordiam":6917,"Ġintrod":6918,"????":6919,"Ġdexteram":6920,"Ġperhiberet":6921,"Ġmatrimonium":6922,"Ġcordis":6923,"Ġarchiepiscopus":6924,"inventory":6925,"ĠBurgundia":6926,"Ġaccommod":6927,"çļĦ":6928,".Â»":6929,"Sc":6930,"iata":6931,"ng":6932,"sur":6933,"Ã±":6934,"Ġ`":6935,"Ġsab":6936,"Ġsta":6937,"Ġpur":6938,"ama":6939,"amenta":6940,"Ġdimis":6941,"ema":6942,"Ġmob":6943,"ork":6944,"Ġtel":6945,"Ġiung":6946,"Ġfil":6947,"Ġher":6948,"Ġhii":6949,"Ġhactenus":6950,"Ġadept":6951,"ĠEsa":6952,"ĠColl":6953,"Ġdicetur":6954,"Ġaliarum":6955,"Ġfacillim":6956,"Ġgess":6957,"ĠMer":6958,"Ġabomin":6959,"Ġerub":6960,"Ġaliquos":6961,"iscere":6962,"ĠGo":6963,"ĠBab":6964,"Ġinterdic":6965,"Ġregula":6966,"ront":6967,"Ġprimi":6968,"Ġnosmet":6969,"Ġagi":6970,"Ġpraesc":6971,"Ġvocat":6972,"Ġputare":6973,"Ġtabular":6974,"Ġcurr":6975,"Ġcapiunt":6976,"Ġexpl":6977,"Ġcivili":6978,"Ġecclesie":6979,"Ġnominavi":6980,"Ġinventa":6981,"Ġnotitia":6982,"Ġcredid":6983,"Ġpraeterito":6984,"Ġ66":6985,"Ġopport":6986,"Ġvalere":6987,"Ġvestibulum":6988,"illus":6989,"ĠAdm":6990,"ĠXI":6991,"ĠXII":6992,"Ġceter":6993,"Ġconiun":6994,"Ġodium":6995,"Ġadiung":6996,"rices":6997,"evo":6998,"angu":6999,"Ġantiquae":7000,"Ġbeatam":7001,"Ġexplicat":7002,"ĠIosue":7003,"ĠCatil":7004,"ĠIudaei":7005,"Ġaures":7006,"ĠPompon":7007,"Ġlevis":7008,"Ġmilitibus":7009,"ĠVenet":7010,"ĠClaud":7011,"ĠPotest":7012,"Ġtribunalis":7013,"Ġimagines":7014,"ĠIusto":7015,"ognosc":7016,"Ġderel":7017,"Ġcompetit":7018,"ĠIohannes":7019,"rinsecus":7020,"Ġiurisprudentiae":7021,"85":7022,"Am":7023,"des":7024,"fex":7025,"huc":7026,"iÃ¦":7027,"ler":7028,"line":7029,"ner":7030,"rid":7031,"roc":7032,"sunt":7033,"uatur":7034,"verit":7035,"ville":7036,"ÙĦ":7037,"åĪ":7038,"Ġosc":7039,"Ġeunt":7040,"ink":7041,"inii":7042,"ntabul":7043,"aequ":7044,"aeque":7045,"icere":7046,"Ġvect":7047,"Ġtellus":7048,"enae":7049,"Ġheri":7050,"osse":7051,"ecerit":7052,"ularis":7053,"Ġrenunt":7054,"Ġlus":7055,"ĠEos":7056,"Ġexitus":7057,"Ġfacite":7058,"issae":7059,"Ġveram":7060,"Ġvidens":7061,"Ġvideris":7062,"Ġvidendum":7063,"Ġvidete":7064,"Ġris":7065,"Ġrust":7066,"ĠLong":7067,"ĠHinc":7068,"Ġnepot":7069,"ĠFinn":7070,"ĠTibi":7071,"Ġconsu":7072,"Ġconscrip":7073,"Ġplor":7074,"Ġinterfect":7075,"Ġorator":7076,"eries":7077,"Ġposter":7078,"Ġmultorum":7079,"ĠUs":7080,"Ġagimus":7081,"Ġagri":7082,"Ġsuperius":7083,"aliz":7084,"Ġisdem":7085,"Ġconclud":7086,"Ġdiei":7087,"Ġdicite":7088,"Ġ63":7089,"ĠItaliam":7090,"Ġexcog":7091,"ĠGraeca":7092,"Ġuxori":7093,"Ġaetas":7094,"Ġextran":7095,"Ġofficii":7096,"erba":7097,"Ġexercit":7098,"Ġreliquis":7099,"Ġfuturi":7100,"Ġspecia":7101,"Ġfallac":7102,"Ġbeate":7103,"ĠGermanicus":7104,"Ġtribul":7105,"Ġauctoritas":7106,"ĠÃł":7107,"ĠAntonius":7108,"Ġcalc":7109,"Ġhumanitas":7110,"Ġproxime":7111,"Ġmeliorem":7112,"ĠSpiritu":7113,"ĠHierusalem":7114,"Ġutilitatis":7115,"Ġscripsisse":7116,"Ġsustent":7117,"Ġreferre":7118,"Ġsaepissime":7119,"Ġturpis":7120,"Ġrett":7121,"Ġfacultatem":7122,"Ġdaturus":7123,"Ġscholam":7124,"Ġperspicere":7125,"Ġabscon":7126,"Ġinterfuit":7127,"ĠFreto":7128,"àµį":7129,"ĠAntioch":7130,"ĠPhilipp":7131,"Ġartifex":7132,"ĠDionys":7133,"Car":7134,"disc":7135,"ment":7136,"pit":7137,"sch":7138,"éĭ":7139,"Ġequit":7140,"Ġae":7141,"Ġsurre":7142,"Ġquicum":7143,"Ġpend":7144,"Ġpurus":7145,"Ġnationes":7146,"ement":7147,"enique":7148,"idis":7149,"Ġsuad":7150,"ĠEo":7151,"ĠAv":7152,"Ġquamuis":7153,"ĠCaec":7154,"ĠCast":7155,"terum":7156,"Ġpraetere":7157,"iturg":7158,"raque":7159,"Ġposuere":7160,"ĠMort":7161,"Ġpotuerit":7162,"ebuntur":7163,"itavi":7164,"Ġrisus":7165,"Ġrhon":7166,"Ġsitus":7167,"ava":7168,"ĠFlor":7169,"ĠFilio":7170,"Ġsolebat":7171,"ulla":7172,"Ġbonam":7173,"Ġregim":7174,"Ġnostrorum":7175,"Ġlego":7176,"Ġlegata":7177,"Ġ1918":7178,"Ġmanuum":7179,"Ġannus":7180,"entias":7181,"Ġvocatum":7182,"Ġcuram":7183,"Ġexplor":7184,"Ġexpedit":7185,"Ġecclesiarum":7186,"Ġdecimo":7187,"Ġtotus":7188,"elix":7189,"Ġinventum":7190,"Ġmaiori":7191,"Ġpraeceper":7192,"Ġcarm":7193,"Ġsignis":7194,"Ġ75":7195,"Ġvideos":7196,"Ġprobarent":7197,"Ġ89":7198,"Ġfrom":7199,"ĠQuaedam":7200,"Ġdiligentissime":7201,"Ġvictus":7202,"ĠExerc":7203,"Ġbella":7204,"Ġsacri":7205,"Ġmulieris":7206,"Ġimmut":7207,"ĠSanctae":7208,"Ġepiscopo":7209,"Ġmoveri":7210,"Ġultima":7211,"Ġconveniat":7212,"Ġsingulos":7213,"ĠPlanc":7214,"ĠPlato":7215,"Ġpulchrum":7216,"Ġaeternam":7217,"Ġreferuntur":7218,"Ġreddet":7219,"Ġpromitt":7220,"Ġdeprec":7221,"Ġbrevis":7222,"Ġaccidere":7223,"Ġdescrib":7224,"ĠMagni":7225,"Ġlacinia":7226,"Ġiacet":7227,"Ġfoederis":7228,"ĠPrimo":7229,"option":7230,"Ġmentitum":7231,"ĠClod":7232,"ĠBritannia":7233,"Ġprudentia":7234,"Ġsanguine":7235,"Ġaegrot":7236,"Ġvictoria":7237,"ĠCommun":7238,"ĠIste":7239,"Ġdiscessimus":7240,"eunte":7241,"Italiane":7242,"Ġnexus":7243,"Ġperferendis":7244,"Ġquinto":7245,"attoos":7246,"ĠEnnius":7247,"ĠGulielmus":7248,"64":7249,"AR":7250,"Cor":7251,"Io":7252,"Nec":7253,"St":7254,"Temp":7255,"bum":7256,"niae":7257,"pend":7258,"Î¯":7259,"Ġ\\/":7260,"erio":7261,"inati":7262,"Ġquales":7263,"atas":7264,"onec":7265,"Ġmedit":7266,"utate":7267,"Ġferunt":7268,"Ġfert":7269,"Ġforis":7270,"opere":7271,"ĠSat":7272,"ipat":7273,"ĠQuos":7274,"ĠNor":7275,"egit":7276,"ostoli":7277,"Ġquolibet":7278,"Ġpossemus":7279,"Ġabest":7280,"Ġopes":7281,"averis":7282,"ultur":7283,"empe":7284,"Ġaliquae":7285,"Ġvolui":7286,"Ġacceperit":7287,"ĠBav":7288,"ĠBellum":7289,"Ġoritur":7290,"erique":7291,"Ġlegati":7292,"venit":7293,"abula":7294,"Ġterre":7295,"irent":7296,"Ġaudita":7297,"Ġauditum":7298,"Ġscribendi":7299,"ĠChal":7300,"tinam":7301,"Ġ77":7302,"Ġinsulam":7303,"Ġmatre":7304,"Ġmatris":7305,"Ġ2015":7306,"upid":7307,"Ġinveniuntur":7308,"Ġreddit":7309,"ĠIsa":7310,"Ġduces":7311,"illis":7312,"Ġdiligere":7313,"ĠPrincip":7314,"Ġ120":7315,"Ġvict":7316,"Ġcognoscitur":7317,"Ġmille":7318,"Ġfacturum":7319,"ĠPhilosoph":7320,"Ġantiquos":7321,"Ġhabeas":7322,"ĠIdus":7323,"Ġcopiis":7324,"Ġpauci":7325,"Ġopinione":7326,"Ġpueros":7327,"ĠHispaniae":7328,"Ġiaculis":7329,"Ġoffend":7330,"Ġrelati":7331,"Ġbenedict":7332,"ĠEpiscopi":7333,"Ġirasc":7334,"Ġortus":7335,"Ġoves":7336,"Ġoccasionem":7337,"ĠZenonem":7338,"ĠÐ¿ÑĢ":7339,"Ġoccurrit":7340,"Ġinsipiens":7341,"ĠFortasse":7342,"Ġdiutius":7343,"ĠPorro":7344,"ĠThomas":7345,"Ġmendacium":7346,"Ġredempt":7347,"ĠâĢĿ.":7348,"unicipia":7349,"Ġvulputate":7350,"52":7351,"Com":7352,"EN":7353,"Mag":7354,"Ph":7355,"auit":7356,"ood":7357,"uat":7358,"Ãİ":7359,"Ð·":7360,"Ùħ":7361,"æĹ":7362,"itetur":7363,"usta":7364,"inio":7365,"Ġpare":7366,"onice":7367,"Ġcepit":7368,"Ġnou":7369,"Ġdiam":7370,"Ġmos":7371,"orio":7372,"Ġinitium":7373,"Ġtw":7374,"enum":7375,"esis":7376,"idam":7377,"Ġadim":7378,"Ġadol":7379,"Ġlug":7380,"acum":7381,"ileg":7382,"otam":7383,"alitatem":7384,"Ġexcip":7385,"Ġexilium":7386,"ĠCali":7387,"ĠDan":7388,"ĠPont":7389,"Ġge":7390,"Ġgens":7391,"Ġcoel":7392,"Ġhaberent":7393,"Ġscitis":7394,"Ġpotuisse":7395,"Ġveri":7396,"Ġverec":7397,"Ġridic":7398,"Ġamen":7399,"Ġambit":7400,"ĠFilii":7401,"Ġmaer":7402,"ĠGab":7403,"Ġconturb":7404,"Ġcommerc":7405,"Ġinterim":7406,"Ġfuimus":7407,"Ġstatus":7408,"ientium":7409,"Ġloquatur":7410,"Ġquisquis":7411,"Ġputem":7412,"aliae":7413,"Ġsentiat":7414,"Ð°Ð»":7415,"ĠLatinum":7416,"Ġvestris":7417,"Ġ86":7418,"entiarum":7419,"rehendi":7420,"Ġtransit":7421,"Ġiussu":7422,"Ġdiligentius":7423,"Ġintellegit":7424,"Ġsaeculorum":7425,"Ġaccipe":7426,"ÐµÐ»":7427,"Ġconstitui":7428,"Ġpropriae":7429,"astis":7430,"âĢĿ,":7431,"Ġpond":7432,"Ġexsp":7433,"Ġuniversis":7434,"Ġantiquis":7435,"Ġaudierunt":7436,"Ġresponderunt":7437,"Ġconsuetudine":7438,"ĠNovi":7439,"Ġopinio":7440,"ĠPaulo":7441,"Ġexspecto":7442,"Ġiniquitatem":7443,"Ġquatenus":7444,"Ġtempt":7445,"ĠUrbes":7446,"Ġfelis":7447,"Ġhaeret":7448,"Ġdialect":7449,"Ġdepositum":7450,"Ġprosunt":7451,"ĠSimiliter":7452,"Ġspectat":7453,"Ġextrema":7454,"Ġmisericordia":7455,"Ġpraeceptis":7456,"Ġincredibile":7457,"Ġmiraretur":7458,"Ġexcels":7459,"ĠSelectae":7460,"ĠBerol":7461,"Ġsedulitatem":7462,"Ġrhoncus":7463,"'s":7464,"87":7465,"Rom":7466,"ST":7467,"berg":7468,"con":7469,"Ãº":7470,"Ġseg":7471,"inius":7472,"amin":7473,"amini":7474,"Ġcense":7475,"Ġdisi":7476,"Ġtet":7477,"Ġtul":7478,"utam":7479,"Ġiei":7480,"liqu":7481,"imos":7482,"osum":7483,"ulpt":7484,"ulari":7485,"Ġadesse":7486,"aculo":7487,"elop":7488,"Ġdeest":7489,"ĠIX":7490,"ĠAur":7491,"Ġexh":7492,"ĠCred":7493,"Ġdicenda":7494,"Ġfacinus":7495,"ĠPD":7496,"Ġcoerc":7497,"issus":7498,"Ġvidisti":7499,"ĠLam":7500,"ĠHanno":7501,"ellis":7502,"Ġamis":7503,"Ġpaginam":7504,"ĠTri":7505,"ĠVerg":7506,"ĠVultur":7507,"Ġsolemus":7508,"Ġacceperunt":7509,"Ġcommodo":7510,"Ġsecret":7511,"Ġregionibus":7512,"Ġcrede":7513,"lesimo":7514,"Ġloquendi":7515,"Ġloquaris":7516,"Ġmagnis":7517,"eretis":7518,"Ġquemque":7519,"Ġagric":7520,"Ġacquir":7521,"Ġeamque":7522,"Ġremitt":7523,"Ġmalorum":7524,"Ġdives":7525,"Ġpopulorum":7526,"Ġservare":7527,"Ġtenu":7528,"Ġmiseri":7529,"Ġ65":7530,"...)":7531,"Ġrespondi":7532,"ĠArab":7533,"Ġquaereremus":7534,"Ġplurimi":7535,"Ġdigni":7536,"Ġlaude":7537,"Ġfactis":7538,"ify":7539,"Ġadmodum":7540,"Ġsermonis":7541,"Ġexsist":7542,"Ġconveniunt":7543,"Ġeffici":7544,"ember":7545,"Ġobsc":7546,"Ġsecundam":7547,"Ġparvum":7548,"Ġindicia":7549,"Ġequus":7550,"Ġinimicus":7551,"Ġmaritus":7552,"Ġgestarum":7553,"Ġsororem":7554,"Ġmulieribus":7555,"Ġaffectum":7556,"Ġvereor":7557,"Ġparentibus":7558,"Ġpraesidio":7559,"Ġmusicae":7560,"Ġgenerationes":7561,"ĠImperium":7562,"ĠPompeius":7563,"ĠOrdin":7564,"Ġtabernaculum":7565,"Ġsanguinem":7566,"Ġhabebis":7567,"Ġitinere":7568,"ĠDixitque":7569,"Ġibidem":7570,"ĠLingua":7571,"Ġnigrum":7572,"ĠHenricus":7573,"Ġomnipotens":7574,"Ġfermentum":7575,"ĠMolestiae":7576,"Ġdidici":7577,"Ġsatiet":7578,"Ġmeretric":7579,"Ġieiun":7580,"69":7581,"Id":7582,"gypt":7583,"hel":7584,"ierit":7585,"pere":7586,"tol":7587,"we":7588,"Ð³":7589,"Øª":7590,"âĨĳ":7591,"Ġeun":7592,"Ġeuis":7593,"itare":7594,"ondam":7595,"Ġciu":7596,"oro":7597,"Ġtent":7598,"Ġif":7599,"Ġfunct":7600,"Ġestis":7601,"ode":7602,"idus":7603,"Ġpridem":7604,"Ġlep":7605,"ĠEli":7606,"Ġconj":7607,"ĠIudic":7608,"Ġexim":7609,"ĠST":7610,"ĠSer":7611,"ĠSar":7612,"ĠSPD":7613,"ĠCass":7614,"ĠCaus":7615,"Ġdirig":7616,"Ġillas":7617,"Ġsedem":7618,"Ġcomedit":7619,"ĠLic":7620,"ĠHa":7621,"ĠRex":7622,"oreet":7623,"ĠTen":7624,"ĠTra":7625,"Ġaliquibus":7626,"Ġessemus":7627,"ĠBa":7628,"Ġoro":7629,"rang":7630,"Ġcorda":7631,"Ġantec":7632,"Ġmultitudinis":7633,"Ġimple":7634,"Ġcuiuscumque":7635,"Ġdebes":7636,"Ġtrin":7637,"Ġ2002":7638,"Ġ55":7639,"Ġconfund":7640,"ĠChana":7641,"Ġpublico":7642,"Ġplacerat":7643,"Ġmisera":7644,"Ġnovae":7645,"Ġsapere":7646,"upta":7647,"Ġpaulum":7648,"Ġprincipibus":7649,"Ġ85":7650,"Ġintellegitur":7651,"ĠEcclesiam":7652,"Ġstudiorum":7653,"Ġsuppon":7654,"actio":7655,"Ġglorific":7656,"\":[":7657,"Ġaquarum":7658,"Ġquinta":7659,"Ġdispens":7660,"Ġoperatur":7661,"Ġponere":7662,"Ġponitur":7663,"criptum":7664,"Ġnoctem":7665,"Ġdona":7666,"Ġvultum":7667,"Ġcondidit":7668,"Ġargentum":7669,"ĠRegni":7670,"Ġmiseros":7671,"Ġreddidit":7672,"ĠGallic":7673,"Ġincipiunt":7674,"Ġopinionem":7675,"Ð°Ð·":7676,"Ġscriptura":7677,"Ġarbitrium":7678,"Ġauribus":7679,"Ġperduc":7680,"rentur":7681,"Deus":7682,"Ġpraemium":7683,"Ġhistoria":7684,"Ġpoenit":7685,"Ġsufficit":7686,"Ġoperationem":7687,"Ġconcessum":7688,"Ġimperatoris":7689,"ĠXVI":7690,"Ġpraeposita":7691,"Ġinquantum":7692,"Ġuita":7693,"Ġmerito":7694,"Ġstipul":7695,"ĠTarrac":7696,"Ġedictum":7697,"ĠAmericanus":7698,"Ġcitius":7699,"Ġresurrect":7700,"ĠÐ½Ð°":7701,"ĠBelg":7702,"Ġtranseunt":7703,"Ġcentesimae":7704,"Germanice":7705,"Ġseptuaginta":7706,"ĠBabyl":7707,"Ġeuismod":7708,",[":7709,"kr":7710,"out":7711,"piter":7712,"xerit":7713,"Ġaf":7714,"usa":7715,"Ġcathed":7716,"Ġnatae":7717,"aet":7718,"aeus":7719,"Ġvarius":7720,"Ġtort":7721,"retum":7722,"ome":7723,"esne":7724,"Ġhend":7725,"anne":7726,"Ġadj":7727,"Ġren":7728,"Ġlup":7729,"ild":7730,"Ġdeg":7731,"Ġdepon":7732,"ĠSatis":7733,"Ġdiis":7734,"Ġmeh":7735,"Quo":7736,"ĠPop":7737,"ectis":7738,"Ġquidque":7739,"ĠMess":7740,"Ġabst":7741,"Ġrub":7742,"Ġrhet":7743,"ĠHort":7744,"ĠHeli":7745,"ellam":7746,"ultum":7747,"ĠFrat":7748,"Ġprout":7749,"Ġproinde":7750,"ĠTr":7751,"ĠTim":7752,"Ġincend":7753,"Ġvolebat":7754,"isce":7755,"Ġconsilii":7756,"ĠVoc":7757,"Ġpotestatis":7758,"ĠGre":7759,"ĠBonum":7760,"Ġpropius":7761,"Ġeoque":7762,"Ġ[...]":7763,"Ġanimarum":7764,"Ġcreavit":7765,"Ġarmis":7766,"ientis":7767,"Ġlegitur":7768,"ĠOst":7769,"Ġloqueretur":7770,"Ġsubj":7771,"escere":7772,"Ġimprim":7773,"Ġcommuniter":7774,"Ġagat":7775,"Ġvocibus":7776,"Ġremiss":7777,"Ġcivem":7778,"Ġcivile":7779,"Ġiuri":7780,"ĠQuidquid":7781,"Ġmortuis":7782,"Ġdesunt":7783,"Ġcognita":7784,"Ġsentiam":7785,"Ġsententiis":7786,"Ġfortis":7787,"Ġoccidit":7788,"Ġscriberem":7789,"Ġcorporibus":7790,"iosis":7791,"retiva":7792,"Ġclaud":7793,"Ġinsc":7794,"Ġ61":7795,"Ġvideamur":7796,"Ġmolestum":7797,"Ġprobatur":7798,"Ġvestram":7799,"Ġ99":7800,"Ġdignitas":7801,"Ġsapientem":7802,"Ġappellant":7803,"Ġsenator":7804,"Ġlongus":7805,"Ġ140":7806,"Ġprocess":7807,"Ġintelligentia":7808,"Ġmensa":7809,"Ġpeccato":7810,"Ġsignificatur":7811,"Ġostium":7812,"ĠIoach":7813,"Ġdistrib":7814,"Ġluce":7815,"Ġdonavit":7816,"Ġprodesse":7817,"Ġreform":7818,"Ġhumanae":7819,"Ġsimilem":7820,"Ġmagistri":7821,"Ġsuccessor":7822,"Ġconval":7823,"ĠLiber":7824,"Ġquodammodo":7825,"Ġpedibus":7826,"Ġevenit":7827,"ĠIacobus":7828,"Ġpretio":7829,"Ġvincit":7830,"Ġhiem":7831,"Ġdifferentiae":7832,"Ġascendit":7833,"ĠPompei":7834,"Ġdoctrinam":7835,"Ġvocabulum":7836,"Ġnemini":7837,"ĀĀĀĀ":7838,"ĠVoluptatem":7839,"ĠSuec":7840,"Ġservitutem":7841,"ĠDietae":7842,"Ġboreali":7843,"ĠAristoteles":7844,"Ġanteposuerit":7845,"ĠEsau":7846,"discretiva":7847,"ĠHannover":7848,"ĠChanaan":7849,"63":7850,"Co":7851,"Entabul":7852,"Ma":7853,"OL":7854,"Pater":7855,"br":7856,"hinc":7857,"sam":7858,"variant":7859,"Ïħ":7860,"åľ":7861,"Ġ!":7862,"Ġeidem":7863,"Ġsax":7864,"Ġpoll":7865,"onibus":7866,"emin":7867,"ictum":7868,"rept":7869,"oman":7870,"imenta":7871,"iare":7872,"olite":7873,"ĠAet":7874,"esta":7875,"ĠNob":7876,"ensus":7877,"Ġhabuerit":7878,"Ġcomper":7879,"Ġvelint":7880,"Ġvidero":7881,"Ġuere":7882,"ĠHung":7883,"Ġeros":7884,"ĠRect":7885,"ĠGad":7886,"Ġsecuri":7887,"Ġveniret":7888,"isii":7889,"Ġspoli":7890,"escunt":7891,"Ġnaturale":7892,"Ġcommunibus":7893,"Ġrationis":7894,"Ġpartium":7895,"cipit":7896,"Ġmalitiae":7897,"Ġreput":7898,"Ġmaximo":7899,"Ġmagisque":7900,"Ġsentit":7901,"Ġoccisus":7902,"Ġgratissimum":7903,"Ġinferos":7904,"Ġfidel":7905,"Ġmiserunt":7906,"Ġpersonis":7907,"Ġ68":7908,"Ġmoriens":7909,"Ġnovissimo":7910,"ienses":7911,"Ġvaleat":7912,"ĠGraecae":7913,"Ġegit":7914,"Ġegressi":7915,"Ġquandoque":7916,"Ġsaeculis":7917,"Ġfuturo":7918,"Ġ150":7919,"ĠXen":7920,"Ġweb":7921,"actis":7922,"Ġsenatum":7923,"Ġ119":7924,"Ġmiles":7925,"ĠBrutus":7926,"Ġpeccare":7927,"Ġlatina":7928,"ãģĦ":7929,"ĠQuisquam":7930,"Ġsignificant":7931,"Ġsociis":7932,"ÑģÐº":7933,"Ð½Ð¾":7934,"Ġadiunct":7935,"ĠIoas":7936,"Ġluctus":7937,"Ġferendum":7938,"Ġexplicari":7939,"Ġchar":7940,"letum":7941,"ĠCurabitur":7942,"Ġaccepisse":7943,"Ġseptentr":7944,"Ġhostibus":7945,"Ġdelectat":7946,"Ġvigesima":7947,"Ġsalutis":7948,"ĠMagna":7949,"Ġquotiens":7950,"ĠIudaeos":7951,"Ġfuror":7952,"Ġfurtum":7953,"Ġmitto":7954,"Ġterritor":7955,"prop":7956,"Ġsonus":7957,"Ġinterrogavit":7958,"ĠAugustus":7959,"Ġcenses":7960,"ĠMosen":7961,"Ġnonnulli":7962,"Ġfacilisis":7963,"Ġfestin":7964,"Ġhabitatores":7965,"Ġpraetore":7966,"Ġincommut":7967,"Ġcomprehenderunt":7968,"Ġcecidit":7969,"Ġcoepi":7970,"Ġsustinere":7971,"Ġpisces":7972,"Ġelev":7973,"ĠContra":7974,"ĠVestibulum":7975,"Ġtriumph":7976,"Ġflagit":7977,"ĠCirca":7978,"Ġabsurdum":7979,"Ġobsecro":7980,"ipatet":7981,"ĠTarraconensi":7982,"78":7983,"Can":7984,"Cap":7985,"Gen":7986,"OX":7987,"Sal":7988,"eff":7989,"fl":7990,"nec":7991,"nia":7992,"post":7993,"rerit":7994,"Ã§":7995,"ä½":7996,"æĪ":7997,"æĸ":7998,"Ġ#":7999,"Ġ>":8000,"Ġ~":8001,"eramus":8002,"Ġastr":8003,"Ġsord":8004,"Ġquendam":8005,"Ġquondam":8006,"Ġpest":8007,"ĠcÃ¦":8008,"Ġcerv":8009,"Ġdant":8010,"Ġdaemon":8011,"ick":8012,"iciam":8013,"iculo":8014,"Ġtend":8015,"eti":8016,"aram":8017,"anas":8018,"ibiles":8019,"oct":8020,"Ġuter":8021,"ionalis":8022,"ilv":8023,"ĠEm":8024,"Ġconuen":8025,"Ġexstitit":8026,"ĠDiv":8027,"Ġmearum":8028,"Ġdicet":8029,"Ġdicerem":8030,"Ġbo":8031,"ĠPoss":8032,"ĠNobis":8033,"ensium":8034,"Ġhabuerunt":8035,"uchi":8036,"ĠMD":8037,"ĠMass":8038,"Ġapta":8039,"Ġveris":8040,"Ġuult":8041,"ĠLaced":8042,"ĠHae":8043,"ĠHomin":8044,"ĠHunc":8045,"Ġincogn":8046,"ĠVt":8047,"Ġplag":8048,"Ġplerique":8049,"Ġlibentius":8050,"ienti":8051,"Ġusquam":8052,"Ġincolum":8053,"Ġaguntur":8054,"Ġacquis":8055,"Ġpraesentibus":8056,"Ġvocantur":8057,"Ġexpul":8058,"Ġiurid":8059,"Ġdiscrim":8060,"Ġappos":8061,"Ġconfite":8062,"ĠÐ¼":8063,"Ġeisdem":8064,"Ġpraetermitt":8065,"Ġnegare":8066,"Ġcaelis":8067,"ĠArt":8068,"Ġsumme":8069,"Ġsalvi":8070,"Ġfugere":8071,"Ġimperatore":8072,"Ġ90":8073,"1088":8074,"Ġhumani":8075,"Ġfuturus":8076,"Ġignem":8077,"Ġceteros":8078,"Ġ149":8079,"Â»,":8080,"Ġmuneribus":8081,"ifend":8082,"Ġostendere":8083,"Ġtheolog":8084,"ĠIoannis":8085,"Ġconditum":8086,"Ġauctores":8087,"Ġceler":8088,"Ġartes":8089,"ationalis":8090,"Ġprofessor":8091,"ĠPraesent":8092,"Ġdissol":8093,"Ġnegotii":8094,"ĠScio":8095,"Ġdictae":8096,"erebat":8097,"ĠPeripatet":8098,"Ġmittere":8099,"Ġsucced":8100,"Ġsinu":8101,"Ġscripsisti":8102,"Ġcastris":8103,"Ġheredem":8104,"Ġpropheta":8105,"ĠDolor":8106,"Ġdifferentiam":8107,"ĠCorne":8108,"Ġtalibus":8109,"Ġjusto":8110,"Ġstultus":8111,"Ġambo":8112,"Ġsepultus":8113,"Ġancillam":8114,"Ġancillae":8115,"Ġxx":8116,"ÏĦÎ¿":8117,"Ġortum":8118,"Ġcadere":8119,"ĠSuperioris":8120,"Ġurna":8121,"Ġfiduciam":8122,"Ġeleifend":8123,"ĠCiceronem":8124,"Ġligula":8125,"Ġfructu":8126,"Ġconsistit":8127,"Ġgrand":8128,"ogallice":8129,"Ġsinistram":8130,"ĠIuppiter":8131,"Ġhendrerit":8132,"ĠLacedaemon":8133,"Il":8134,"Pl":8135,"Th":8136,"Vol":8137,"cem":8138,"cunque":8139,"ja":8140,"oz":8141,"rarum":8142,"title":8143,"uad":8144,"Ġcanc":8145,"aev":8146,"aeter":8147,"emiae":8148,"Ġmit":8149,"Ġmaris":8150,"orus":8151,"Ġinj":8152,"Ġinl":8153,"Ġvendit":8154,"Ġiug":8155,"rev":8156,"Ġfict":8157,"omach":8158,"aron":8159,"ĠprÃ¦":8160,"old":8161,"Ġadp":8162,"Ġutendum":8163,"Ġdeinceps":8164,"Ġdirect":8165,"Ġperag":8166,"ĠPu":8167,"ĠPac":8168,"ĠQuapropter":8169,"Ġcoha":8170,"ĠNic":8171,"iro":8172,"isso":8173,"Ġrursum":8174,"ĠLus":8175,"ĠHe":8176,"ĠHerm":8177,"Ġpara":8178,"Ġparem":8179,"Ġparata":8180,"Ġconsoc":8181,"âĢº":8182,"igit":8183,"Ġfilias":8184,"Ġlibid":8185,"Ġbonos":8186,"Ġstir":8187,"Ġstrep":8188,"Ġminores":8189,"Ġminimum":8190,"Ġlegato":8191,"Ġaudiunt":8192,"ĠUtinam":8193,"Ġcausarum":8194,"iii":8195,"Ġdebeant":8196,"Ġvituper":8197,"Ġputandum":8198,"Ġistorum":8199,"Ġtabularum":8200,"Ġremot":8201,"Ġcapta":8202,"uxi":8203,"Ġdivinam":8204,"Ġdecima":8205,"Ġscribas":8206,"Ġsequatur":8207,"Ġcarere":8208,"Ġpraeteritis":8209,"Ġrespons":8210,"inoesiae":8211,"Ġsummi":8212,"ĠGraeco":8213,"Ġnescimus":8214,"Ġquaerenda":8215,"ĠIsra":8216,"Ġdiligat":8217,"Ġdiligunt":8218,"Ġreiecta":8219,"ÐµÐº":8220,"ĠExc":8221,"Ġ159":8222,"ĠUtrum":8223,"Ġmensibus":8224,"Ġpuls":8225,"Ġregnavit":8226,"Ġmetrop":8227,"Ġdeter":8228,"ĠRegione":8229,"Ġpossessione":8230,"Ġphilosophorum":8231,"Ġinstitutum":8232,"Ġexempl":8233,"Ġexemplis":8234,"Ġcogitationes":8235,"ĠIllinoesiae":8236,"Ġhumanis":8237,"Ġhumanitatis":8238,"Ġcanis":8239,"Ġdictis":8240,"Ġerrore":8241,"Ġsexto":8242,"Ġdifficillim":8243,"Ð¾Ð¹":8244,"ĠIosiae":8245,"Ġmeliora":8246,"Ġlibertate":8247,"ĠAsia":8248,"Ġequo":8249,"ĠHispania":8250,"Ġsono":8251,"Ġsyn":8252,"Ġturpius":8253,"Ġcreaturae":8254,"Ġprophetae":8255,"ĠCorp":8256,"Ġcaptus":8257,"Ġsuscepit":8258,"Ġadventum":8259,"Ġbestiae":8260,"Ġbeneficio":8261,"ĠSalv":8262,"Ġotium":8263,"Ġquaeritis":8264,"Ġinfinita":8265,"Ġbreviter":8266,"Ġiuvent":8267,"ustrali":8268,"ĠDemocr":8269,"ĠSequanae":8270,"Ġspeciei":8271,"Ġauctore":8272,"Ġpassus":8273,"ĠAustriae":8274,"ĠAssyri":8275,"Ġcalidum":8276,"ĠPDF":8277,"Ġeunuchi":8278,"108836":8279,"62":8280,"68":8281,"==":8282,"AC":8283,"AN":8284,"DU":8285,"Dol":8286,"Iam":8287,"OV":8288,"be":8289,"bl":8290,"hoc":8291,"hac":8292,"hab":8293,"lt":8294,"serunt":8295,"uk":8296,"zi":8297,"Ã¥":8298,"ÏĨ":8299,"çĶ":8300,"Ĩgypt":8301,"Ġsinc":8302,"ame":8303,"Ġnis":8304,"stem":8305,"Ġdere":8306,"emini":8307,"Ġmorem":8308,"Ġmenti":8309,"Ġmix":8310,"Ġtor":8311,"utiones":8312,"Ġfus":8313,"liothec":8314,"enis":8315,"Ġhist":8316,"ett":8317,"Ġprior":8318,"Ġaduers":8319,"Ġreus":8320,"Ġrest":8321,"Ġles":8322,"abitis":8323,"Ġutraque":8324,"ĠIdeo":8325,"ĠCr":8326,"ĠCy":8327,"ĠCas":8328,"Ġalibi":8329,"Ġfaciens":8330,"Ġpraepon":8331,"ratio":8332,"ensibus":8333,"Ġposui":8334,"uitu":8335,"Ġsculpt":8336,"ĠMur":8337,"aecenas":8338,"Ġ(...)":8339,"Ġviderentur":8340,"ĠLitter":8341,"Ġprou":8342,"Ġparatus":8343,"ĠTib":8344,"Ġincor":8345,"Ġincertum":8346,"Ġquaerunt":8347,"Ġsoles":8348,"ĠBOX":8349,"Ġcontul":8350,"Ġintersit":8351,"Ġrespectu":8352,"rii":8353,"iren":8354,"Ġallig":8355,"Ġdup":8356,"Ġdebit":8357,"Ġnullae":8358,"Ġvocati":8359,"Ġtrip":8360,"Ġremed":8361,"Ġremov":8362,"Ġmalus":8363,"Ġamicitiis":8364,"tores":8365,"iciendis":8366,"Ġ58":8367,"Ġrecessit":8368,"Ġrecognosc":8369,"Ġmollis":8370,"Ġgrata":8371,"Ġdeleta":8372,"Ġlaborem":8373,"Ġprovoc":8374,"illo":8375,"Ġsanctis":8376,"assem":8377,"Ġaccipitur":8378,"Ġreliqui":8379,"ĠExemp":8380,"Ġignomin":8381,"actae":8382,"Ġsubstantiis":8383,"Ġpraedicta":8384,"Ġ109":8385,"Ġlatere":8386,"ãģ§":8387,"Ġ169":8388,"Ġtimore":8389,"Ġaedificavit":8390,"Ġadiut":8391,"Ġultrici":8392,"Ġconsulatum":8393,"Ġphilosophia":8394,"ĠÃĨgypt":8395,"ĠAnte":8396,"Ġdeput":8397,"Ġrecipiunt":8398,"Ġmagistrum":8399,"Ġiurisdict":8400,"Ġpropriis":8401,"Ġaccidentia":8402,"Ġlibertatis":8403,"ĠMagister":8404,"Ġdefinit":8405,"Ġmarit":8406,"Ġconiunctio":8407,"yrr":8408,"Ġreligionis":8409,"Ġvidebantur":8410,"Ġsocietate":8411,"ĠNullam":8412,"Ġquaesita":8413,"Ġgenerale":8414,"Ġjustitiam":8415,"ĠEnim":8416,"ĠAngliae":8417,"Ġvendidit":8418,"Ġrelictum":8419,"Ġiucundius":8420,"Ġincommod":8421,"icesimo":8422,"Ġturba":8423,"Ġceciderunt":8424,"Ġcotidi":8425,"ĠMulti":8426,"Ġventura":8427,"Ġtristitiam":8428,"Ġauctorem":8429,"Ġdifficultate":8430,"hopify":8431,"ĠBeatus":8432,"ĠCampania":8433,"Ġbrach":8434,"Ġmeridiem":8435,"Ġsagitt":8436,"ĠPyrenaeorum":8437,"ĠAtlanticorum":8438,"éĭ¼":8439,"Ġultricies":8440,"61":8441,"73":8442,"AL":8443,"Iron":8444,"Vulgate":8445,"ber":8446,"form":8447,"mag":8448,"prae":8449,"public":8450,"yth":8451,"´ì":8452,"Î¬":8453,"ÑĦ":8454,"Ġequis":8455,"atenus":8456,"Ġmig":8457,"Ġvillam":8458,"Ġvires":8459,"uter":8460,"Ġful":8461,"Ġherb":8462,"arias":8463,"idio":8464,"ecun":8465,"ibilem":8466,"Ġadnunt":8467,"ede":8468,"Ġluna":8469,"acumque":8470,"Ġutilia":8471,"eluia":8472,"Ġdea":8473,"Ġdeesse":8474,"Ġdeorsum":8475,"ĠEd":8476,"ĠEam":8477,"ĠEorum":8478,"ĠSatur":8479,"ĠSine":8480,"ĠScript":8481,"Ġ112":8482,"Ġdiceres":8483,"Ġbov":8484,"aturae":8485,"ĠNa":8486,"Ġipsas":8487,"Ġoppon":8488,"ĠRob":8489,"Ġcadit":8490,"ĠTol":8491,"ĠTest":8492,"isco":8493,"Ġplerisque":8494,"Ġaccedit":8495,"Ġcommor":8496,"ĠEtsi":8497,"Ġlibere":8498,"Ġdixerimus":8499,"incta":8500,"rique":8501,"Ġnostras":8502,"Ġ1919":8503,"ĠOri":8504,"Ġlocorum":8505,"Ġaltare":8506,"Ġsubic":8507,"Ġsublim":8508,"Ġdomic":8509,"Ġcommunes":8510,"Ġdeberet":8511,"Ġvocas":8512,"Ġputatur":8513,"Ġurbana":8514,"Ġcapita":8515,"Ġapprob":8516,"itudini":8517,"Ġdeced":8518,"Ġactis":8519,"Ġinvas":8520,"Ġlitteram":8521,"Ġcredidit":8522,"Ġcrediderunt":8523,"Ġpraeterquam":8524,"Ġ67":8525,"Ġ2017":8526,"Ġ2018":8527,"Ġoptima":8528,"Ġprobari":8529,"Ġprincipiis":8530,"Ġdiligentiam":8531,"Ġ94":8532,"ĠChrys":8533,"Ġsapientis":8534,"Ġmutari":8535,"Ġhonoribus":8536,"ĠXXX":8537,"Ġaedibus":8538,"Ð¸ÑĤ":8539,"posuit":8540,"Ġeman":8541,"Ġmillesimo":8542,"Ġaperta":8543,"Ġliberorum":8544,"Ġaequalis":8545,"Ġaedificia":8546,"Ġadiuncta":8547,"cripta":8548,"Ġpraecipio":8549,"Ġefficiunt":8550,"Ġtraditum":8551,"Ġconsulem":8552,"Ġsciret":8553,"Ġphilosophis":8554,"Ġaeternitas":8555,"Ġspirit":8556,"Ġrefertur":8557,"Ġcalum":8558,"ĠAliquid":8559,"Ġhumanitate":8560,"Ġdiluv":8561,"Ġhostem":8562,"Ġreperiuntur":8563,"Ġproximi":8564,"Ġlibertas":8565,"Ġ1947":8566,"ĠHierem":8567,"Ġhabitare":8568,"Ġsententias":8569,"Ġhereditatem":8570,"Ġfabulae":8571,"Ġtutel":8572,"Ġlaoreet":8573,"Ġtemere":8574,"Ġargumenta":8575,"ĠDolab":8576,"ĠDolorem":8577,"Ġcaptiv":8578,"Ġcondicio":8579,"Ġpraesidium":8580,"Ġfrequent":8581,"Ġpertineat":8582,"oks":8583,"ĠSalom":8584,"Ġconcessa":8585,"Ġoblitus":8586,"Ġvocabula":8587,"itteret":8588,"Ġpaenitentiam":8589,"Ġdecretum":8590,"ĠSemper":8591,"Quamquam":8592,"Francogallice":8593,"encia":8594,"ĠSaxoniae":8595,"ĠAemilia":8596,"Ġilluminat":8597,"ĠMoyses":8598,"Ġnormam":8599,"Ġsacrific":8600,"Ioannes":8601,"Ġadolesc":8602,"\";":8603,"';":8604,"1000":8605,"Ap":8606,"Ant":8607,"Cic":8608,"DP":8609,"Er":8610,"HX":8611,"Or":8612,"bis":8613,"ey":8614,"eamus":8615,"efac":8616,"riae":8617,"vimus":8618,"ww":8619,"Ã¹":8620,"ÄĻ":8621,"Ùĩ":8622,"ĠÑĤ":8623,"quia":8624,"itet":8625,"Ġpus":8626,"Ġpanis":8627,"onias":8628,"Ġnox":8629,"Ġnau":8630,"aei":8631,"stor":8632,"Ġinsequ":8633,"uria":8634,"urarum":8635,"Ġteg":8636,"Ġianu":8637,"Ġfov":8638,"Ġfate":8639,"oma":8640,"esi":8641,"imas":8642,"Ġhil":8643,"uld":8644,"ulare":8645,"Ġprist":8646,"Ġprav":8647,"elunc":8648,"ott":8649,"Ġdestit":8650,"ĠIus":8651,"ĠCain":8652,"agog":8653,"ĠDrus":8654,"Ġaliunde":8655,"Ġalioquin":8656,"ĠNeg":8657,"Ġposuerunt":8658,"Ġsciunt":8659,"inavit":8660,"Ġuest":8661,"ĠLoc":8662,"ĠHistor":8663,"ĠRest":8664,"Ġamari":8665,"Ġinclin":8666,"Ġsoleo":8667,".....":8668,"Ġaccum":8669,"Ġresc":8670,"Ġregina":8671,"Ġfecerim":8672,"Ġvirgo":8673,"abulum":8674,"ĠOI":8675,"ĠOl":8676,"Ġspelunc":8677,"Ġaudisset":8678,"Ġmultitudine":8679,"Ġobv":8680,"Ġmagnitudinis":8681,"Ġcuiuslibet":8682,"Ġnaturaliter":8683,"Ġdebitum":8684,"Ġagas":8685,"Ġvocum":8686,"Ġpecora":8687,"Ġcursum":8688,"Ġcapiat":8689,"Ġdivitiarum":8690,"ogle":8691,"Ġdecret":8692,"Ġdeclina":8693,"ĠQuodsi":8694,"Ġservis":8695,"Ġelabor":8696,"Ġnotitiam":8697,"Ġ71":8698,"Ġ73":8699,"Ġ78":8700,"Ġcredibile":8701,"Ġdefendere":8702,"Ġoptimi":8703,"Ġpraefectura":8704,"Ġmolestus":8705,"Ġprobata":8706,"Ġinveniri":8707,"Ġredire":8708,"ĠArc":8709,"Ġvestro":8710,"ĠGraecus":8711,"Ġtestes":8712,"ĠAdhuc":8713,"Ġcognosci":8714,"Ġappellavit":8715,"Ġundev":8716,"Ġconiur":8717,"Ġstatua":8718,"Ġpraedicatum":8719,"ĠBrute":8720,"Ġmoveatur":8721,"Ġveterum":8722,"ĠEstne":8723,"Ġhabeatis":8724,"Ġnoluit":8725,"Ġinstituta":8726,"Ġpersonarum":8727,"Ġbibit":8728,"Ġclara":8729,"Ġangeli":8730,"Ġsexaginta":8731,"Ġcopias":8732,"Ð¾Ð´":8733,"Ġ</":8734,"ronae":8735,"Ġhabitant":8736,"rens":8737,"ĠAugustinus":8738,"Ġvehicula":8739,"Ġdamnum":8740,"urrit":8741,"Ġfabulam":8742,"Ġpervenire":8743,"Ġtuto":8744,"Ġarcam":8745,"Ġperpetuo":8746,"lack":8747,"Ġpostulat":8748,"Ġitemque":8749,"ÐµÐ¼":8750,"Ġcantus":8751,"ĠCalv":8752,"ĠMater":8753,"Ġapostolici":8754,"ĠAfrica":8755,"Ġsomno":8756,"Ġscholae":8757,"Ġindignum":8758,"Ġpeculio":8759,"Ã«l":8760,"Ġdividitur":8761,"Ġoctavo":8762,"Ġirritum":8763,"Ġpignus":8764,"Ġmercedem":8765,"ĠArduen":8766,"cuiusque":8767,"ĠIovis":8768,"Ġconsulibus":8769,"Ġrelatiue":8770,"ĠCalifor":8771,"ĠBerolini":8772,"ĠIsraÃ«l":8773,".;":8774,"54":8775,"Act":8776,"Hodie":8777,"Ill":8778,"Ki":8779,"Municipia":8780,"Variant":8781,"cid":8782,"div":8783,"ienda":8784,"lent":8785,"piam":8786,"pro":8787,"pectus":8788,"sh":8789,"Ã»":8790,"ç´":8791,"Ġè":8792,"umenta":8793,"Ġaem":8794,"Ġaustrali":8795,"aeum":8796,"Ġdarem":8797,"Ġmur":8798,"Ġmasc":8799,"Ġmach":8800,"urs":8801,"Ġvali":8802,"Ġvaria":8803,"Ġvariant":8804,"Ġtun":8805,"Ġiri":8806,"Ġfertur":8807,"Ġfront":8808,"esque":8809,"Ġhe":8810,"arat":8811,"anct":8812,"ids":8813,"Ġaditus":8814,"edo":8815,"Ġliter":8816,"Ġlunae":8817,"udum":8818,"ĠAx":8819,"Ġexor":8820,"Ġexire":8821,"ĠSov":8822,"agor":8823,"ĠDa":8824,"ĠDu":8825,"Ġdicantur":8826,"Ġdicerent":8827,"Ġfacerent":8828,"Ġpraestit":8829,"Ġbac":8830,"ĠPtol":8831,"ĠQuasi":8832,"peret":8833,"Ġgymn":8834,"Ġcoeperit":8835,"Ġhabenda":8836,"Ġtuarum":8837,"Ġsciendum":8838,"ucta":8839,"Ġpotu":8840,"Ġabduc":8841,"Ġabstin":8842,"Ġrum":8843,"ĠHac":8844,"ĠHanc":8845,"Ġidest":8846,"Ġnequam":8847,"ĠRev":8848,"ĠRei":8849,"ĠTit":8850,"Ġnihilum":8851,"erti":8852,"Ġsolam":8853,"ĠBar":8854,"igi":8855,"ientur":8856,"Ġlegat":8857,"Ġlegionibus":8858,"Ġspatio":8859,"Ġincolunt":8860,"Ġpostulo":8861,"Ġpostremo":8862,"Ġobnox":8863,"Ġimpud":8864,"ades":8865,"Ġagis":8866,"Ġgenerum":8867,"Ġacies":8868,"Ġnuncup":8869,"ernum":8870,"pexit":8871,"Ġcivitatum":8872,"Ġdecet":8873,"Ġasinum":8874,"Ġcomprob":8875,"Ġconcub":8876,"Ġconcept":8877,"Ġservire":8878,"Ġrecept":8879,"ĠChar":8880,"Ġvivific":8881,"Ġsequens":8882,"Ġcaritatem":8883,"Ġcardin":8884,"Ġinscript":8885,"Ġtenuit":8886,"Ġcredentes":8887,"Ġ62":8888,"Ġoppress":8889,"Ġexclud":8890,"ance":8891,"Ġprobatum":8892,"Ġprobationem":8893,"Ð°ÑĢ":8894,"ĠArmen":8895,"Ġ82":8896,"Ġ84":8897,"Ġ87":8898,"rehensum":8899,"Ġegredi":8900,"Ġtranqu":8901,"Ġnecessitatem":8902,"Ġreliquos":8903,"Ġmediae":8904,"Ġpatron":8905,"Ġaccusare":8906,"ifex":8907,"Ġtransg":8908,"Ġostendam":8909,"Ġtimor":8910,"Ġaedificata":8911,"ideas":8912,"Ġadiun":8913,"Ġepiscopum":8914,"Ã©n":8915,"Ġdetest":8916,"Ġpraecipua":8917,"Ġvetus":8918,"Ġdumtax":8919,"Ġartibus":8920,"Ġfinita":8921,"Ġbreve":8922,"Ġdiuers":8923,"Ġindicat":8924,"ĠIudaeis":8925,"Ġmittam":8926,"Ġpraedia":8927,"Ġoffens":8928,"Ġcompositum":8929,"Ġreligionem":8930,"ĠPars":8931,"Ġarcu":8932,"Î¿Î½":8933,"Ġcrimine":8934,"ocraticae":8935,"Ġbenedixit":8936,"Ġdubitamus":8937,"Ġindigentia":8938,"Ġtollitur":8939,"ĠEuropa":8940,"ĠColosse":8941,"Ġperspicuum":8942,"ĠXVIII":8943,"Ġurbi":8944,"Ġretinere":8945,"Ġpaenitet":8946,"Ġabundantia":8947,"ĠTerra":8948,"ĠIncolae":8949,"Ġcatholica":8950,"Ġfabric":8951,"Ġpoetae":8952,"Ġuerba":8953,"Ġmagistratibus":8954,"ĠNescio":8955,"Ġpercussit":8956,"Ġbenevolentiae":8957,"Ġoriginem":8958,"ĠPharao":8959,"Ġsigno":8960,"Ġtortor":8961,"Ġincorrupt":8962,"Ġdumtaxat":8963,"?Â»":8964,"AP":8965,"ES":8966,"Lingu":8967,"Per":8968,"Pro":8969,"eae":8970,"iur":8971,"iol":8972,"ietur":8973,"ieri":8974,"rari":8975,"vo":8976,"vae":8977,"veg":8978,"xisti":8979,"ysi":8980,"Ã¬":8981,"Äĥ":8982,"Î³":8983,"Î´":8984,"ĠÑĢ":8985,"Ġpel":8986,"Ġpub":8987,"Ġpress":8988,"ativa":8989,"Ġcarum":8990,"Ġcith":8991,"Ġdot":8992,"org":8993,"Ġvt":8994,"Ġtal":8995,"Ġtag":8996,"Ġhujus":8997,"odus":8998,"etiam":8999,"Ġnono":9000,"Ġadl":9001,"Ġadest":9002,"elus":9003,"Ġdestin":9004,"Ġconatus":9005,"ĠIb":9006,"ĠSaec":9007,"ĠCot":9008,"ĠCupid":9009,"ages":9010,"omne":9011,"Quia":9012,"Ġbut":9013,"istit":9014,"ĠPod":9015,"ĠPlin":9016,"uctum":9017,"Ġseipsum":9018,"ĠLex":9019,"ĠHam":9020,"Ġerimus":9021,"Ġparlam":9022,"ĠTam":9023,"Ġincho":9024,"Ġtemplo":9025,"ĠGer":9026,"Ġmodest":9027,"igh":9028,"ineant":9029,"Ġinterfectus":9030,"Ġpatrum":9031,"Ġpatef":9032,"Ġanimos":9033,"ĠIndic":9034,"Ġveneris":9035,"Ġvenientem":9036,"issimas":9037,"Ġ1920":9038,"Ġ1933":9039,"Ġloquens":9040,"Ġoculo":9041,"Ġmultus":9042,"Ġscripto":9043,"Ġdui":9044,"ĠAnsel":9045,"Ġagg":9046,"Ġagenda":9047,"Ġacerb":9048,"Ġtabulam":9049,"Ġmalitiam":9050,"Ġecclesias":9051,"Ġrepper":9052,"ĠâĢ¹":9053,"Ġassign":9054,"Ġpuerit":9055,"Ġcognitum":9056,"ĠFrancicae":9057,"ĠFranciscus":9058,"Ġconcepit":9059,"Ġrecuper":9060,"Ġgratul":9061,"ĠRomaniae":9062,"Ġconfec":9063,"Ġcorpori":9064,"rema":9065,"iosae":9066,"Ġvivi":9067,"Ġvivat":9068,"Ġnotandum":9069,"Ġclari":9070,"Ġteneri":9071,"Ġplacitum":9072,"Ġpersuad":9073,"Ġlaboris":9074,"Ġdefl":9075,"Ġ64":9076,"Ġmorta":9077,"Ġnovo":9078,"Ġnovus":9079,"Ġvaleas":9080,"Ġinvenimus":9081,"Ġinveniat":9082,"Ġfrug":9083,"Ġnesci":9084,"Ġducem":9085,"Ġplurimis":9086,"ĠMartin":9087,"Ġcogito":9088,"Ġ170":9089,"ĠExp":9090,"Ġaquis":9091,"Ġaperte":9092,"Ġpeccatorum":9093,"Ġcontrist":9094,"ãģ«":9095,"Ġsignificare":9096,"ĠAlt":9097,"Ġponam":9098,"Ġaequales":9099,"Ġdiffin":9100,"Ġdiffert":9101,"Ġevac":9102,"ardus":9103,"Ġinstitutus":9104,"Ġinstitutis":9105,"Ġcogitatur":9106,"Ġprompt":9107,"Ġpromotus":9108,"Ġerrorem":9109,"Ġseptimo":9110,"Ġrecipit":9111,"ĠPetro":9112,"Ġreperire":9113,"Ġuideri":9114,"Ġdisputare":9115,"atuor":9116,"Ġludum":9117,"Ġambulare":9118,"Ġmerces":9119,"Ġignorat":9120,"Ġversantur":9121,"Ġfabula":9122,"Ġfabulas":9123,"ĠDecisiones":9124,"Ġmeruit":9125,"Ġfestum":9126,"Ġflumine":9127,"Ġfluminis":9128,"Ġsufficere":9129,"Ġuniuscuiusque":9130,"Ġproficiscitur":9131,"ĠPersarum":9132,"Ġdecreta":9133,"Ġtitulum":9134,"Ġgubernator":9135,"aphat":9136,"aphys":9137,"ĠAlexander":9138,"ĠĠĠĠĠĠĠĠĠĠĠĠĠĠĠĠĠĠĠĠĠĠĠĠĠĠĠĠĠĠĠĠĠĠĠĠĠĠĠĠĠĠĠĠĠĠĠĠĠĠĠĠĠĠĠĠĠĠĠĠĠĠĠĠ":9139,"Ġdextera":9140,"Ġoeconomiae":9141,"ĠLatinos":9142,"Ġreversi":9143,"Ġomittam":9144,"\"\\\"\\\"\\\"\\\"\\\"\\\"\\\"\\\"\\\"\\\"\\\"\\\"\\\"\\\"\\\"\\\"\\\"\\\"\\\"\\\"\\\"\\\"\\\"\\\"\\\"\\\"\\\"\\\"\\\"\\\"\\\"\\\"\\\"\\\"\\\"\\\"\\\"\\\"\\\"\\\"\\\"\\\"\\\"\\\"\\\"\\\"\\\"\\\"\\\"\\\"\\\"\\\"\\\"\\\"\\\"\\\"\\\"\\\"\\\"\\\"\\\"\\\"\\\"\\":9145,"Ġdilexit":9146,"Ġdefunctus":9147,"Aliquam":9148,"ĠSociet":9149,"Dixitque":9150,"ĠJoseph":9151,"Inter":9152,"compare":9153,"Ġmassa":9154,"cemodi":9155,"ĠSoviet":9156,"74":9157,"?âĢĿ":9158,"Aut":9159,"Cont":9160,"cor":9161,"cre":9162,"mer":9163,"nunc":9164,"pg":9165,"ricae":9166,"set":9167,"silv":9168,"ual":9169,"ÅĻ":9170,"áĥ":9171,"ĠØ":9172,"ĠÃ©":9173,"Ġeuen":9174,"erra":9175,"Ġast":9176,"itania":9177,"usce":9178,"Ġnerv":9179,"Ġnatu":9180,"Ġdaret":9181,"Ġtan":9182,"Ġtattoos":9183,"ree":9184,"rexit":9185,"Ġfatum":9186,"Ġfiet":9187,"Ġfoll":9188,"etae":9189,"any":9190,"ecimo":9191,"Ġrenov":9192,"Ġreiciendis":9193,"Ġliturg":9194,"Ġutatur":9195,"Ġutrique":9196,"ĠIon":9197,"ĠIan":9198,"ĠSe":9199,"ĠSara":9200,"ĠCong":9201,"ĠCla":9202,"ĠClaritas":9203,"ĠDico":9204,"esti":9205,"Ġperp":9206,"Ġpraedit":9207,"ĠPag":9208,"ĠPenn":9209,"ĠQuantum":9210,"Ġgentem":9211,"Ġhabitura":9212,"ivoc":9213,"ĠMath":9214,"Ġsei":9215,"ĠLaud":9216,"ĠLev":9217,"ĠHÃ¦c":9218,"eruntque":9219,"Ġnequ":9220,"ĠDef":9221,"ĠTrans":9222,"Ġinclus":9223,"Ġaliquet":9224,"ĠVnde":9225,"Ġmay":9226,"Ġmauris":9227,"Ġsolitum":9228,"ĠBulg":9229,"Ġsumitur":9230,"Ġfuissent":9231,"erationem":9232,"Ġbonitatem":9233,"roque":9234,"Ġlegunt":9235,"Ġvenias":9236,"Ġlocup":9237,"Ġloquendo":9238,"Ġspatium":9239,"Ġalleg":9240,"Ġsubter":9241,"Ġaudeo":9242,"Ġobj":9243,"Ġobsequ":9244,"Ġscriptus":9245,"Ġnullis":9246,"Ġvitiis":9247,"Ġcurare":9248,"Ġsuperiorem":9249,"Ġsuperioribus":9250,"uique":9251,"Ġcivitati":9252,"Ġdecip":9253,"Ġdeceat":9254,"ĠQuidam":9255,"Ġdedisse":9256,"Ġmortua":9257,"Ġdeser":9258,"Ġsentiunt":9259,"Ġconcilium":9260,"Ġrecens":9261,"Ġrecepit":9262,"Ġscribitur":9263,"Ġscribendum":9264,"ioso":9265,"Ġinventus":9266,"Ġiusti":9267,"Ġviventem":9268,"iensi":9269,"Ġfiebat":9270,"Ġmolestie":9271,"Ġcertiorem":9272,"Ġvester":9273,"ĠGraeciam":9274,"Ġquaerendum":9275,"Ġaetatibus":9276,"Ġ97":9277,"Ġhonores":9278,"Ġtabell":9279,"ĠXIII":9280,"Ġaedes":9281,"Ġ118":9282,"Ġemere":9283,"Ġfactio":9284,"Ġdubitatio":9285,"Ġoppidi":9286,"Ġaedificavi":9287,"ĠIoann":9288,"Ġdetrah":9289,"Ġpacis":9290,"ĠPostum":9291,"Ġdissent":9292,"Ġalicubi":9293,"Ġnegoti":9294,"Ġlectores":9295,"Ġaccepisti":9296,"Ġexistimes":9297,"Ġonline":9298,"ĠIudaeorum":9299,"ĠNecess":9300,"Ð°Ðº":9301,"Ġpraedest":9302,"Ġdefinitionem":9303,"Ġdefinitione":9304,"Ġ1991":9305,"Ġpedem":9306,"Ġutilitas":9307,"ÐºÐ°":9308,"ÐºÐ¸":9309,"ĠIpsa":9310,"ĠNullus":9311,"Ġ1974":9312,"Ġretro":9313,"quaeque":9314,"ĠAgrip":9315,"Ġdiap":9316,"ÐµÐ¹":9317,"Ġprosper":9318,"ĠMinore":9319,"ĠPompeio":9320,"Ġfacultas":9321,"Ġoperatio":9322,"Ġinterficere":9323,"ippus":9324,"Ġmontem":9325,"Ġdeliciis":9326,"arnationis":9327,"Ã³n":9328,"Ġitinera":9329,"Ġcongregati":9330,"Ġpraeclara":9331,"ĠLinguae":9332,"ĠQuotquot":9333,"Ġanimadverti":9334,"insula":9335,"Ġadoptionem":9336,"Ġpraediorum":9337,"Ġsenectute":9338,"Ġausus":9339,"ĠJuda":9340,"Ġmaturitatem":9341,"Ġpeius":9342,"Ġscandaliz":9343,"ailable":9344,"ĠCantu":9345,"ĠDiscip":9346,"Ġrediit":9347,"Ġusurp":9348,"ĠLondinii":9349,"ĠFrider":9350,"Ġsabb":9351,"Ġstrepitum":9352,"OVE":9353,"//":9354,"IO":9355,"Pi":9356,"Ubi":9357,"eis":9358,"ger":9359,"liter":9360,"nas":9361,"tamen":9362,"ws":9363,"{\"":9364,"}}":9365,"Ïī":9366,"ÙĨ":9367,"ÛĮ":9368,"ä¹":9369,"å¤":9370,"åį":9371,"ĠÑĥ":9372,"erentia":9373,"itionibus":9374,"usae":9375,"inar":9376,"initatis":9377,"isa":9378,"atiae":9379,"Ġnor":9380,"Ġmac":9381,"Ġinha":9382,"iciae":9383,"Ġtz":9384,"Ġiumentis":9385,"Ġfen":9386,"Ġfast":9387,"enna":9388,"anensi":9389,"osi":9390,"ules":9391,"Ġpra":9392,"ols":9393,"uni":9394,"quest":9395,"iamur":9396,"Ġquaesi":9397,"ionali":9398,"Ġsuave":9399,"alitate":9400,"ĠAll":9401,"ĠAlia":9402,"ĠCle":9403,"ĠDo":9404,"Ġ110":9405,"Ġmeque":9406,"Ġdicentem":9407,"Ġdicebatur":9408,"Ġperuen":9409,"Ġfacili":9410,"ĠPed":9411,"Ġsedere":9412,"Ġsedens":9413,"Ġgent":9414,"Ġhabebam":9415,"Ġscitur":9416,"ucius":9417,"Ġpotent":9418,"Ġpotuisset":9419,"Ġapostoli":9420,"Ġsever":9421,"andas":9422,"Ġviderat":9423,"Ġrip":9424,"Ġoptin":9425,"Ġerrare":9426,"ĠRosc":9427,"Ġcaerim":9428,"ĠFin":9429,"Ġvolum":9430,"Ġvolueris":9431,"Ġconsuli":9432,"Ġimo":9433,"Ġnihilominus":9434,"ĠGali":9435,"iginti":9436,"Ġfueris":9437,"Ġorci":9438,"Ġpatrim":9439,"Ġregia":9440,"Ġregioni":9441,"Ġminore":9442,"Ġspectare":9443,"eatrum":9444,"ĠUx":9445,"Ġvoluptatis":9446,"Ġnosc":9447,"Ġduplex":9448,"Ġagatur":9449,"Ġpraesidem":9450,"Ġputabat":9451,"Ġcursu":9452,"Ġiudico":9453,"Ġamica":9454,"Ġsuade":9455,"Ġmaximae":9456,"Ġfortuit":9457,"Ġiuste":9458,"ietis":9459,"Ġelecta":9460,"Ġvivo":9461,"Ġpossitis":9462,"ĠAmor":9463,"ĠAmen":9464,"Ġcredidi":9465,"Ġeritis":9466,"Ġexclus":9467,"Ġvalent":9468,"Ġnegant":9469,"Ġprobandum":9470,"Ġinvenies":9471,"Ġprincipem":9472,"Ġvestrae":9473,"Ġjus":9474,"Ġnesciebam":9475,"Ġducit":9476,"Ġundique":9477,"Ġgradum":9478,"Ġnecessitatis":9479,"ĠProc":9480,"Ġabsente":9481,"Ġintellegatur":9482,"ĠAdd":9483,"Ġsapientes":9484,"Ġvicit":9485,"Ġhumano":9486,"Ð¸Ñı":9487,"Ġlaudatur":9488,"Ġdiscipl":9489,"Ġdiscipulorum":9490,"Ġtantam":9491,"Ġoportebat":9492,"Ġmilitiae":9493,"Ġfactam":9494,"Ġsacr":9495,"ĠQuamvis":9496,"ĠBrutum":9497,"ĠpoÃ«":9498,"Ġimmedi":9499,"Ġadminister":9500,"Ġoperari":9501,"Ġostensum":9502,"Ġsermonibus":9503,"Ġultrices":9504,"Ġnocere":9505,"Ġdeterr":9506,"Ġflam":9507,"Ġpraecipuum":9508,"Ġaddere":9509,"Ġtribuit":9510,"ĠPlus":9511,"ĠWest":9512,"Ġevan":9513,"Ġedere":9514,"Ġliceret":9515,"Ġlaetus":9516,"Ġfinit":9517,"Ġprofecti":9518,"Ġdifficilius":9519,"robrium":9520,"ĠPetri":9521,"Ġsperare":9522,"Ġnuntios":9523,"Ġequitum":9524,"ĠHieros":9525,"Ġnavis":9526,"Ġpuellam":9527,"ĠPaulum":9528,"Ġadscrib":9529,"Ġdivisit":9530,"ĠIlli":9531,"Ġadflic":9532,"Ġreferri":9533,"Ġarca":9534,"ennio":9535,"ennium":9536,"Ġargumento":9537,"Ġadvoc":9538,"Ġecclesiastica":9539,"Ġangelo":9540,"Ġsacerdos":9541,"Ġpoenae":9542,"ĠPompeium":9543,"Ġsepulc":9544,"Ġpossibili":9545,"ĠAccius":9546,"Ġproportion":9547,"ĠLevi":9548,"Ġconscientia":9549,"Ð¸Ð¹":9550,"Ġaegr":9551,"Ġgladio":9552,"Ġiuvenis":9553,"Ġiuvenes":9554,"ĠRussiae":9555,"ĠDemocraticae":9556,"ĠVelit":9557,"Ġelementum":9558,"Ġbaptis":9559,"ĠCiceronis":9560,"ĠItalicus":9561,"ĠDucatus":9562,"Ġvariet":9563,"Ġintellexi":9564,"ĠTuscul":9565,"ĠCeterum":9566,"ĠBorussiae":9567,"Ġ$(":9568,"ĠPublicae":9569,"products":9570,"ĠMichiganiae":9571,"Respon":9572,"ĠGoogle":9573,"ĠNorveg":9574,"ĠAssyriorum":9575,"Ġaccumsan":9576,"CL":9577,"Dec":9578,"La":9579,"Nov":9580,"Neque":9581,"Shop":9582,"dio":9583,"decim":9584,"files":9585,"gen":9586,"lit":9587,"pote":9588,"tione":9589,"Ð¹":9590,"Ġà´":9591,"Ġsid":9592,"inet":9593,"iniae":9594,"Ġpudic":9595,"atrix":9596,"onc":9597,"Ġnil":9598,"emper":9599,"Ġtav":9600,"Ġtri":9601,"rex":9602,"Ġfo":9603,"omb":9604,"arae":9605,"idisse":9606,"Ġnong":9607,"unum":9608,"ederunt":9609,"Ġlog":9610,"acia":9611,"abilius":9612,"Ġesur":9613,"erea":9614,"otr":9615,"Ġsug":9616,"ĠEg":9617,"Ġconfect":9618,"ĠAaron":9619,"ĠSm":9620,"ĠDam":9621,"rationem":9622,"ĠPyrr":9623,"ĠQuic":9624,"Ġsiquidem":9625,"ĠNunquam":9626,"Ġhabentem":9627,"ĠMosc":9628,"undae":9629,"issi":9630,"Ġabl":9631,"Ġuobis":9632,"ĠLXX":9633,"Ġoperum":9634,"ĠHad":9635,"ĠFor":9636,"Ġparatum":9637,"ĠToll":9638,"Ġvoles":9639,"iscons":9640,"Ġsolem":9641,"ĠGr":9642,"Ġessendi":9643,"ĠBur":9644,"ĠBeth":9645,"Ġpropin":9646,"Ġcommin":9647,"Ġsumatur":9648,"ovie":9649,"iger":9650,"Ġrescrib":9651,"eratio":9652,"Ġdixeris":9653,"Ġdixissent":9654,"episti":9655,"Ġminoris":9656,"Ġvenisse":9657,"Ġveniens":9658,"ĠOtt":9659,"Ġsubm":9660,"ifica":9661,"Ġobst":9662,"Ġoboed":9663,"Ġdomui":9664,"Ġimput":9665,"adi":9666,"Ġagris":9667,"Ġpraesentes":9668,"Ġpraescrib":9669,"Ġtristis":9670,"ĠĠĠĠĠ":9671,"Ġcivilis":9672,"Ġdivulg":9673,"Ġdiscessit":9674,"Ġreplet":9675,"Ġpueris":9676,"rimi":9677,"Ġconcili":9678,"Ġinflam":9679,"Ġvivet":9680,"Ġfidelium":9681,"Ġ74":9682,"Ġmorbo":9683,"Ġhuiuscemodi":9684,"Ġproverb":9685,"Ġexclam":9686,"Ġmoleste":9687,"Ġprobitatis":9688,"Ġcirculi":9689,"ĠLatini":9690,"Ġinvenio":9691,"eremur":9692,"Ġ83":9693,"Ġfrui":9694,"Ġcontrah":9695,"Ġducta":9696,"ĠJacob":9697,"ansiae":9698,"Ġextrinsecus":9699,"Ġtestific":9700,"olium":9701,"Ġsatisf":9702,"Ġappellat":9703,"Ġappellamus":9704,"Ð¸Ð½":9705,"Ð¸Ð»":9706,"Ġpatronus":9707,"Ġwill":9708,"Ġlaudes":9709,"Ġprovinciarum":9710,"ĠUna":9711,"Ġmuliere":9712,"Ġfacienda":9713,"Ġspecial":9714,"Ġaedificationem":9715,"ĠGermanici":9716,"ĠSanctorum":9717,"Ġsinguli":9718,"Ġantiquorum":9719,"Ġconduc":9720,"Ġquick":9721,"Ġconsule":9722,"Ġgravida":9723,"Ġaudieris":9724,"Ġtertiam":9725,"ĠAntonium":9726,"Ġcogitationem":9727,"Ġgaudere":9728,"Ġdepend":9729,"Ġdictu":9730,"Ġaccepisset":9731,"Ġrecipiat":9732,"Ġdelectari":9733,"Ġeffig":9734,"ĠStud":9735,"Ġnuntium":9736,"Ġculpam":9737,"Ġ1990":9738,"Ġnarrare":9739,"Ġconiuncti":9740,"Ġiucunda":9741,"Ġdivisionem":9742,"ĠIllum":9743,"Ġquarta":9744,"Ġtutela":9745,"ĠMosi":9746,"Ġargument":9747,"Ġangelum":9748,"Ġdesiderium":9749,"htt":9750,"Ġdormivit":9751,"Ġconsolationem":9752,"Ġotio":9753,"Ġsepulch":9754,"Î¹Îº":9755,"Ġsumptus":9756,"Ġ1866":9757,"Ġsacerdotes":9758,"Ġintegr":9759,"Ġintegrum":9760,"Ġoccultum":9761,"ĠComment":9762,"Ġagnoscere":9763,"Ġubicumque":9764,"Ġiubet":9765,"ĠMichae":9766,"Ġproprietas":9767,"Ġfeugiat":9768,"ĠRepell":9769,"Ġintuens":9770,"Ġconsummationem":9771,"ĠPapa":9772,"Ġfluvius":9773,"ÙĪØ":9774,"Ġpulcherrima":9775,"Ġsterilis":9776,"ĠEzechiae":9777,"Ġcandid":9778,"Ġtoler":9779,"Ġquinquaginta":9780,"ĠEboraci":9781,"quebatur":9782,"ĠAdminister":9783,"Ġgeomet":9784,"Ġxxx":9785,"Volupt":9786,"Ġnisl":9787,"ĠAxonae":9788,"!\"":9789,"58":9790,"65":9791,"71":9792,"ED":9793,"Ea":9794,"IS":9795,"Mihi":9796,"Ps":9797,"cd":9798,"fr":9799,"get":9800,"hic":9801,"haec":9802,"jpg":9803,"lr":9804,"mium":9805,"not":9806,"nihil":9807,"port":9808,"runt":9809,"shopify":9810,"ts":9811,"tur":9812,"uel":9813,"vam":9814,"vide":9815,"wn":9816,"Ã½":9817,"å±":9818,"å¹":9819,"åĲ":9820,"Ġais":9821,"Ġauri":9822,"Ġquatuor":9823,"Ġpi":9824,"atque":9825,"atui":9826,"amento":9827,"Ġdanda":9828,"Ġinept":9829,"ictor":9830,"Ġtt":9831,"Ġtog":9832,"Ġfini":9833,"uls":9834,"iab":9835,"uns":9836,"Ġadfer":9837,"Ġrequiesc":9838,"iloqu":9839,"Ġdelib":9840,"Ġdeven":9841,"ĠEi":9842,"ĠEarum":9843,"ĠAit":9844,"ĠSina":9845,"ĠCro":9846,"Ġdicto":9847,"endorum":9848,"Quoniam":9849,"Ġfacin":9850,"Ġprael":9851,"Ġpraedam":9852,"ĠPub":9853,"ector":9854,"Ġcoop":9855,"Ġcoeg":9856,"ĠNas":9857,"egoria":9858,"ĠMuli":9859,"eburg":9860,"Ġueritas":9861,"Ġrutrum":9862,"ĠLiv":9863,"ĠHor":9864,"ĠHomo":9865,"ĠRed":9866,"Ġamantur":9867,"Ġamph":9868,"ultor":9869,"Ġatqui":9870,"Ġparvis":9871,"ĠTerr":9872,"Ġvolat":9873,"ĠGra":9874,"ĠGreg":9875,"ĠBello":9876,"ustum":9877,"Ġorg":9878,"Ġorare":9879,"Ġoratore":9880,"Ġsecur":9881,"erii":9882,"Ġstomach":9883,"riet":9884,"Ġcreatum":9885,"veniet":9886,"ĠOpp":9887,"Ġpostr":9888,"Ġimpot":9889,"Ġimpend":9890,"Ġagens":9891,"ĠvitÃ¦":9892,"Ġputavi":9893,"Ġtabulq":9894,"Ġtabulw":9895,"Ġtabulz":9896,"Ġtabulator":9897,"Ġsuperior":9898,"Ġ1813":9899,"Ġapprehend":9900,"ogis":9901,"Ġaspectu":9902,"Ġrecess":9903,"ircum":9904,"Ġconform":9905,"Ġcorporum":9906,"Ġpublici":9907,"Ġpublicis":9908,"Ġnotam":9909,"Ġclav":9910,"heum":9911,"Ġlinguarum":9912,"Ġexcit":9913,"ĠLatinus":9914,"Ġinvenerit":9915,"Ġreditus":9916,"Ġimperfect":9917,"Ġiuss":9918,"Ġgravi":9919,"Ġintellegam":9920,"1082":9921,"Ġexercitatione":9922,"Ġvicesimo":9923,"Ġtabh":9924,"Ġtabj":9925,"Ġtabull":9926,"Ġtabup":9927,"Ġtablu":9928,"Ġhumanum":9929,"Ġcognoscimus":9930,"Ġreliquisti":9931,"Ġmedicam":9932,"Ġindulg":9933,"Ġstudiosus":9934,"Ġconiectura":9935,"ĠUnionis":9936,"ĠFoeder":9937,"Ġoporteat":9938,"Ġsacrae":9939,"Ġaquil":9940,"Ġapertum":9941,"Ġaperire":9942,"Ġaperti":9943,"ĠBruto":9944,"Ġ160":9945,"Ġliberam":9946,"Ġliberius":9947,"Ġsocium":9948,"Ġoperae":9949,"1450":9950,"ĠGermani":9951,"Ġmoveat":9952,"angel":9953,"Ġfluct":9954,"Ġanimalibus":9955,"Ġperfectus":9956,"Ġevident":9957,"Ġaudiebamus":9958,"Ġfamiliam":9959,"Ġfamiliaris":9960,"Ġsecundus":9961,"Ġartium":9962,"Ġbibam":9963,"Ġpraestat":9964,"Ġhumanitatem":9965,"Ġdicturum":9966,"Ġattul":9967,"Ð¾Ð³":9968,"Ġuidet":9969,"Ġdescendit":9970,"ĠAsc":9971,"racch":9972,"Ġperdidit":9973,"Ġeffectu":9974,"Ġludus":9975,"Ġfortunam":9976,"Ġhereditatis":9977,"Ġsorores":9978,"Ġaffectu":9979,"ĠDicit":9980,"ĠIuno":9981,"Ġcircums":9982,"ĠProvinciae":9983,"Ġdispon":9984,"Ġquaesivi":9985,"Ġ1972":9986,"3216":9987,"Ġscelerat":9988,"Ġsceleris":9989,"Ġfundus":9990,"Ġplenam":9991,"Ġiniuriae":9992,"Ġtaub":9993,"Ġadventu":9994,"Ġbestiam":9995,"Ġmusica":9996,"Ġangelorum":9997,"Ġcommodum":9998,"Ġbeneficia":9999,"ĠMoab":10000,"Ġorbe":10001,"ĠSimon":10002,"Ġapostolus":10003,"ĠAccus":10004,"Ġvocabulo":10005,"Ð¸Ð¼":10006,"ĠVoluptas":10007,"Ġuirtus":10008,"Ġgladium":10009,"Ġmembrum":10010,"Atque":10011,"Ġmisericordiae":10012,"Ġuitam":10013,"Ġmeritum":10014,"Ġtabuk":10015,"Ġtabual":10016,"ĠPythag":10017,"Ġâľ":10018,"Ġconsiliis":10019,"Ã®s":10020,"Ġpollicitus":10021,"Ġplebe":10022,"ĠMelius":10023,"Ġnefas":10024,"ĠRespond":10025,"Omnia":10026,"Ġsenectutem":10027,"Ġinhabit":10028,"Ġvanitas":10029,"ĠAenean":10030,"ĠDumiatis":10031,"ĠCrassus":10032,"ĠPlatonis":10033,"Ġfluvium":10034,"Ġprimogenitum":10035,"ĠConsequatur":10036,"Ġquidditas":10037,"Ġcohort":10038,"Ġcomplectitur":10039,"ĠMercur":10040,"Ġtyrann":10041,"Ġiulianus":10042,"Ġsurrexit":10043,"ĠBavariae":10044,"ĠIsaac":10045,"Ġmehercule":10046,"ĠHierosol":10047,"cdn":10048,"**":10049,"</":10050,"AS":10051,"Ac":10052,"af":10053,"eos":10054,"eantur":10055,"fuit":10056,"ham":10057,"iel":10058,"ka":10059,"king":10060,"lae":10061,"mam":10062,"menta":10063,"ruit":10064,"tionem":10065,"uerim":10066,"vir":10067,"wa":10068,"Ä±":10069,"ÄĽ":10070,"ÙĬ":10071,"à·":10072,"Ġsob":10073,"Ġsess":10074,"itius":10075,"ition":10076,"inter":10077,"Ġquom":10078,"Ġquing":10079,"ongo":10080,"Ġnacti":10081,"Ġnempe":10082,"Ġdatus":10083,"Ġdantur":10084,"emet":10085,"Ġmoli":10086,"Ġinstant":10087,"Ġvae":10088,"Ġtq":10089,"Ġts":10090,"Ġtrec":10091,"Ġtba":10092,"rest":10093,"Ġferi":10094,"eno":10095,"esop":10096,"etem":10097,"anes":10098,"aniam":10099,"osy":10100,"entina":10101,"olam":10102,"unus":10103,"Ġadrog":10104,"Ġrequi":10105,"Ġlongo":10106,"Ġutcumque":10107,"elph":10108,"ilus":10109,"otis":10110,"ĠEu":10111,"ĠAper":10112,"ĠDE":10113,"ĠDub":10114,"ĠDors":10115,"ĠDolia":10116,"Ġdicebam":10117,"taor":10118,"Quare":10119,"iph":10120,"ippe":10121,"Ġpervers":10122,"Ġillarum":10123,"Ġbu":10124,"ĠPecun":10125,"obrem":10126,"Ġgabulator":10127,"Ġcoinqu":10128,"Ġcoopt":10129,"Ġcoaeter":10130,"ĠNoli":10131,"Ġhabitu":10132,"Ġsciens":10133,"ivamus":10134,"ĠMut":10135,"ĠMinister":10136,"gnosc":10137,"ebatis":10138,"Ġsepe":10139,"ptum":10140,"Ġvideret":10141,"Ġrabulator":10142,"ĠHon":10143,"Ġidea":10144,"Ġamisit":10145,"ĠFl":10146,"Ġatbulator":10147,"ĠTy":10148,"Ġincircum":10149,"Ġaliquas":10150,"Ġpluv":10151,"Ġunic":10152,"ĠBrix":10153,"Ġfuerant":10154,"Ġoriuntur":10155,"Ġreserv":10156,"episse":10157,"Ġstr":10158,"Ġcrevit":10159,"Ġminim":10160,"Ġlegum":10161,"Ġlegistis":10162,"Ġvener":10163,"Ġvenimus":10164,"Ġnumeros":10165,"Ġmagnopere":10166,"Ġour":10167,"resc":10168,"Ġagro":10169,"Ġvocavitque":10170,"Ġputarem":10171,"Ġtabulstor":10172,"Ġtabulagor":10173,"Ġtabultaor":10174,"Ġcurrent":10175,"Ġexprob":10176,"Ġapprop":10177,"Ġcompell":10178,"Ġservorum":10179,"Ġfortior":10180,"Ġreceptum":10181,"Ġscribendo":10182,"Ġdeleg":10183,"ĠÐ±":10184,"ĠÐ³":10185,"ĠÐ·":10186,"Ġfidelis":10187,"Ġsequenti":10188,"Ġfratrum":10189,"Ġcarmen":10190,"Ġ72":10191,"Ġcolore":10192,"Ġmiserat":10193,"Ġdefuit":10194,"Ġvideant":10195,"Ġexced":10196,"Ġvisu":10197,"Ġnegas":10198,"Ġ81":10199,"Ġductus":10200,"Ġmundanum":10201,"Ġtranst":10202,"Ġgrave":10203,"Ġ91":10204,"Ġ95":10205,"Ġsapienti":10206,"Ġmutavit":10207,"Ġtabil":10208,"Ġtabuo":10209,"Ġtabbulator":10210,"Ġtabultor":10211,"Ġcognoscat":10212,"Ġreliquae":10213,"ĠXIV":10214,"Ġlaudat":10215,"acte":10216,"Ġ130":10217,"Ġmilli":10218,"Ġsacc":10219,"atha":10220,"ĠIudas":10221,"Ġsubiectae":10222,"ãģĮ":10223,"Ġtransm":10224,"Ġsocius":10225,"Ġdubito":10226,"ĠAbram":10227,"Ġponi":10228,"Ġponatur":10229,"Ġaedificare":10230,"Ġcontineri":10231,"Ġaddita":10232,"Ġantiqui":10233,"Ġtradere":10234,"Ġtraditur":10235,"Ġmirabile":10236,"Ġargu":10237,"Ġevid":10238,"Ġgravitate":10239,"Ġrespondet":10240,"Ġphilosophiam":10241,"Ġtertius":10242,"Ġclarus":10243,"Ġnegotiorum":10244,"Ġpromisit":10245,"Ġrecipi":10246,"Ġhostis":10247,"ĠIosaphat":10248,"Ġtabulatr":10249,"Ġtabulatod":10250,"Ġtabulatir":10251,"Ġtabulatro":10252,"Ġtabulattor":10253,"Ġtabulatpr":10254,"Ġtabulatkr":10255,"Ġtabulatlr":10256,"Ġsalute":10257,"Ġpaucos":10258,"Ġtabulafor":10259,"Ġtabulaotr":10260,"ĠEpist":10261,"Ġnuntius":10262,"Ġinimicum":10263,"Ġpraeda":10264,"Ġpraedium":10265,"Ġarbitrio":10266,"Ġarbitrantur":10267,"Ġpericulos":10268,"Ġperdere":10269,"Ġhabitet":10270,"Ġmissa":10271,"Ġheredes":10272,"Ġcomposita":10273,"Ġadfirm":10274,"Ġfabulator":10275,"ĠDicitur":10276,"ĠPrima":10277,"ĠVidesne":10278,"Ġcunctae":10279,"ĠMedia":10280,"ĠVeniam":10281,"Ġcondicione":10282,"Ġtah":10283,"Ġtaulator":10284,"Ġtaabulator":10285,"ĠEpicuro":10286,"CCCC":10287,"ĠAge":10288,"ĠCapit":10289,"Ġblandit":10290,"Ġelegant":10291,"iuers":10292,"Ġtabulatof":10293,"Ġtabulatoor":10294,"Ġfacultates":10295,"ĠCalisii":10296,"ĠMatth":10297,"Ġpoliticorum":10298,"errima":10299,"Ġabsolute":10300,"Ġlegitime":10301,"Ġcessavit":10302,"Ġquaerebam":10303,"Ġtabuator":10304,"Ġuber":10305,"Ġpeculium":10306,"Ġentia":10307,"ĠTerrae":10308,"Ġacceperis":10309,"Ġimpleri":10310,"Ġfructibus":10311,"ĠArchid":10312,"Ġhodierna":10313,"Ġduplicem":10314,"Ġtextus":10315,"Ġconsulto":10316,"ĠSeptentrioni":10317,"ĠTurciae":10318,"ĠFreti":10319,"Ġlacrimis":10320,"Postquam":10321,"Ġpulchritudo":10322,"Ġdisserendi":10323,"Ġsatisfacit":10324,"Ġdisciplinae":10325,"ĠHierony":10326,"ĠNapole":10327,"Ġulter":10328,"Ġtabularor":10329,"ĠCatilina":10330,"Ġtwbulator":10331,"Ġcathedr":10332,"Ġuterque":10333,"Ġcancell":10334,"Ġcardinalis":10335,"ĠPodii":10336,"Ġclarific":10337,"ĠPennsilv":10338,"Ġtavulator":10339,"Ġttabulator":10340,"Ġtabulqtor":10341,"Ġtabulwtor":10342,"Ġtabulztor":10343,"Ġtabulatorr":10344,"Ġtabjlator":10345,"Ġtabullator":10346,"Ġtabupator":10347,"Ġtabluator":10348,"Ġtaublator":10349,"Ġtabukator":10350,"Ġtabualtor":10351,"\")":10352,"\"]":10353,",,":10354,"72":10355,"76":10356,"81":10357,"Brit":10358,"Le":10359,"Mirum":10360,"OM":10361,"cae":10362,"doc":10363,"led":10364,"oi":10365,"oy":10366,"rod":10367,"riter":10368,"yor":10369,"ylator":10370,"Ġevers":10371,"Ġpoc":10372,"oniis":10373,"Ġcli":10374,"Ġnas":10375,"Ġmel":10376,"Ġmess":10377,"Ġinert":10378,"Ġinpossibile":10379,"icit":10380,"uros":10381,"Ġtbulator":10382,"Ġiu":10383,"ariter":10384,"eca":10385,"unam":10386,"unic":10387,"eder":10388,"Ġlub":10389,"Ġlangu":10390,"aces":10391,"Ġutroque":10392,"asa":10393,"ash":10394,"Ġquaelibet":10395,"ĠIN":10396,"ĠIoram":10397,"Ġexeunte":10398,"ĠSper":10399,"ĠSpe":10400,"ĠCog":10401,"ago":10402,"agesimo":10403,"ĠDeb":10404,"ĠDix":10405,"ĠDenique":10406,"Ġdirimi":10407,"Ġpern":10408,"Ġperierunt":10409,"Ġbal":10410,"ĠPaen":10411,"rast":10412,"ectione":10413,"Ġhabendi":10414,"Ġtueri":10415,"Ġsciant":10416,"Ġcomitia":10417,"ortuus":10418,"Ġabulator":10419,"Ġvidisse":10420,"Ġuos":10421,"Ġrost":10422,"ĠLep":10423,"ellentesque":10424,"Ġneut":10425,"ĠRatio":10426,"Ġamandi":10427,"ĠFDP":10428,"ĠVitae":10429,"Ġquaeri":10430,"Ġtamque":10431,"erto":10432,"Ġsolere":10433,"ings":10434,"ĠBuc":10435,"ĠBoh":10436,"Ġcontex":10437,"Ġsumps":10438,"igen":10439,"Ġstet":10440,"Ġanimalium":10441,"Ġcreb":10442,"Ġcorrect":10443,"atori":10444,"Ġterras":10445,"Ġdolum":10446,"Ġdolentes":10447,"Ġusi":10448,"Ġusui":10449,"Ġnumm":10450,"Ġmaneat":10451,"Ġimplic":10452,"adis":10453,"risque":10454,"Ġdebui":10455,"ressit":10456,"Ġacie":10457,"Ġpraesente":10458,"Ġpraescript":10459,"iew":10460,"Ġcogita":10461,"Ġquasdam":10462,"Ġcapitis":10463,"Ġ1810":10464,"Ġ1815":10465,"Ġ1850":10466,"Ġmalitia":10467,"Ġmallem":10468,"Ġeique":10469,"uga":10470,"Ġmaximis":10471,"Ġdesit":10472,"Ġ2003":10473,"Ġfortem":10474,"Ġscribe":10475,"Ġconfort":10476,"Ġinvis":10477,"Ġviveret":10478,"Ġviverra":10479,"Ġclem":10480,"ĠComp":10481,"Ġcrederent":10482,"Ġdoctus":10483,"Ġdocti":10484,"Ġconsequat":10485,"iensium":10486,"Ġpaul":10487,"odox":10488,"ĠLatinis":10489,"Ġvestras":10490,"Ġje":10491,"ĠGraecum":10492,"picere":10493,"Ġvoluntati":10494,"Ġtestibus":10495,"Ġ96":10496,"Ġabsunt":10497,"Ġintellegerem":10498,"Ġmutuo":10499,"Ġtablator":10500,"Ġtabylator":10501,"Ġaccipiens":10502,"Ġfuturam":10503,"Ġceterae":10504,"Ġlonginqu":10505,"Ġstatuam":10506,"Ġconstitutionem":10507,"Ġgloriosum":10508,"Ġoportuit":10509,"ĠBrundis":10510,"ãģ¾":10511,"Ġideoque":10512,"Ġtime":10513,"Ġtimeo":10514,"ĠSiciliae":10515,"Ġdemin":10516,"Ġmovens":10517,"Ġcontinetur":10518,"ÑĢÑĥ":10519,"Ð»Ñĭ":10520,"Ð»Ñı":10521,"Ġbeatiorem":10522,"ĠRegno":10523,"Ġgravior":10524,"Ġinstituit":10525,"ations":10526,"ĠPraeter":10527,"Ġparvuli":10528,"Ġgaudet":10529,"Ġcalicem":10530,"Ġepistola":10531,"Ġrecipere":10532,"Ġhoste":10533,"Ġmagistratum":10534,"Ġtabulatot":10535,"Ġsperat":10536,"Ġyabulator":10537,"Ġindicavit":10538,"Ġtabulaor":10539,"Ġtabulaator":10540,"Ġtabulayor":10541,"Ġnobilis":10542,"ĠMagnum":10543,"ĠIudaea":10544,"Ġmitti":10545,"Ġequos":10546,"Ð°Ð¼":10547,"Ġrogavit":10548,"Ã¡s":10549,"Ġcasum":10550,"Ġnaves":10551,"Ġliquid":10552,"Ġadsunt":10553,"Ġnasci":10554,"Ġvidebis":10555,"Ġmanifeste":10556,"Ġtutor":10557,"uramentum":10558,"Î¿ÏĤ":10559,"Ġ1961":10560,"Ġfundo":10561,"Ġexpertus":10562,"Ġpenes":10563,"ĠEpiscopo":10564,"eatured":10565,"Ġtabulatoe":10566,"Ġelectio":10567,"Ġsepult":10568,"Ġconsiderandum":10569,"ĠMatronae":10570,"Ġiucunde":10571,"Ġcultum":10572,"Ġprohibet":10573,"Ġsanguinibus":10574,"ĠScipionis":10575,"ippiae":10576,"Ġcomprehendit":10577,"Ġconscientiae":10578,"Ġtribunus":10579,"Ġsacerdotum":10580,"ĠLege":10581,"Ġnubere":10582,"Ġmontes":10583,"Ġperfici":10584,"Ġoccasione":10585,"Ġconvertit":10586,"Ġtabuulator":10587,"Ġhonorific":10588,"ĠTempus":10589,"Ġá½":10590,"Ġtristitia":10591,"Ġalleluia":10592,"Ġpredic":10593,"ĠSumma":10594,"ĠTarqu":10595,"Ġpraeclarum":10596,"Omnes":10597,"Ġnutr":10598,"Francice":10599,"Ġpastores":10600,"Ġmagistratu":10601,"Ġimbec":10602,"ĠGeorgius":10603,"Ġmajor":10604,"Ġimmortales":10605,"Ġpersuasum":10606,"Ġconvivium":10607,"ĠLuke":10608,"Ġcognovissent":10609,"Ġfontem":10610,"Ġpersev":10611,"ĠMississ":10612,"Ġconsensu":10613,"ĠLudovicus":10614,"ĠSaul":10615,"Ġdeserto":10616,"ĠReliqu":10617,"Ġpulvinar":10618,"ĠColleg":10619,"Ġfacillime":10620,"Ġexercituum":10621,"Ġexspectare":10622,"ĠCausa":10623,"Ġconvallis":10624,"Ġmetropolit":10625,"Ġdomicilium":10626,"ĠCalvorum":10627,"ĠArduenna":10628,"ĠColosseum":10629,"Ġtagulator":10630,"Ġtanulator":10631,"Ġtzbulator":10632,"Ġimmediate":10633,"Ġtabhlator":10634,"Ġevidentius":10635,"Ġtqbulator":10636,"Ġtsbulator":10637,"Ġtbaulator":10638,"ĠDorsorum":10639,"Ġtabilator":10640,"Ġtabuoator":10641,"Ġtahulator":10642,"');":10643,"83":10644,"Acc":10645,"Ne":10646,"Om":10647,"Sec":10648,"bet":10649,"graph":10650,"hus":10651,"ianum":10652,"ks":10653,"los":10654,"ative":10655,"onica":10656,"Ġnib":10657,"Ġdati":10658,"Ġdrac":10659,"Ġdabis":10660,"Ġmaria":10661,"Ġmilibus":10662,"Ġmoen":10663,"orter":10664,"Ġinlum":10665,"iculi":10666,"Ġvino":10667,"uturum":10668,"Ġfa":10669,"Ġfasc":10670,"Ġfrang":10671,"lips":10672,"etsi":10673,"idius":10674,"ecessor":10675,"Ġpridie":10676,"iale":10677,"Ġadquir":10678,"ocinium":10679,"Ġrefic":10680,"Ġretrib":10681,"Ġlav":10682,"Ġquodque":10683,"abilibus":10684,"Ġutor":10685,"alog":10686,"ĠIurae":10687,"ĠSanto":10688,"ĠCardin":10689,"ĠCDU":10690,"Ġ101":10691,"Ġomnim":10692,"estim":10693,"Ġperl":10694,"Ġpraefer":10695,"Ġbi":10696,"ratis":10697,"ĠPo":10698,"Ġgran":10699,"ĠNer":10700,"ĠNim":10701,"irst":10702,"iremus":10703,"Ġquidvis":10704,"ĠMen":10705,"ĠMinus":10706,"issio":10707,"Ġcomes":10708,"ortum":10709,"Ġveritati":10710,"Ġseips":10711,"andos":10712,"Ġvellent":10713,"Ġviderem":10714,"ĠLang":10715,"Ġopibus":10716,"ĠHS":10717,"Ġsitu":10718,"Ġnepos":10719,"Ġcautum":10720,"Ġamatur":10721,"Ġparc":10722,"Ġpari":10723,"ĠTantum":10724,"Ġincorp":10725,"eritis":10726,"ĠVerba":10727,"Ġquaque":10728,"Ġqualibet":10729,"arie":10730,"Ġsolitudine":10731,"ĠBat":10732,"ĠBern":10733,"Ġintentio":10734,"Ġscrut":10735,"igmata":10736,"Ġorans":10737,"Ġresp":10738,"Ġregul":10739,"rie":10740,"veniens":10741,"Ġnequeunt":10742,"issimorum":10743,"Ġ1929":10744,"ĠOs":10745,"ĠOper":10746,"ĠOrb":10747,"Ġspatia":10748,"Ġusuram":10749,"Ġaudiam":10750,"Ġaudite":10751,"Ġaudistis":10752,"Ġmagnitudinem":10753,"Ġsimp":10754,"Ġcommunitatis":10755,"Ġpraesent":10756,"che":10757,"Ġiudicatum":10758,"Ġiudicabit":10759,"Ġdiscendi":10760,"Ġrepos":10761,"Ġrepreh":10762,"Ġdederunt":10763,"Ġmortuos":10764,"Ġcomplet":10765,"Ġ2004":10766,"Ġocculta":10767,"Ġinfl":10768,"Ġfideles":10769,"Ġsequetur":10770,"Ġinsuper":10771,"Ġcolumb":10772,"Ġplacent":10773,"Ġcreditur":10774,"Ġpraeterm":10775,"Ġvideam":10776,"Ġopprobrium":10777,"Ġfierent":10778,"Ġvaleant":10779,"Ġmolesta":10780,"Ġneget":10781,"Ġprobarem":10782,"Ġreddi":10783,"Ġ88":10784,"Ġcontradic":10785,"Ġquaerens":10786,"Ġnaturalibus":10787,"Ġiusiur":10788,"Ġ92":10789,"Ġ93":10790,"feram":10791,"Ġabsens":10792,"Ġfamae":10793,"Ġcogitamus":10794,"Ġaccipiam":10795,"ĠXIX":10796,"Ġsuppos":10797,"Ġlongam":10798,"Ġconstitutione":10799,"Ġoderit":10800,"Ġfacturus":10801,"Ġfaciendi":10802,"Ġlatinae":10803,"Ġsubiecti":10804,"ãģ¦":10805,"ãģĻ":10806,"Ġspeculum":10807,"Ġsignificatione":10808,"Ġostent":10809,"Ġdifferent":10810,"Ġlucis":10811,"vertere":10812,"Ġefficiuntur":10813,"ĠWh":10814,"Ġantiquum":10815,"Ġantiquitus":10816,"Ð»Ð°":10817,"Ġvultu":10818,"Ġveteribus":10819,"Ġgraves":10820,"Ġmandavit":10821,"Ġphilosophos":10822,"Ġnolunt":10823,"ĠNihilo":10824,"ĠAntonio":10825,"Ġpersonas":10826,"Ġcogitatio":10827,"ĠAliud":10828,"Ġlaboro":10829,"Ġdeprehend":10830,"ãĥ¼":10831,"oniz":10832,"Ġdiluc":10833,"Ġavunc":10834,"ĠImp":10835,"ĠNovum":10836,"Ġnobil":10837,"Ġuidentur":10838,"ĠMagnus":10839,"ĠCatonem":10840,"ĠAsiae":10841,"ĠAsper":10842,"Ġprivata":10843,"Ġprivatis":10844,"Ġinimicorum":10845,"ressed":10846,"Ġproposito":10847,"Ġnavibus":10848,"Ġutilitates":10849,"Ġconiunctum":10850,"Ġscripserunt":10851,"Ġscripseram":10852,"Ġdamnatus":10853,"Ġignoro":10854,"Ġhereditate":10855,"Ġcompositae":10856,"Ġreligione":10857,"Ġfabularum":10858,"Ġsocietatis":10859,"ĠDicendum":10860,"Ġiniquitate":10861,"Ġleve":10862,"Ġmilitaris":10863,"Ġgeneribus":10864,"Ġgeneralis":10865,"Ġhaeres":10866,"Ġrestituere":10867,"Ġcommodius":10868,"Ġsingulari":10869,"Ġpraetex":10870,"Ġprudentiam":10871,"Ġprudentiae":10872,"Ġmorietur":10873,"Ġsolvere":10874,"Ġ1957":10875,"Ġrepetere":10876,"Ġdoctrinae":10877,"Ġadducam":10878,"à«§":10879,"Ġinterficiam":10880,"Ġimpetus":10881,"Ã¨s":10882,"Ġjudicium":10883,"ĠDemet":10884,"Ġsodales":10885,"Ġdissimilis":10886,"ĠMetellum":10887,"Ġventurum":10888,"ĠInsulae":10889,"Ġoppositum":10890,"Itaque":10891,"ĠTroiam":10892,"Ġligno":10893,"Ġquerela":10894,"Ġpreces":10895,"Ġsyllogis":10896,"Ġdupliciter":10897,"ĠDelph":10898,"Ġdiutur":10899,"Ã¼r":10900,"ĠHelvetiae":10901,"Ġteneatur":10902,"ĠSyriae":10903,"Ġvulnera":10904,"Ġuiuit":10905,"Ġbarbar":10906,"Ġinstrumentum":10907,"ĠBorussiam":10908,"Ġapplicatione":10909,"ĠJoannes":10910,"Ġnuntiavit":10911,"äºº":10912,"Ġcodicem":10913,"Ġvenenatis":10914,"ĠMichiganensi":10915,"Ġinutiles":10916,"Ġvesperum":10917,"ĠRuben":10918,"Ġindustria":10919,"Ġoctog":10920,"ĠOctav":10921,"ĠNobeli":10922,"ĠRecte":10923,"Ġwebsit":10924,"Ġiuridicae":10925,"Ġdereliqu":10926,"Ġianuam":10927,"ĠCaliforniae":10928,"Ġdetestabili":10929,"ĠSaeculo":10930,"Ġlocuplet":10931,"ĠquickShop":10932,"Ġcooptatus":10933,"ĠPaeninsula":10934,"ĠMississippiae":10935,"Ġnibh":10936,"112":10937,"As":10938,"En":10939,"Fac":10940,"Im":10941,"Null":10942,"Sp":10943,"Tu":10944,"UT":10945,"Vest":10946,"]:":10947,"dius":10948,"elius":10949,"lov":10950,"log":10951,"ror":10952,"ring":10953,"rÃ¦":10954,"ten":10955,"veris":10956,"word":10957,"yt":10958,"yst":10959,"Å¼":10960,"Î¸":10961,"Ïĩ":10962,"à¶":10963,"quet":10964,"quando":10965,"umm":10966,"itioni":10967,"Ġquestus":10968,"Ġpuncta":10969,"amque":10970,"amina":10971,"Ġcaret":10972,"Ġnoll":10973,"Ġdas":10974,"Ġmou":10975,"icitur":10976,"Ġvil":10977,"Ġvana":10978,"Ġvilla":10979,"Ġtorqu":10980,"enam":10981,"Ġhar":10982,"Ġhare":10983,"idiae":10984,"ulat":10985,"ulisti":10986,"oleo":10987,"unquid":10988,"Ġadire":10989,"Ġadpet":10990,"Ġretr":10991,"Ġluct":10992,"udet":10993,"Ġuteb":10994,"Ġutimur":10995,"antas":10996,"ĠEdit":10997,"ĠIuven":10998,"ĠIterum":10999,"ĠAT":11000,"ĠAed":11001,"Ġexalt":11002,"ĠCulpa":11003,"agus":11004,"ipublic":11005,"Ġperit":11006,"Ġpraeest":11007,"ĠPR":11008,"ĠQuas":11009,"ĠQuÃ¦":11010,"Ġgut":11011,"Ġcoactus":11012,"ĠNot":11013,"ĠNolite":11014,"undiae":11015,"Ġaptum":11016,"ortium":11017,"Ġverus":11018,"andarum":11019,"Ġraro":11020,"ĠLem":11021,"ĠLeo":11022,"ĠLicet":11023,"ĠHar":11024,"ĠHisp":11025,"avero":11026,"avisse":11027,"Ġcaer":11028,"Ġamas":11029,"Ġamaret":11030,"ulti":11031,"ĠFili":11032,"Ġincidere":11033,"ĠVia":11034,"Ġqualia":11035,"Ġeumque":11036,"Ġmax":11037,"Ġsolebam":11038,"Ġsollem":11039,"Ġunis":11040,"Ġunicum":11041,"Ġuniuers":11042,"Ġtempla":11043,"ĠBarc":11044,"ustae":11045,"Ġmodicum":11046,"oviae":11047,"Ġfuissemus":11048,"Ġorat":11049,"eratione":11050,"Ġpatiuntur":11051,"Ġstil":11052,"Ġanimantium":11053,"Ġlegatorum":11054,"Ġveniet":11055,"erson":11056,"Ġ1922":11057,"Ġseru":11058,"Ġposterius":11059,"Ġmultam":11060,"Ġmortale":11061,"Ġannunt":11062,"Ġmagnas":11063,"Ġcommunione":11064,"Ġpraesentiam":11065,"chi":11066,"Ġistic":11067,"Ġtrit":11068,"Ġsuperfic":11069,"Ġ1848":11070,"Ġamicitias":11071,"Ġdiscord":11072,"Ġrepud":11073,"ugh":11074,"ugit":11075,"Ġasinus":11076,"Ġmaximi":11077,"Ġoccis":11078,"Ġlitig":11079,"iosorum":11080,"Ġvivendi":11081,"heus":11082,"ĠComitatu":11083,"Ġinsol":11084,"Ġcolorem":11085,"Ġcredendum":11086,"Ġdefer":11087,"Ġdeform":11088,"Ġmoriendum":11089,"Ġnovis":11090,"ĠItali":11091,"Ġprobat":11092,"Ġcaes":11093,"Ġdomina":11094,"Ġredim":11095,"Ġjuramentum":11096,"Ġnescire":11097,"Ġquaereretur":11098,"Ġextit":11099,"Ġextend":11100,"Ġnecessariis":11101,"Ġnecessariam":11102,"Ġfames":11103,"Ġvices":11104,"Ġreliquo":11105,"Ġfuturis":11106,"Ġpetunt":11107,"Ġwork":11108,"Ġlaudibus":11109,"Ġconstituitur":11110,"phus":11111,"Ġexistens":11112,"Ġ103":11113,"ĠBruns":11114,"Ġpeccatis":11115,"ãģŁ":11116,"ĠMaximus":11117,"ĠCivitates":11118,"Ġaequitate":11119,"ĠKansiae":11120,"Ġaedificium":11121,"Ġcontinu":11122,"Ġperfecte":11123,"Ġmirabilia":11124,"Ġmiraculum":11125,"Ġmonstr":11126,"Ġmonach":11127,"Ġgraviter":11128,"other":11129,"Ġaudiendi":11130,"Ġaudiebant":11131,"Ġlicentiam":11132,"Ġnoluerit":11133,"ĠAnton":11134,"ĠAntecessor":11135,"Ġepistulas":11136,"ĠIllo":11137,"Ġhumanam":11138,"Ġdeprav":11139,"Ġsexus":11140,"Ġsexta":11141,"ĠAegyptii":11142,"ãĥ³":11143,"ãĥ»":11144,"Ġexistimare":11145,"ĠImpossibile":11146,"Ġpugnare":11147,"Ġmagistro":11148,"erebatur":11149,"Ġalienis":11150,"Ġsuccessit":11151,"Ġprivatus":11152,"Ġlacum":11153,"Ġscripturae":11154,"ãĤĭ":11155,"Ġreverter":11156,"Ġauris":11157,"Ġpuerorum":11158,"Ġ1994":11159,"Ġiacere":11160,"Ġgestum":11161,"Ġutilitate":11162,"Ġoffer":11163,"ĠNumerus":11164,"Ġdivisae":11165,"Ġrelinquam":11166,"Ġvidebimus":11167,"Ġpossidendam":11168,"Ġcircumstant":11169,"Ġsimplicis":11170,"Ġpassio":11171,"Ġcustodiam":11172,"Ġquaesivit":11173,"quodque":11174,"Ġlaetitiam":11175,"Ġfundamentum":11176,"ĠDolore":11177,"Ġsalvum":11178,"Ġrelinquitur":11179,"Ġelegit":11180,"Ġsingulare":11181,"ĠAristonem":11182,"Ġconsiderare":11183,"ĠConsilium":11184,"ĠPotius":11185,"Ġparticipatione":11186,"Ġsomnum":11187,"ĠPolit":11188,"Ġmyth":11189,"ĠScipionem":11190,"Ġsumptu":11191,"Ġconfici":11192,"Ġnubibus":11193,"Ġossa":11194,"Ġtypi":11195,"Ġimaginibus":11196,"ĠZeno":11197,"Ġcernitur":11198,"Ġadulescentia":11199,"Ġrequiritur":11200,"Ġueritatem":11201,"Ġelementa":11202,"Ġcontroversiam":11203,"Ġprogress":11204,"Ġinsigne":11205,"Ġsorte":11206,"pexi":11207,"Ġuerbo":11208,"Ġsupplicio":11209,"Ġsponsus":11210,"ĠTheodisc":11211,"Ġconstet":11212,"Ġpaupertatem":11213,"Ġscandal":11214,"Ð¾ÑĤÐ»Ñĭ":11215,"Ġdilexisti":11216,"Ġevangelium":11217,"Ġsemetipso":11218,"ĠÄĮ":11219,"Ġfrumentum":11220,"ĠÐļÐ¾Ð»":11221,"Ġpietate":11222,"Ġvasa":11223,"ĠAcha":11224,"ĠMoysen":11225,"Ġuideatur":11226,"ĠOfficia":11227,"Ġperierat":11228,"Ġtransiit":11229,"Ð½ÑĭÐµ":11230,"Ġcongruamus":11231,"Ġoccurrent":11232,"Ġerubesc":11233,"Ġexplan":11234,"ĠUsque":11235,"Ġfallaciloqu":11236,"Ġpraeceperat":11237,"Ġemancip":11238,"Ġgymnas":11239,"ĠNecessitatibus":11240,"ĠQuicquid":11241,"ĠOttoman":11242,"Ġâľ¿":11243,"Ġunicuique":11244,"ĠPennsilvaniae":11245,"Britonice":11246,"Ġiusiurandum":11247,"Ġfallaciloquae":11248,",.":11249,"66":11250,"75":11251,"99":11252,"Bo":11253,"Culpa":11254,"Domine":11255,"Reg":11256,"Sit":11257,"Sim":11258,"dia":11259,"ear":11260,"ianus":11261,"je":11262,"kt":11263,"mb":11264,"nor":11265,"pis":11266,"rio":11267,"sae":11268,"uada":11269,"Ãĥ":11270,"Å¡":11271,"ÎŃ":11272,"Ñį":11273,"ä¼":11274,"æĺ":11275,"Ġ000":11276,"ĠÏĢ":11277,"erantur":11278,"Ġaes":11279,"Ġset":11280,"Ġsentias":11281,"ise":11282,"atic":11283,"Ġcereb":11284,"Ġnuc":11285,"Ġnupta":11286,"Ġdog":11287,"oriae":11288,"Ġineb":11289,"icium":11290,"Ġtib":11291,"Ġtitio":11292,"Ġie":11293,"Ġfoc":11294,"Ġesto":11295,"esp":11296,"iales":11297,"ibit":11298,"ibat":11299,"uneburg":11300,"Ġadsequ":11301,"Ġaddi":11302,"Ġredeo":11303,"acc":11304,"aco":11305,"acem":11306,"abas":11307,"ellig":11308,"asph":11309,"Ġdefectus":11310,"ĠSh":11311,"ĠCent":11312,"ĠDoc":11313,"estum":11314,"Qua":11315,"Ġfacitis":11316,"Ġfacientibus":11317,"Ġillinc":11318,"Ġillustr":11319,"ĠPan":11320,"ĠPres":11321,"ĠQuippe":11322,"Ġsede":11323,"Ġgerere":11324,"Ġhabu":11325,"uitas":11326,"eger":11327,"Ġscirem":11328,"iverunt":11329,"issionis":11330,"Ġquovis":11331,"Ġabsit":11332,"Ġmihique":11333,"ĠLac":11334,"ĠLug":11335,"averint":11336,"ĠRatione":11337,"ĠRuf":11338,"ĠFat":11339,"Ġpagi":11340,"Ġpaginis":11341,"ĠTrin":11342,"Ġaliquanto":11343,"erito":11344,"Ġvolu":11345,"Ġvoluisse":11346,"ĠVind":11347,"Ġmai":11348,"Ġsolutum":11349,"Ġunct":11350,"Ġunitas":11351,"ĠBerg":11352,"ĠBapt":11353,"Ġcommis":11354,"Ġsumpta":11355,"Ġsumpsit":11356,"Ġinterval":11357,"Ġora":11358,"Ġsecretum":11359,"Ġbonitas":11360,"Ġstabilis":11361,"Ġcreare":11362,"Ġcreati":11363,"Ġminora":11364,"Ġminori":11365,"Ġlegatis":11366,"Ġvenisti":11367,"Ġviribus":11368,"Ġ1914":11369,"Ġ1925":11370,"ĠOn":11371,"Ġposteris":11372,"Ġaudimus":11373,"Ġauditor":11374,"Ġ-,":11375,"ificem":11376,"Ġquibuscumque":11377,"Ġoliv":11378,"iati":11379,"Ġagetur":11380,"Ġsemit":11381,"Ġvitiorum":11382,"Ġputaverunt":11383,"Ġputabam":11384,"Ġremans":11385,"neque":11386,"Ġiudicis":11387,"Ġiudicet":11388,"Ġiudicas":11389,"Ġiudiciis":11390,"Ġdivinis":11391,"Ġdivitiis":11392,"ĠQuidem":11393,"Ġmaximas":11394,"Ġmortuorum":11395,"ĠFrancica":11396,"Ġfortiter":11397,"Ġconfido":11398,"Ġdele":11399,"ĠÐ¡":11400,"Ġnotus":11401,"Ġfratern":11402,"Ġcarc":11403,"Ġtenent":11404,"Ġtenentur":11405,"Ġcolunt":11406,"Ġlabores":11407,"Ġconsequitur":11408,"Ġprobo":11409,"Ġtantummodo":11410,"Ġformid":11411,"Ġfrag":11412,"Ġadha":11413,"Ġducibus":11414,"Ġsanctos":11415,"Ġingressa":11416,"Ġplurimae":11417,"Ġintellegunt":11418,"Ġdignissim":11419,"Ġfame":11420,"ĠMarit":11421,"Ġhonoris":11422,"Ġcogitandum":11423,"Ġcogitabam":11424,"Ġunumquodque":11425,"Ġaccipiuntur":11426,"Ġcognoscetis":11427,"Ġmedius":11428,"Ġappellatus":11429,"Ġappellata":11430,"erva":11431,"Ġpatroni":11432,"Ġ139":11433,"Ġsenes":11434,"Ġintelligo":11435,"Ġprocons":11436,"Ġ111":11437,"Ġ115":11438,"Ġintelligendum":11439,"ĠSane":11440,"Ġaperit":11441,"Ġsubiectus":11442,"Ġquindecim":11443,"ãģĹ":11444,"Ġsignificatio":11445,"Ġsignificationem":11446,"ffectus":11447,"Ġpone":11448,"Ġpondus":11449,"low":11450,"idelibus":11451,"ĠGermaniam":11452,"Ã©s":11453,"ÑĢÐ°":11454,"Ġuniverso":11455,"Ġmiror":11456,"Ġveteris":11457,"Ġeligere":11458,"Ġedita":11459,"Ġredditur":11460,"Ġuelut":11461,"Ġfinitum":11462,"Ġprofectum":11463,"ĠGalliam":11464,"ĠAliae":11465,"Ġdenot":11466,"Ġdenuo":11467,"Ġaccepistis":11468,"Ġseptima":11469,"landia":11470,"Ġpugnavit":11471,"ĠCarthag":11472,"Ġcupiditas":11473,"Ġfurti":11474,"Ġportus":11475,"Ġkal":11476,"Ġconventus":11477,"Ġtenebras":11478,"Ġauro":11479,"Ġludis":11480,"piciens":11481,"Ġversibus":11482,"Ġrapt":11483,"Ġhereditas":11484,"Ġsororis":11485,"Ġcensent":11486,"Ġhortum":11487,"Ġhortus":11488,"ally":11489,"options":11490,"ĠTheoph":11491,"Ġcreaturis":11492,"ĠNew":11493,"Ġostenditur":11494,"Ġrestitu":11495,"Ġtestamenti":11496,"Ġhistoriam":11497,"Ġcommode":11498,"Ġdepositi":11499,"Ġascens":11500,"ĠMoysi":11501,"Ġdesiderio":11502,"Ġelectionem":11503,"ĠMinime":11504,"ĠOrd":11505,"ĠLaod":11506,"Ġfirma":11507,"Ġconversi":11508,"Ġconversus":11509,"ĠProinde":11510,"ĠSecundo":11511,"ĠSamara":11512,"Ġdefenditur":11513,"Ġcultus":11514,"Ġlegitima":11515,"Ġmembris":11516,"Ġuenit":11517,"ĠRussia":11518,"Ġtitulo":11519,"ĠSequitur":11520,"Ġente":11521,"Ġexpetendum":11522,"ĠSyrac":11523,"Ġoccurrunt":11524,"Ġarborum":11525,"Ġdilectionem":11526,"Ġeloquentiam":11527,"Ġconstanter":11528,"Ġdeficit":11529,"Ġmagnifice":11530,"ĠRespondit":11531,"Ġvirgines":11532,"Ġnuptiarum":11533,"Ġ});":11534,"Ġconsentiunt":11535,"Ġoblivisci":11536,"Ġconsultum":11537,"ĠOport":11538,"ĠPhilot":11539,"rupti":11540,"Ġremanet":11541,"Ġdesinit":11542,"ĠCetera":11543,"ĠApollonius":11544,"Ġá¼Ģ":11545,"Ġsubsistens":11546,"ĠÐļÐ¾ÑĤÐ»Ñĭ":11547,"ĠEphra":11548,"Ġintentionem":11549,"ĠRheni":11550,"ĠOptio":11551,"ĠGratias":11552,"Ġcontigerit":11553,"Ġsyllaba":11554,"Ġinfamia":11555,"Ġstellarum":11556,"Ġintroduc":11557,"Ġopportun":11558,"Ġregimen":11559,"ĠIoachim":11560,"Ġdiscrimen":11561,"Ġbrachium":11562,"Ġsagittis":11563,"Ġbovem":11564,"Ġpravae":11565,"Ġappropinqu":11566,"\"],\"":11567,"428":11568,"Es":11569,"Ip":11570,"Ist":11571,"Urb":11572,"Vir":11573,"]}":11574,"aad":11575,"cra":11576,"ft":11577,"hes":11578,"ject":11579,"len":11580,"loc":11581,"mihi":11582,"mog":11583,"nos":11584,"rui":11585,"torum":11586,"uert":11587,"Å¾":11588,"ÏĮ":11589,"Ïį":11590,"Ð¡":11591,"Ð¶":11592,"åŃ":11593,"Ġ]":11594,"Ġ....":11595,"Ġulc":11596,"ĠÏĦ":11597,"Ġä¸":11598,"Ļéĭ¼":11599,"Ġaevo":11600,"Ġsa":11601,"usus":11602,"Ġpes":11603,"Ġpug":11604,"atii":11605,"atch":11606,"Ġche":11607,"Ġni":11608,"Ġmam":11609,"icy":11610,"icio":11611,"icomm":11612,"Ġviis":11613,"Ġvendere":11614,"Ġtar":11615,"Ġtorm":11616,"Ġtecta":11617,"liorum":11618,"etes":11619,"arro":11620,"ecutus":11621,"ularium":11622,"Ġprost":11623,"Ġprosc":11624,"olos":11625,"Ġadsequi":11626,"edic":11627,"Ġrestat":11628,"aciter":11629,"Ġutpote":11630,"als":11631,"Ġconfectum":11632,"ĠIure":11633,"ĠIerusalem":11634,"ĠAN":11635,"Ġexstr":11636,"Ġexha":11637,"ĠScrib":11638,"ĠCli":11639,"ĠCIC":11640,"ĠDur":11641,"Ġdiurn":11642,"Ġfacilior":11643,"ĠPen":11644,"ĠQuar":11645,"ilibet":11646,"Ġgente":11647,"Ġcoqu":11648,"ĠNatus":11649,"Ġposuisti":11650,"Ġscitum":11651,"ives":11652,"ĠMac":11653,"Ġabys":11654,"Ġabbat":11655,"Ġabhor":11656,"ĠHann":11657,"Ġsite":11658,"Ġneutrum":11659,"ĠRel":11660,"Ġcalig":11661,"Ġcalid":11662,"ĠFinis":11663,"ĠFusce":11664,"ĠTulli":11665,"ĠTrib":11666,"Ġvoluisti":11667,"Ġconsurg":11668,"ĠVicip":11669,"ĠVarr":11670,"ĠBell":11671,"ĠBad":11672,"Ġintend":11673,"Ġintrat":11674,"Ġproph":11675,"Ġscribi":11676,"Ġcommittere":11677,"Ġsumere":11678,"Ġstigmata":11679,"Ġcorona":11680,"Ġ1923":11681,"ĠOly":11682,"Ġlocuta":11683,"Ġloquantur":11684,"Ġspha":11685,"Ġincolas":11686,"Ġserp":11687,"Ġsubstit":11688,"Ġposterum":11689,"Ġaudiat":11690,"ĠUlix":11691,"Ġcausatum":11692,"ley":11693,"Ġimpress":11694,"erog":11695,"ado":11696,"Ġagno":11697,"audiae":11698,"Ġratum":11699,"Ġvitare":11700,"Ġvocis":11701,"Ġputatis":11702,"ffer":11703,"Ġcurrit":11704,"Ġsuperiore":11705,"nex":11706,"Ġmalle":11707,"Ġiudice":11708,"Ġrepente":11709,"Ġnominantur":11710,"Ġdecus":11711,"Ġdederis":11712,"Ġ2001":11713,"eraque":11714,"ĠFrancia":11715,"Ġlitore":11716,"Ġgratuit":11717,"Ġconfug":11718,"Ġconferre":11719,"Ġinvitus":11720,"Ġinfidelibus":11721,"Ġnotis":11722,"Ġpraecedit":11723,"ĠAmmon":11724,"Ġcarcere":11725,"Ġcolonia":11726,"Ġmisisti":11727,"Ġpraeterit":11728,"Ġmora":11729,"Ġmoriuntur":11730,"Ġvidear":11731,"Ġcircuitu":11732,"ĠLatino":11733,"Ġinvenisti":11734,"Ġprincipatus":11735,"Ġcertis":11736,"Ġsummus":11737,"Ġfugiunt":11738,"Ð¾Ñģ":11739,"ĠQuaes":11740,"Ġducti":11741,"Ġegerit":11742,"Ġextrah":11743,"ĠProb":11744,"Ġexercitat":11745,"Ġsapienter":11746,"Ġvictum":11747,"Ġvicarius":11748,"ĠMarci":11749,"Ġital":11750,"Ġfutur":11751,"Ð¸Ðµ":11752,"Ġword":11753,"Ġiisdem":11754,"Ġstatuit":11755,"Ġprocre":11756,"Ġ117":11757,"Ġmulierum":11758,"ĠBrund":11759,"Ġcontractum":11760,"Ġquintum":11761,"Ġtransire":11762,"Ġimmin":11763,"Ġimmol":11764,"Ġliberae":11765,"Ġliberatus":11766,"Ġsociorum":11767,"aneum":11768,"Ġaedificatum":11769,"ĠIoab":11770,"Ġmetimur":11771,"Ġdistric":11772,"Ġdetrim":11773,"Ġflu":11774,"Ġpraecipit":11775,"Ġquaestor":11776,"Ġquaestione":11777,"Ġadduxit":11778,"Ġargent":11779,"Ġeventus":11780,"ĠSpec":11781,"Ġmiserrim":11782,"Ġreddat":11783,"Ġchem":11784,"reditur":11785,"Ġbibas":11786,"Ġbibliothec":11787,"Ġparvam":11788,"uicem":11789,"Ġlaborare":11790,"Ġclariora":11791,"Ġdicturus":11792,"Ġerroribus":11793,"Ġcopul":11794,"Ġcopiam":11795,"Ġcopios":11796,"landiae":11797,"Ġincipere":11798,"erebamus":11799,"ipisci":11800,"Ġprivileg":11801,"Ġrogat":11802,"Ġrogatus":11803,"ãĤ¹":11804,"ãĤĴ":11805,"Ġproposita":11806,"Ã¡ria":11807,"Ġ1993":11808,"Ġaestate":11809,"Ġludos":11810,"Ġtestimonia":11811,"Ġpuellis":11812,"erdin":11813,"ology":11814,"Ġversatur":11815,"Ġfidelibus":11816,"Ġorientem":11817,"Ġpossidere":11818,"Ġsimplicem":11819,"Ġ1978":11820,"ĠMediol":11821,"Ġscelus":11822,"ĠNeap":11823,"echn":11824,"ĠCler":11825,"Ġadventus":11826,"ĠBritanniae":11827,"Ġ1989":11828,"ÐµÐ´":11829,"ĠImperator":11830,"Ġfacultate":11831,"Ġexceptis":11832,"Ġdioecesi":11833,"Ġministri":11834,"ĠSamaria":11835,"Ġhoras":11836,"Ġiuvat":11837,"Ġrecordatio":11838,"ĠNostrum":11839,"Ġimpetum":11840,"Ġsacerdotio":11841,"Ġaccepto":11842,"Ġmeminisse":11843,"Ġproelium":11844,"Ġvictoriam":11845,"ĠTempore":11846,"Ġdeclarat":11847,"Ġinvidia":11848,"ĠâĹ":11849,"ÏģÎ±":11850,"Ġhospit":11851,"Ġdilectio":11852,"Ġplebis":11853,"ĠHabet":11854,"Ġqualitas":11855,"Ġiniust":11856,"ĠArchiepiscop":11857,"Ġconfiteri":11858,"Omnis":11859,"Ġreversus":11860,"ĠLaban":11861,"ĠSext":11862,"Ġresistere":11863,"Ġcrucem":11864,"Ġresurrexit":11865,"Ġnonnulla":11866,"Ġclausa":11867,"ĠSententia":11868,"Ġpetierimus":11869,"Ġoctava":11870,"ĠActs":11871,"ĠPraecl":11872,"Ġsuspecta":11873,"Ġnoctes":11874,"attoo":11875,"Ġavaritia":11876,"ĠBeatrix":11877,"Ġsublata":11878,"ĠEzechias":11879,"ĠÅ¿":11880,"Ġrobust":11881,"Liber":11882,"Ġparoeciae":11883,"Ġgloriari":11884,"Primum":11885,"Ġpepercit":11886,"ĠGaius":11887,"Ġattingere":11888,"ĠInterrogatus":11889,"Ġimponitur":11890,"Ġadepto":11891,"Comp":11892,"Ġexcelsiores":11893,"ĠGreek":11894,"Ġimprimis":11895,"ĠHungariae":11896,"Ġcotidiana":11897,"ç´Ļéĭ¼":11898,"ĠAnselmo":11899,"ĠCantuÃ¡ria":11900,"ĠBrunsv":11901,"ĠVindob":11902,"!!":11903,"')":11904,"?)":11905,"Cras":11906,"Donec":11907,"EC":11908,"Eccles":11909,"LL":11910,"Se":11911,"XII":11912,"cas":11913,"du":11914,"fort":11915,"iatus":11916,"iudic":11917,"ki":11918,"ker":11919,"lorum":11920,"mann":11921,"ny":11922,"riam":11923,"rant":11924,"roni":11925,"tes":11926,"uitatem":11927,"wh":11928,"¤ãĥ":11929,"Äķ":11930,"å¥":11931,"åĮ":11932,"ĠØ§":11933,"quem":11934,"umen":11935,"eratus":11936,"Ġax":11937,"Ġseri":11938,"inxit":11939,"Ġquand":11940,"Ġquacumque":11941,"ista":11942,"Ġpens":11943,"amb":11944,"ami":11945,"onicae":11946,"Ġcentur":11947,"Ġcarent":11948,"Ġnich":11949,"Ġmenda":11950,"Ġinnox":11951,"Ġineff":11952,"Ġinuicem":11953,"Ġvag":11954,"rel":11955,"Ġfonte":11956,"Ġficta":11957,"Ġfolia":11958,"omus":11959,"imile":11960,"idos":11961,"iduo":11962,"ecisti":11963,"ulerit":11964,"iali":11965,"Ġadop":11966,"Ġreum":11967,"udens":11968,"abamus":11969,"Ġutrisque":11970,"oti":11971,"otes":11972,"otos":11973,"Ġdeponere":11974,"ĠSeg":11975,"ĠSing":11976,"ĠSuet":11977,"ĠDig":11978,"ĠDign":11979,"estatem":11980,"endite":11981,"Ġpraep":11982,"Ġpraefic":11983,"ratione":11984,"isticae":11985,"ĠPsal":11986,"ĠPuer":11987,"Ġseduc":11988,"Ġenum":11989,"uitus":11990,"Ġquiditas":11991,"ĠMaecenas":11992,"Ġpotuimus":11993,"ptis":11994,"Ġabut":11995,"Ġabdic":11996,"Ġuers":11997,"Ġrud":11998,"Ġrot":11999,"Ġoporter":12000,"ĠHost":12001,"ĠRa":12002,"ĠReb":12003,"ĠRusc":12004,"ĠRursus":12005,"Ġamavit":12006,"Ġpage":12007,"ĠTenn":12008,"Ġincumb":12009,"Ġvolebam":12010,"iscip":12011,"ĠVulgate":12012,"ĠVivamus":12013,"Ġpleraque":12014,"Ġnecatus":12015,"Ġnecnon":12016,"Ġunitate":12017,"Ġacceptum":12018,"Ġintest":12019,"ova":12020,"Ġdixero":12021,"Ġdixerint":12022,"Ġanimas":12023,"Ġlegavit":12024,"ĠInstit":12025,"Ġveniant":12026,"ĠOx":12027,"Ġloquentem":12028,"Ġdoleo":12029,"Ġnumerat":12030,"Ġaudiret":12031,"Ġomnesque":12032,"ĠSedes":12033,"Ġimplet":12034,"Ġquibuscum":12035,"itasse":12036,"Ġduarum":12037,"Ġout":12038,"Ġnaturalem":12039,"Ġcommunitas":12040,"Ġdebeatur":12041,"Ġacquiesc":12042,"Ġurbium":12043,"Ġtrac":12044,"Ġcurat":12045,"Ġremota":12046,"Ġdiscept":12047,"Ġnominatur":12048,"itudin":12049,"ugium":12050,"Ġcognitam":12051,"Ġ500":12052,"Ġfortes":12053,"Ġrecre":12054,"Ġrecurr":12055,"Ġactionibus":12056,"Ġconfecta":12057,"Ġdelet":12058,"Ġinfantes":12059,"Ġpraecepisti":12060,"ĠAmas":12061,"Ġcaritatis":12062,"Ġcolum":12063,"Ġmatri":12064,"Ġmattis":12065,"Ġlabeo":12066,"Ġmoreretur":12067,"Ġdoce":12068,"Ġvisit":12069,"Ġneglig":12070,"Ġdominium":12071,"Ġprincipis":12072,"Ġcertamen":12073,"ĠAraris":12074,"Ġfugerunt":12075,"Ġquaeram":12076,"Ġducitur":12077,"Ġducatus":12078,"ixum":12079,"Ġ121":12080,"Ġfamam":12081,"Ġmutatur":12082,"ordin":12083,"Ġcognosceret":12084,"Ġappellati":12085,"Ġpetit":12086,"Ġpeteret":12087,"Ġceterum":12088,"Ġstudiose":12089,"Ġlaudis":12090,"Ġ132":12091,"Ġ133":12092,"Ġ138":12093,"Ġsenectus":12094,"Ġ147":12095,"Ġprocedit":12096,"Ġ113":12097,"Ġintelligentiae":12098,"Ġmensam":12099,"Ġ107":12100,"Ġaperitur":12101,"ĠBras":12102,"Ġpeccat":12103,"Ġaccusatus":12104,"Ġcontrariae":12105,"ãģª":12106,"ĠMaur":12107,"Ġsignificet":12108,"ĠOmnium":12109,"Ġaequa":12110,"ÑģÑı":12111,"Ġsimulac":12112,"ricem":12113,"Ġdifferant":12114,"Ġtributa":12115,"Ġadversariis":12116,"Ġbeatissimum":12117,"Ġgravem":12118,"Ġmandavi":12119,"Ġlicitum":12120,"Ġmiseram":12121,"Ġobsid":12122,"Ġaeternus":12123,"Ġsecundae":12124,"Ġinstitu":12125,"Ġlaeta":12126,"Ġpermut":12127,"Ġpugnam":12128,"Ġdelector":12129,"Ġreperio":12130,"Ġpaucorum":12131,"ĠNova":12132,"Ġmeliores":12133,"Ġnobili":12134,"Ġnuntiatum":12135,"Ġlacess":12136,"Ð°Ð¹":12137,"Ġcorrip":12138,"Ġrogare":12139,"Ġrevera":12140,"Ġpericuli":12141,"lement":12142,"Ġ1948":12143,"Ġ1949":12144,"Ġnarravit":12145,"Ġmaritum":12146,"Ġmarito":12147,"Ġludo":12148,"Ġaugur":12149,"Ġfeminarum":12150,"Ġmissi":12151,"Ġambulabat":12152,"Ġcastrum":12153,"Ġdivisio":12154,"Ġdiversum":12155,"Ġcomposuit":12156,"Ġsorore":12157,"Ġfideicomm":12158,"ĠParisi":12159,"Ġpretiosa":12160,"Ġiniquum":12161,"Ġcircumcid":12162,"Ġpassim":12163,"Ġintrare":12164,"Ġsystem":12165,"Ġparentum":12166,"Ġvincitur":12167,"Ġindex":12168,"Ġscelera":12169,"Ġnatalis":12170,"Ġnationibus":12171,"Ġfundi":12172,"Ġperpetua":12173,"ĠDolores":12174,"Ġfeceritis":12175,"Ġfeles":12176,"Ġcondicionem":12177,"Ġconcedi":12178,"Ġcrimina":12179,"Ġrelinquere":12180,"ĠLucius":12181,"Ġcommoda":12182,"Ġsempiternam":12183,"ĠCatholica":12184,"Ġelegantiam":12185,"Ġgeneratio":12186,"Ġindiget":12187,"Ġaltius":12188,"Ġaltitudo":12189,"Ġ1853":12190,"Ġinstar":12191,"ĠAfricae":12192,"Ġxii":12193,"Ġdeducta":12194,"Ġparticipes":12195,"Ġproficisci":12196,"ourt":12197,"Ġsomnium":12198,"Ġhoram":12199,"Ġcadunt":12200,"Ġmunicipia":12201,"Ġsumptum":12202,"Ġ1860":12203,"ĠXVII":12204,"Ġaccepti":12205,"Ġmeminit":12206,"Ġnubes":12207,"Ġintegra":12208,"Ġdurius":12209,"ĠXXI":12210,"Ġinquiunt":12211,"ĠZenonis":12212,"Ġdelictum":12213,"Ġquaerebamus":12214,"ĠSequi":12215,"Ġcapitulo":12216,"Ġgregem":12217,"Ġueritate":12218,"Ġinsipientes":12219,"Ġinsipientium":12220,"Ġuoluntate":12221,"Ġ1806":12222,"Ġpollicetur":12223,"Ġacceperat":12224,"Ġpercept":12225,"Ġmultiplex":12226,"ĠMaxime":12227,"ĠMaximum":12228,"Ġpastor":12229,"Ġnonnullis":12230,"Ġremansit":12231,"Ġconsummati":12232,"Ġuiuere":12233,"Ġparticeps":12234,"Ġcontentione":12235,"ĠJudae":12236,"Ġcotidieque":12237,"ĠSabaudiae":12238,"Ġevangeliz":12239,"ience":12240,"Ġprimogenitus":12241,"Ġconsiderata":12242,"Ġcenam":12243,"Ġrequire":12244,"ĠNapoleo":12245,"Ġdextram":12246,"Ġvestigia":12247,"ĠEvangelium":12248,"Ġegregium":12249,"Sicut":12250,"Ġabbas":12251,"ĠDeserunt":12252,"Ġbasil":12253,"ĠTreb":12254,"????????":12255,"ĠPomponius":12256,"Ġabscondit":12257,"Ġabscondi":12258,"ĠAvic":12259,"æĹ¥":12260,"Ġexhered":12261,"Ġconfiteor":12262,"ĠDemocritus":12263,"10883628":12264,"Ġprouinc":12265,"Ġdiluvii":12266,"Ġtranquill":12267,"Lingua":12268,"ĠFridericus":12269,"Ġdeterritum":12270,"Ġinflammat":12271,"Ġpernici":12272,"ipublicae":12273,"ĠSyracus":12274,"Ġoporteret":12275,"!)":12276,"839":12277,"90":12278,"95":12279,"AM":12280,"Autem":12281,"Ep":12282,"Hab":12283,"Joh":12284,"SU":12285,"Sunt":12286,"Tum":12287,"Vel":12288,"XIV":12289,"dis":12290,"dific":12291,"ford":12292,"iano":12293,"ml":12294,"nesc":12295,"tas":12296,"xisse":12297,"ya":12298,"»¿":12299,"Î®":12300,"å½":12301,"åĨ":12302,"è¡":12303,"Ġic":12304,"Ġlius":12305,"Ġ01":12306,"Ġelic":12307,"ery":12308,"Ġsh":12309,"inone":12310,"Ġpensa":12311,"Ġpsal":12312,"atarum":12313,"Ġcale":12314,"Ġceperunt":12315,"ĠcÅĵ":12316,"aest":12317,"Ġdate":12318,"Ġdaretur":12319,"Ġmere":12320,"Ġindi":12321,"Ġinquir":12322,"Ġineptum":12323,"ics":12324,"ical":12325,"Ġvov":12326,"Ġvast":12327,"Ġviarum":12328,"Ġton":12329,"Ġtarn":12330,"rea":12331,"reta":12332,"Ġferat":12333,"ence":12334,"image":12335,"Ġhel":12336,"idior":12337,"iditas":12338,"Ġpror":12339,"ĠprÃ¦c":12340,"olvit":12341,"Ġadfic":12342,"ocendi":12343,"Ġreb":12344,"Ġlitus":12345,"udit":12346,"aca":12347,"Ġutar":12348,"Ġutilis":12349,"Ġuteretur":12350,"ele":12351,"opat":12352,"ĠAdi":12353,"Ġexstat":12354,"Ġquamque":12355,"ĠCen":12356,"ĠDor":12357,"ende":12358,"ipiam":12359,"Ġperire":12360,"Ġauth":12361,"ĠPut":12362,"ĠPun":12363,"ĠPisc":12364,"ĠQuaec":12365,"Ġcogitur":12366,"quamquam":12367,"enso":12368,"Ġhabuisse":12369,"Ġscias":12370,"Ġsciri":12371,"Ġsciebat":12372,"uctus":12373,"Ġpoteram":12374,"ebor":12375,"Ġverso":12376,"Ġipsarum":12377,"ĠLo":12378,"Ġope":12379,"Ġopert":12380,"ĠHos":12381,"ĠHorum":12382,"ĠHarum":12383,"available":12384,"ĠRup":12385,"Ġamamus":12386,"ĠFerdin":12387,"Ġpaginae":12388,"ĠTanta":12389,"Ġincepit":12390,"ĠVi":12391,"ĠVil":12392,"ĠVbi":12393,"Ġplanum":12394,"Ġsolitudo":12395,"ingit":12396,"ĠBis":12397,"Ġcontendere":12398,"Ġcommissa":12399,"Ġinterven":12400,"Ġfuere":12401,"Ġfuisses":12402,"Ġorigin":12403,"Ġlibrorum":12404,"Ġsecuta":12405,"Ġdixerim":12406,"rane":12407,"ĠInf":12408,"ĠInv":12409,"ĠOg":12410,"ĠOh":12411,"Ġsero":12412,"Ġsubdit":12413,"Ġaudeat":12414,"Ġobed":12415,"Ġannuntia":12416,"Ġcuiusmodi":12417,"Ġsimilibus":12418,"Ġdebebat":12419,"resso":12420,"Ġagendi":12421,"Ġputantur":12422,"Ġputavit":12423,"Ġistos":12424,"Ġcures":12425,"Ġsuperv":12426,"Ġdivino":12427,"Ġiuribus":12428,"Ġreprob":12429,"ĠâĢŀ":12430,"Ġdecur":12431,"Ġasino":12432,"Ġdeserta":12433,"iciuntur":12434,"Ġintellecta":12435,"ĠFrancorum":12436,"ĠFrancogallic":12437,"Ġrecent":12438,"diffic":12439,"Ġgratius":12440,"Ġscribimus":12441,"Ġconferunt":12442,"Ġinvito":12443,"Ġvivus":12444,"height":12445,"ĠAmic":12446,"Ġinsunt":12447,"Ġinscrib":12448,"Ġteneat":12449,"Ġplaceret":12450,"Ġfecitque":12451,"Ġvideas":12452,"Ġprovidere":12453,"Ġfiebant":12454,"Ġvisionem":12455,"Ġprobabis":12456,"anna":12457,"Ġsalub":12458,"ĠJer":12459,"ĠJerusalem":12460,"Ġingem":12461,"ĠPros":12462,"ĠProph":12463,"Ġtestem":12464,"Ġ122":12465,"Ġ126":12466,"Ġ127":12467,"Ġintellegis":12468,"Ġvicem":12469,"Ġmutata":12470,"Ġmutuam":12471,"Ġaccipiatur":12472,"Ġreliquorum":12473,"Ġceteras":12474,"possumus":12475,"position":12476,"Ġ134":12477,"Ġphil":12478,"ĠConstit":12479,"strorum":12480,"Ġstatuta":12481,"Ġstatutum":12482,"inamur":12483,"Ġ116":12484,"Ġintelligatur":12485,"Ġmensem":12486,"Ġmillia":12487,"Ġsacris":12488,"Ġ102":12489,"Ġ104":12490,"Ġsubiect":12491,"Ġsubiecit":12492,"Ġsignificantur":12493,"Ġcupit":12494,"Ġrectissime":12495,"Ġthey":12496,"Ġtheir":12497,"ĠIoanne":12498,"name":12499,"rico":12500,"ricis":12501,"Ġmovent":12502,"Ġultro":12503,"Ġultimo":12504,"Ġnoctu":12505,"Ġconvenerunt":12506,"Ġthem":12507,"Ġdonata":12508,"Ġperfectiones":12509,"Ġquaestionis":12510,"Ġuniversum":12511,"Ġferri":12512,"ĠWe":12513,"ĠWil":12514,"Ġmirabantur":12515,"Ġargenti":12516,"Ġdebetis":12517,"Ġexplicare":12518,"Ġfamiliarem":12519,"Ġamput":12520,"oriarum":12521,"Ġchat":12522,"Ġcogitationibus":12523,"Ġpraestet":12524,"ĠGalaad":12525,"Ġcalor":12526,"ĠAlii":12527,"ĠAlio":12528,"Ġdelectant":12529,"ĠIntern":12530,"Ġhonesta":12531,"Ġcupiditatem":12532,"Ġfuroris":12533,"Ġopiniones":12534,"Ġprivatae":12535,"Ð°Ð²":12536,"Ġcru":12537,"Ġconventum":12538,"Ġpropositio":12539,"Ġcasibus":12540,"Ġ1992":12541,"Ġafflic":12542,"ĠHispaniam":12543,"Ġmariti":12544,"Ġimagine":12545,"Ġgestorum":12546,"Ġnavium":12547,"ĠSeptem":12548,"Ġconiunctionem":12549,"Ġscripserit":12550,"Ġignorare":12551,"Ġcompositionem":12552,"Ġadhibetur":12553,"Ġscriptoribus":12554,"ĠParlam":12555,"Ġordinatus":12556,"Ġeuangeli":12557,"Ġiniquitas":12558,"Ġcomparatur":12559,"Ġpassiones":12560,"Ġturpiter":12561,"Ġturpitudinem":12562,"Ġconsumere":12563,"Ġcreaturam":12564,"Ġ1960":12565,"Ġglob":12566,"Ġpauperes":12567,"Ġsuscept":12568,"Ġrestitui":12569,"ĠBritannicus":12570,"Ġaccedunt":12571,"Ġfesto":12572,"Ġfestiv":12573,"Ġgenerationem":12574,"Ġsingularis":12575,"Ġcibo":12576,"Ġscitote":12577,"Ġ1858":12578,"Ġconfirmatae":12579,"Ġtaberna":12580,"Ġtabernac":12581,"Ġtabernaculo":12582,"Ġapostolis":12583,"Ġ1958":12584,"Ġsollicitudin":12585,"ĠEsiae":12586,"errimus":12587,"ĠPotes":12588,"ĠGenesis":12589,"Ġcommendat":12590,"Ġiuvare":12591,"Ġproportionem":12592,"Ġadiuvat":12593,"Ġscholis":12594,"Ġcessat":12595,"ĠScipione":12596,"Ġsolidum":12597,"Ġtyp":12598,"Ġdecrevit":12599,"Ġperficere":12600,"ventore":12601,"Ġministerium":12602,"Ġadulescens":12603,"Ġaccesseris":12604,"Ġfingunt":12605,"Ġrequirit":12606,"Ġventurus":12607,"Ġ1893":12608,"ĠMarcellus":12609,"Ġproprietates":12610,"ÎµÎ¹":12611,"20000":12612,"Ġcatholicae":12613,"Ġpopularis":12614,"ĠAcademiam":12615,"Ġedicto":12616,"Ġpoetarum":12617,"Ġconfusionem":12618,"Ġconcupisces":12619,"Ġhodiernum":12620,"Ġnutri":12621,"ĠMalmog":12622,"Ġexprimere":12623,"Ġclericus":12624,"Ġpermittitur":12625,"Ġconcipi":12626,"Ġoblivisc":12627,"ĠSyriam":12628,"Ġcrescit":12629,"ĠPraeses":12630,"Ġpictura":12631,"Ġadmirationis":12632,"Ġnudus":12633,"Ġimportat":12634,"Praeterea":12635,"Ġmaledicta":12636,"Ġprocurator":12637,"Ġsacramentum":12638,"Ġlacrimae":12639,"Ġloquamur":12640,"Ġrationalis":12641,"ĠDietam":12642,"Ġnoctibus":12643,"Ġmediocri":12644,"domad":12645,"ackson":12646,"Ġobtulit":12647,"ĠCeltae":12648,"Ġfontes":12649,"Ġredeamus":12650,"Ġpontificatus":12651,"Ġhomic":12652,"ĠÐ¾Ð±":12653,"Ġblasph":12654,"Marcus":12655,"Ġcomplexus":12656,"Ġillustris":12657,"Ġbenedicat":12658,"Ġterminos":12659,"Ġmedicina":12660,"ÑĨÐ¸":12661,"uthrot":12662,"ĠElisatia":12663,"Ġcarmina":12664,"Ġverecund":12665,"Ġmaerore":12666,"ĠCredo":12667,"Ġcoercendi":12668,"\":[\"":12669,"ĠFrater":12670,"Ġceleritate":12671,"ĠOrient":12672,"Variants":12673,"Ġadiunxit":12674,"ighly":12675,"ĠCongreg":12676,"Ġpraediti":12677,"ĠNorvegiae":12678,"Ġnongentesimo":12679,"Ġsugg":12680,"ĠHierosoly":12681,"Ġsepeli":12682,"ĠHieronymus":12683,"ĠEphraim":12684,"ĠTennesiae":12685,"97":12686,"://":12687,"=\"":12688,">.":12689,"?âĢĿ.":12690,"Download":12691,"Iab":12692,"KG":12693,"Multa":12694,"Numquam":12695,"UC":12696,"Un":12697,"aque":12698,"cont":12699,"dere":12700,"featured":12701,"ges":12702,"iemus":12703,"iebant":12704,"ount":12705,"ple":12706,"tionis":12707,"uuntur":12708,"vum":12709,"vus":12710,"zy":12711,"Ã¸":12712,"áŀ":12713,"å°":12714,"åĩ":12715,"æ°":12716,"ï»¿":12717,"ĠÏĥ":12718,"Ġedixit":12719,"erp":12720,"eru":12721,"erven":12722,"Ġavers":12723,"Ġses":12724,"inu":12725,"Ġqualiter":12726,"Ġpont":12727,"ntur":12728,"Ġcf":12729,"Ġcari":12730,"Ġcedit":12731,"Ġdetur":12732,"Ġdentes":12733,"Ġdans":12734,"Ġdatam":12735,"Ġmen":12736,"Ġinpr":12737,"icul":12738,"utes":12739,"utiae":12740,"Ġfato":12741,"Ġfreg":12742,"lixit":12743,"enia":12744,"omi":12745,"imet":12746,"imarum":12747,"Ġhyp":12748,"arm":12749,"eck":12750,"entae":12751,"entos":12752,"Ġnonaginta":12753,"Ġpriori":12754,"iavit":12755,"oles":12756,"Ġadaequ":12757,"Ġlatus":12758,"Ġlate":12759,"elo":12760,"asque":12761,"Ġdeae":12762,"ald":12763,"alitatis":12764,"ĠAst":12765,"ĠAri":12766,"Ġexord":12767,"Ġexinde":12768,"Ġexponere":12769,"Ġexamin":12770,"ĠSta":12771,"ĠSup":12772,"ĠSoph":12773,"ĠCop":12774,"ĠCore":12775,"ĠCath":12776,"ĠCity":12777,"agement":12778,"omnis":12779,"ĠDid":12780,"ĠDuae":12781,"estatis":12782,"Ġpersequi":12783,"Ġbel":12784,"Ġbeg":12785,"ĠPad":12786,"ĠPKG":12787,"rad":12788,"ected":12789,"ĠQuarum":12790,"ĠQuinct":12791,"omina":12792,"Ġgal":12793,"Ġgentis":12794,"Ġgeruntur":12795,"now":12796,"Ġcoempt":12797,"ensam":12798,"ensione":12799,"Ġhabito":12800,"Ġposc":12801,"Ġposit":12802,"Ġsciebam":12803,"ĠMM":12804,"ĠMex":12805,"ĠModo":12806,"Ġpotentes":12807,"undam":12808,"ebimus":12809,"Ġ250":12810,"arest":12811,"ortus":12812,"ortis":12813,"Ġposses":12814,"Ġabhinc":12815,"Ġup":12816,"ĠLup":12817,"Ġerrat":12818,"Ġerog":12819,"Ġcaud":12820,"ĠFur":12821,"ĠFann":12822,"ĠTul":12823,"ĠTab":12824,"Ġaliquantum":12825,"ĠVero":12826,"Ġplene":12827,"Ġnecati":12828,"ertatis":12829,"essi":12830,"Ġpotestati":12831,"Ġsolvit":12832,"ingere":12833,"ington":12834,"ĠBy":12835,"Ġcontulit":12836,"ullus":12837,"Ġorationes":12838,"Ġresusc":12839,"Ġsecuti":12840,"Ġsicc":12841,"Ġsto":12842,"Ġstans":12843,"Ġanimis":12844,"Ġminimo":12845,"Ġcorn":12846,"Ġlegiones":12847,"Ġfecissem":12848,"Ġ1912":12849,"Ġ1934":12850,"ĠOdit":12851,"ĠOce":12852,"Ġloquente":12853,"Ġaudiamus":12854,"Ġimpii":12855,"Ġmagnos":12856,"Ġmagnarum":12857,"ĠRome":12858,"ĠAnimi":12859,"Ġnaturali":12860,"Ġnaturales":12861,"Ġdeberi":12862,"Ġnullas":12863,"Ġacadem":12864,"Ġputabant":12865,"ernis":12866,"Ġexpell":12867,"Ġmalit":12868,"Ġiudicibus":12869,"ĠĠĠĠĠĠĠ":12870,"Ġamice":12871,"Ġdiscimus":12872,"Ġnominati":12873,"Ġdedocendi":12874,"Ġdesuper":12875,"Ġtotidem":12876,"Ġactionis":12877,"Ġconfestim":12878,"Ġdelecta":12879,"ĠÐ°":12880,"Ġeludet":12881,"Ġinfans":12882,"Ġclarum":12883,"Ġpraecepi":12884,"Ġcariorem":12885,"Ġcredas":12886,"Ġdefini":12887,"Ġoptimo":12888,"Ġdocendi":12889,"Ġproblem":12890,"Ġprobabantur":12891,"Ġcirculum":12892,"Ġprincipalis":12893,"Ġsalt":12894,"Ġfugam":12895,"ĠGraecam":12896,"Ġaeterno":12897,"Ġtumultus":12898,"eau":12899,"Ġimperfectum":12900,"Ġingress":12901,"Ġofficiorum":12902,"Ġsuspectum":12903,"Ġintellegimus":12904,"Ġsapientium":12905,"Ġhonorum":12906,"Ġcogitet":12907,"Ġhumili":12908,"Ġreliquiae":12909,"Ġaedem":12910,"Ġappellari":12911,"Ġappellatio":12912,"Ġsuperest":12913,"uctae":12914,"Ġlaudari":12915,"Ġ131":12916,"Ġsenatui":12917,"Ġconstituere":12918,"Ġgloriose":12919,"Ġgloriatio":12920,"Ġodisse":12921,"Ġdiscipulum":12922,"Ġintelligimus":12923,"Ġmensuram":12924,"Ġsubstantias":12925,"Ġemitt":12926,"Ġmuneris":12927,"Ġfactionem":12928,"ĠQuamobrem":12929,"Ġpraedicari":12930,"Ġmulieri":12931,"Ġlatet":12932,"Ġcontrib":12933,"ĠMaiores":12934,"Ġsocios":12935,"Ġunaquaeque":12936,"Ġostendi":12937,"Ġaequalia":12938,"Ġregna":12939,"cripsit":12940,"Ġsingulae":12941,"Ġpraecipiendum":12942,"ĠIulio":12943,"Ġperfectionis":12944,"Ġadditum":12945,"ĠThem":12946,"Ġearumque":12947,"Ġconsulere":12948,"Ġmandatis":12949,"Ġmandato":12950,"Ġfamiliari":12951,"Ġnoluisti":12952,"Ġinstituti":12953,"Ġreprehendit":12954,"ĠAntiqu":12955,"ĠAntoni":12956,"Ġrefell":12957,"Ġeodemque":12958,"ĠPraemium":12959,"ĠIdque":12960,"ĠIdibus":12961,"Ġpermulta":12962,"Ġparvo":12963,"Ġepistularum":12964,"ĠIllae":12965,"Ġpromis":12966,"Ġdictator":12967,"Ġerrores":12968,"Ġdilecta":12969,"Ġpugnat":12970,"Ġdelectet":12971,"Ġreperitur":12972,"ĠPerse":12973,"Ġliberti":12974,"Ġlibertus":12975,"Ġdescisc":12976,"Ð°Ð±":12977,"Ġdisputatum":12978,"Ġdisputationibus":12979,"Ġtenebitur":12980,"Ġ1996":12981,"Ġ1997":12982,"Ġaugeri":12983,"Ġnavem":12984,"iction":12985,"Ġsonat":12986,"Ġcognoverunt":12987,"recta":12988,"Ġfortunas":12989,"ĠPauli":12990,"ĠAugusto":12991,"Ġmercator":12992,"Ġdivisa":12993,"Ġmanifesta":12994,"Ġsocietates":12995,"ĠParth":12996,"Ġpossideat":12997,"Ġhorto":12998,"Ġreleg":12999,"Ġcustodia":13000,"Ġmentiri":13001,"Ġagnum":13002,"Ġvinculum":13003,"Ġhier":13004,"Ġmerita":13005,"Ġ1965":13006,"Ġ1966":13007,"Ġ1968":13008,"ĠVenit":13009,"Ġplenitudinem":13010,"ĠUrbis":13011,"Ġsalva":13012,"Ġpraesides":13013,"ĠÎ¼":13014,"Ġpraemitt":13015,"Ġbestiarum":13016,"Ġcelebrat":13017,"Ġtacere":13018,"Ġstultitiam":13019,"Ġcomede":13020,"Ġdeposita":13021,"Ġ1982":13022,"ÐµÐ²":13023,"ÑģÑĤÐ²":13024,"Ġtollendam":13025,"ĠAnglia":13026,"Ġmoriar":13027,"Ġclamat":13028,"Ġabsolvi":13029,"Ġsuspicio":13030,"Ġsuspicione":13031,"Ġadducet":13032,"Ġsilentio":13033,"Ġimpetu":13034,"Ġconscientiam":13035,"Ð¸Ð´":13036,"Ġturbae":13037,"Ġgladius":13038,"Ġmontibus":13039,"Ġpraepositum":13040,"Ġinquies":13041,"Ġuocatur":13042,"ĠQuinto":13043,"Ġartificio":13044,"Ġ1870":13045,"Ġquaerebatis":13046,"ĠBooks":13047,"Ġdissimile":13048,"Ġcapitulum":13049,"Ġentis":13050,"Ġgreges":13051,"Ġinvidiae":13052,"Ġlapis":13053,"Ġarea":13054,"Ġ1803":13055,"Ġeloquentiae":13056,"Ġpraebet":13057,"Ġpopulari":13058,"Ġcubiculum":13059,"Ġconfitetur":13060,"Ġrespicit":13061,"Ãłm":13062,"Ġnuptiae":13063,"Ġtext":13064,"ĠApostolus":13065,"Ġhabitaverunt":13066,"burgum":13067,"Ġsuffragio":13068,"Ġsupplicium":13069,"ĠGeorgiae":13070,"Ġprocedunt":13071,"Ġpellic":13072,"Ġpellentesque":13073,"Ġdestru":13074,"ĠPlaceat":13075,"Ġcolloquium":13076,"Ġdimitte":13077,"ĠOccitania":13078,"Ġeffugere":13079,"Ġconcordiae":13080,"Ġorigine":13081,"Ġsuperbia":13082,"Ġsuperbiam":13083,"Ġinvocabo":13084,"Ġborealis":13085,"ĠMacedoniam":13086,"ĠTorquate":13087,"Ġinconstant":13088,"Ġinconveniens":13089,"ĠHerod":13090,"ĠHerac":13091,"ĠLudovici":13092,"æľ¬":13093,"ibiliora":13094,"Ġselectio":13095,"Ġconloqu":13096,"Ġinterdictum":13097,"Ġceterarum":13098,"Ġploravit":13099,"Temporibus":13100,"Ġredditae":13101,"Ġparens":13102,"ĠTriarius":13103,"Ġobscura":13104,"Ġsupponat":13105,"Caput":13106,"Ġpraeponunt":13107,"ĠSalomon":13108,"Ġhilaretur":13109,"Ġpueritia":13110,"ivoce":13111,"Ġdiapente":13112,"Ġdisciplinam":13113,"Ġspecialiter":13114,"https":13115,"ĠFoederalem":13116,"1450839":13117,"Ġuberiora":13118,"Ġulterius":13119,"ĠBucarest":13120,"ĠOrbis":13121,"ĠNobelianum":13122,"ĠÄĮerven":13123,"Ġinebri":13124,"ĠLugd":13125,"Ġproconsul":13126,"ĠOportet":13127,"ĠHannib":13128,"Ġprophetis":13129,"ĠRuscinone":13130,"\").":13131,"':":13132,"').":13133,"();":13134,"98":13135,">,":13136,"Aug":13137,"Die":13138,"Med":13139,"Sum":13140,"SPD":13141,"Sanct":13142,"Tex":13143,"Unde":13144,"Ven":13145,"Vers":13146,"XI":13147,"bur":13148,"ces":13149,"dae":13150,"fit":13151,"fell":13152,"frag":13153,"gar":13154,"hum":13155,"mar":13156,"mate":13157,"mentum":13158,"pol":13159,"pad":13160,"sub":13161,"the":13162,"uj":13163,"viae":13164,"Âº":13165,"ÂĹ":13166,"Ã£":13167,"Ãı":13168,"Äĩ":13169,"ÅĤ":13170,"Ñī":13171,"åĽ":13172,"ĠÚ":13173,"Ġone":13174,"Ŀ¼":13175,"ument":13176,"Ġaerum":13177,"Ġsur":13178,"Ġsud":13179,"usum":13180,"usandae":13181,"Ġpig":13182,"Ġpendere":13183,"Ġpictor":13184,"ativum":13185,"onos":13186,"onas":13187,"Ġci":13188,"Ġcul":13189,"Ġnunquid":13190,"aeo":13191,"stis":13192,"Ġdando":13193,"Ġdurum":13194,"Ġmili":13195,"Ġmost":13196,"Ġmisc":13197,"Ġmavis":13198,"oriam":13199,"uriam":13200,"urrent":13201,"Ġventum":13202,"Ġvini":13203,"Ġtir":13204,"Ġtectum":13205,"Ġtaed":13206,"Ġiv":13207,"Ġivit":13208,"requ":13209,"Ġfulg":13210,"Ġfelix":13211,"etia":13212,"ank":13213,"ulares":13214,"Ġpriore":13215,"eden":13216,"Ġreo":13217,"Ġrequis":13218,"Ġlacte":13219,"aberis":13220,"abimur":13221,"elum":13222,"ason":13223,"asch":13224,"ilud":13225,"otograph":13226,"Ġdelig":13227,"Ġsuarum":13228,"alla":13229,"ĠEae":13230,"ĠElect":13231,"ĠEveniet":13232,"Ġconantur":13233,"Ġexstit":13234,"Ġextor":13235,"Ġexquir":13236,"ĠSev":13237,"ĠCed":13238,"Ġanx":13239,"ĠDaniae":13240,"Ġdiligo":13241,"Ġquilibet":13242,"Ġdicent":13243,"ĠPuto":13244,"ĠPage":13245,"rali":13246,"Ġsedebat":13247,"ĠNav":13248,"Ġpositus":13249,"Ġposito":13250,"ĠMic":13251,"Ġ218":13252,"issam":13253,"ortes":13254,"ander":13255,"Ġabout":13256,"Ġvidebam":13257,"Ġviduae":13258,"Ġuic":13259,"Ġuet":13260,"Ġuelle":13261,"ĠLB":13262,"ĠLy":13263,"ĠHo":13264,"ĠHir":13265,"Ġeras":13266,"Ġcaut":13267,"Ġcastrorum":13268,"Ġamissa":13269,"Ġamoen":13270,"ĠFem":13271,"Ġpaginas":13272,"ĠTecum":13273,"Ġincrem":13274,"Ġcuipiam":13275,"ĠVers":13276,"essum":13277,"Ġungu":13278,"ĠGod":13279,"ĠGracch":13280,"Ġaccidunt":13281,"Ġcontenti":13282,"ullo":13283,"Ġinteritum":13284,"Ġoratores":13285,"Ġpatientiam":13286,"Ġpatienter":13287,"Ġbonitatis":13288,"light":13289,"Ġstatio":13290,"Ġminu":13291,"Ġnostrud":13292,"Ġ1930":13293,"Ġ1932":13294,"ĠOdio":13295,"Ġlocutionem":13296,"Ġloquimini":13297,"Ġquispiam":13298,"Ġincolis":13299,"Ġoblect":13300,"Ġscripti":13301,"Ġimpius":13302,"Ġimpub":13303,"Ġcommunionem":13304,"iationis":13305,"Ġrationi":13306,"Ġvitulum":13307,"Ġvocamus":13308,"Ġistarum":13309,"Ġeamdem":13310,"Ġ1814":13311,"Ġ1836":13312,"Ġdivini":13313,"ĠSign":13314,"Ġassequ":13315,"Ġpopulis":13316,"Ġcompreh":13317,"Ġcognomen":13318,"Ġconcessit":13319,"irca":13320,"Ġactibus":13321,"Ġconfl":13322,"Ġconferebamus":13323,"Ġvivimus":13324,"Ġpossitne":13325,"ĠAmb":13326,"Ġsignavit":13327,"Ġinsitam":13328,"veh":13329,"Ġnovas":13330,"Ġnoverunt":13331,"Ġoption":13332,"Ġdocebit":13333,"Ġhuiusce":13334,"Ġprobantur":13335,"Ġprobabile":13336,"Ġcirculo":13337,"Ġcertam":13338,"Ġcertior":13339,"ĠArn":13340,"Ġvestimenta":13341,"Ġjur":13342,"Ġquaeratur":13343,"ĠQuaest":13344,"Ġpecuniis":13345,"Ġpecunias":13346,"picio":13347,"asses":13348,"Ġdiligentiae":13349,"ferendis":13350,"cribi":13351,"Ġdignos":13352,"Ġdignitati":13353,"Ġexercere":13354,"Ġvicti":13355,"Ġcogites":13356,"ÐµÑģ":13357,"Ġcognosces":13358,"ĠXL":13359,"Ġaedium":13360,"Ġpetivit":13361,"llus":13362,"llam":13363,"Ġpatrono":13364,"posita":13365,"Ġbelle":13366,"Ġprovinciis":13367,"Ġproclam":13368,"Ġprocedere":13369,"Ġ114":13370,"Ġemolum":13371,"Ġexistis":13372,"Ġaperuit":13373,"Ġfaciebant":13374,"Ġlatron":13375,"ãģĵ":13376,"Ġspecialis":13377,"Ġsignificans":13378,"Ġfalsi":13379,"Ġimmorta":13380,"Ġrectus":13381,"ĠGermanicae":13382,"Ġregnavitque":13383,"Ġepiscopos":13384,"crips":13385,"Ġdifflu":13386,"Ġmoventur":13387,"Ġnocet":13388,"Ġnocent":13389,"Ġlucri":13390,"Ġconveniant":13391,"Ġthron":13392,"Ġprodux":13393,"Ġferoc":13394,"Ġtradita":13395,"Ġevol":13396,"Ġedidit":13397,"Ġlicere":13398,"Ġlicentia":13399,"ĠNihilominus":13400,"Ġexempli":13401,"Ġchili":13402,"Ġparvae":13403,"Ġdissip":13404,"ĠAlias":13405,"ĠScis":13406,"Ġdenunt":13407,"Ġattulit":13408,"ĠChristianae":13409,"ĠÂ§.":13410,"Ð¾Ðº":13411,"Ġaves":13412,"Ġavia":13413,"Ġverax":13414,"ĠCaroli":13415,"Ġoneris":13416,"Ġonly":13417,"Ġalienae":13418,"Ġhonestius":13419,"Ġproxima":13420,"Ġproximis":13421,"ĠMagist":13422,"Ġquotidi":13423,"ĠCatone":13424,"Ġportum":13425,"Ġportas":13426,"Ġsuscipere":13427,"Ġequorum":13428,"Ġingeni":13429,"Ġ1943":13430,"Ġperditum":13431,"Ġludere":13432,"Ġaugetur":13433,"Ġimaginamur":13434,"Ġgestis":13435,"Ġpedum":13436,"Ġambulat":13437,"Ġconiunctae":13438,"Ġdamni":13439,"Ġdimic":13440,"Ġexspectamus":13441,"ologia":13442,"Ġduxerit":13443,"Ġpervenerunt":13444,"ĠIacobi":13445,"Ġordinatur":13446,"Ġfree":13447,"ĠVideo":13448,"Ġrelationem":13449,"Ġpassuum":13450,"allust":13451,"Ġmentio":13452,"Ġvincla":13453,"Ġ1975":13454,"Ġmilitari":13455,"Ġfundamenta":13456,"Ġpleni":13457,"Ġfelices":13458,"ĠCorrupti":13459,"Ġpauperibus":13460,"Ġcondiciones":13461,"Ġexperi":13462,"Ġcrimin":13463,"Ġrelinquo":13464,"Ġpostulet":13465,"ĠAgar":13466,"ĠFacere":13467,"Ġpoenas":13468,"Ġelecti":13469,"Ġsufficiat":13470,"Ġotiosus":13471,"Ġfacultatibus":13472,"Ġdioecesim":13473,"Ġvendibiliora":13474,"ĠLaur":13475,"ĠRead":13476,"Ġvehementius":13477,"Ġobiect":13478,"ĠAthenas":13479,"Ġloquebamur":13480,"Ġvocabulis":13481,"Ġconprehend":13482,"ĠValle":13483,"ĀĀĀ":13484,"Ġornare":13485,"Ġduodev":13486,"Ġhabebitis":13487,"Ġmeminerimus":13488,"Ġcecidi":13489,"ĠMultum":13490,"Ġpraefuit":13491,"Ġpercipitur":13492,"ĠPropterea":13493,"ĠRussica":13494,"ĠZenoni":13495,"Ġcollegium":13496,"ĠTemporibus":13497,"Arch":13498,"Ġinvidiam":13499,"ĠPyth":13500,"ĠSyn":13501,"Ġhospitio":13502,"ĠEuropaeae":13503,"Ġarbor":13504,"Ġexcellentiae":13505,"Ġprecibus":13506,"Ġvulgi":13507,"ĠQuibusdam":13508,"Ġpraeparabit":13509,"Ġrespice":13510,"ĠJesu":13511,"Ġeclips":13512,"Ġuerbis":13513,"Ġomittamus":13514,"Ġconciperetur":13515,"Ġcustodierit":13516,"Ġsubtilius":13517,"ĠSeptentrione":13518,"Ġdomestica":13519,"ERO":13520,"ĠNesciunt":13521,"Ġcomplures":13522,"Ġaccipienda":13523,"Ġcordibus":13524,"Ġconiungi":13525,"ĠPlacuit":13526,"Ġgignuntur":13527,"Ġbarbaris":13528,"Ġdemonstratio":13529,"ĠPraecip":13530,"Ġvetustatem":13531,"Ġbenigne":13532,"Ġdisplicuit":13533,"Ġdistinguitur":13534,"Ġavaritias":13535,"Ġdemonstrari":13536,"Ġmysterium":13537,"dixitque":13538,"ĠAnglica":13539,"Ġafficere":13540,"Ġdesidero":13541,"Ġfornicati":13542,"ĠMolestias":13543,"Ġrespondeas":13544,"Ġattende":13545,"ĠAfricam":13546,"ĠVictor":13547,"ĠÃ¦ter":13548,"ĠÃ¦dific":13549,"Ġpersecutus":13550,"ĠMacedonia":13551,"ĠTertium":13552,"Ġterminus":13553,"Ġsurgere":13554,"Ġcontigit":13555,"Ġvaletudinem":13556,"Ġabsconditum":13557,"Ġsyllabae":13558,"Ġinnumerabilia":13559,"Ġrepugnet":13560,"Theod":13561,"Ġconsuevit":13562,"Ġthesauris":13563,"Ġconsideret":13564,"Ġconiunx":13565,"ĠLongum":13566,"Ġconscripti":13567,"ĠPhilippus":13568,"ĠExercitationem":13569,"ÐµÐ»ÑĮ":13570,"Ġeximia":13571,"Ġremissionem":13572,"Ġinscitiae":13573,"Ġsaxum":13574,"ĠXenoph":13575,"Ġincognita":13576,"ĠLusit":13577,"Ġtutelae":13578,"Apud":13579,"Ġfronte":13580,"ĠTitularis":13581,"Ġpatefactio":13582,"Ġnesciebatis":13583,"Ġevacu":13584,"ĠGalilae":13585,"ĠWestph":13586,"oncili":13587,"ĠPyrrho":13588,"Ġpropinqui":13589,"ĠTerrarum":13590,"ĠAperiam":13591,"ĠSpero":13592,"Ġincorpor":13593,"Ġwebsite":13594,"Ġutebare":13595,"Ġcaerule":13596,"Ġoccurrentia":13597,"ĠOlymp":13598,"ĠâĹī":13599,"ĠAvicenna":13600,"Ġopertarum":13601,"Ġinprudens":13602,"&@Ąą":13603,"Cl":13604,"Edit":13605,"Grat":13606,"Mat":13607,"Nemo":13608,"Nulla":13609,"Prop":13610,"Rep":13611,"XL":13612,"gone":13613,"ier":13614,"las":13615,"mina":13616,"pio":13617,"prehens":13618,"tius":13619,"uz":13620,"uque":13621,"uitate":13622,"ych":13623,"²½":13624,"Âª":13625,"ÃŁ":13626,"Å«":13627,"åĬ":13628,"æ±":13629,"æĿ":13630,"ê²½":13631,"Ġecc":13632,"Ġevit":13633,"Ġerect":13634,"quant":13635,"erare":13636,"Ġaen":13637,"Ġaeris":13638,"Ġave":13639,"inv":13640,"inta":13641,"Ġpect":13642,"amem":13643,"Ġcuc":13644,"Ġnato":13645,"Ġnactus":13646,"Ġdato":13647,"Ġmitter":13648,"orae":13649,"Ġinpon":13650,"icon":13651,"Ġvariae":13652,"Ġtutum":13653,"ĠfÅĵ":13654,"omata":13655,"esuada":13656,"Ġhy":13657,"Ġhad":13658,"odia":13659,"ette":13660,"arz":13661,"ardi":13662,"anim":13663,"idel":13664,"ularibus":13665,"ents":13666,"entissimi":13667,"Ġpri":13668,"Ġadium":13669,"ocles":13670,"Ġly":13671,"Ġlar":13672,"Ġlink":13673,"Ġquodlibet":13674,"ace":13675,"acor":13676,"acium":13677,"Ġutili":13678,"elic":13679,"iuss":13680,"ilo":13681,"ily":13682,"Ġdefect":13683,"Ġdefectum":13684,"ĠsuÃ¦":13685,"aldus":13686,"Ġconatur":13687,"Ġconect":13688,"Ġconuers":13689,"ĠIf":13690,"ĠAM":13691,"ĠAgn":13692,"ĠAevo":13693,"Ġexar":13694,"Ġexequ":13695,"ĠSull":13696,"ĠSallust":13697,"ĠClar":13698,"ĠCave":13699,"ĠDon":13700,"ĠDia":13701,"ĠDies":13702,"esto":13703,"ester":13704,"estis":13705,"Quomodo":13706,"tera":13707,"Ġfacet":13708,"Ġfaceres":13709,"Ġpraeval":13710,"Ġpraeiudic":13711,"ituri":13712,"ĠPugn":13713,"ĠPulch":13714,"ĠPellentesque":13715,"Ġsedecim":13716,"perem":13717,"ĠNatur":13718,"ĠNolo":13719,"ensae":13720,"Ġsciamus":13721,"Ġeiusmod":13722,"ĠMod":13723,"ĠMir":13724,"ĠMand":13725,"ĠMeli":13726,"ĠMea":13727,"ĠMach":13728,"ĠMense":13729,"ĠMesop":13730,"Ġpotior":13731,"orth":13732,"Ġsequamur":13733,"Ġsequebatur":13734,"Ġveloc":13735,"Ġvideram":13736,"Ġrar":13737,"Ġrig":13738,"Ġritum":13739,"ĠLX":13740,"ĠLux":13741,"ĠLyc":13742,"Ġsitis":13743,"aviae":13744,"averimus":13745,"Ġnew":13746,"ĠRi":13747,"ĠRog":13748,"ĠForum":13749,"ĠFund":13750,"ĠFieri":13751,"Ġparere":13752,"ĠTac":13753,"ĠTir":13754,"ĠTitum":13755,"ĠTullius":13756,"Ġincont":13757,"Ġincarnationis":13758,"Ġcuilibet":13759,"Ġvolet":13760,"Ġplenus":13761,"ĠGl":13762,"ĠGlor":13763,"ĠBonus":13764,"ĠBarb":13765,"ĠButhrot":13766,"ustus":13767,"Ġintrinsecus":13768,"Ġcontenta":13769,"Ġcontendit":13770,"Ġcommisc":13771,"igil":13772,"igeniti":13773,"Ġfuisti":13774,"Ġfuerim":13775,"Ġoratoris":13776,"Ġresurg":13777,"Ġlibet":13778,"epos":13779,"Ġpatern":13780,"Ġregit":13781,"Ġregulae":13782,"Ġstella":13783,"Ġstellae":13784,"Ġ300":13785,"Ġcreator":13786,"Ġarcus":13787,"Ġcoron":13788,"Ġcorrept":13789,"ulia":13790,"Ġfecerant":13791,"ĠIng":13792,"Ġvenissent":13793,"Ġ1921":13794,"ĠOth":13795,"ĠOreg":13796,"apud":13797,"Ġdolus":13798,"Ġspre":13799,"Ġalta":13800,"Ġuse":13801,"Ġoculum":13802,"Ġposthac":13803,"ifice":13804,"Ġmanete":13805,"Ġdomos":13806,"Ġimpiorum":13807,"Ġou":13808,"ĠAnato":13809,"Ġgenua":13810,"Ġsemine":13811,"Ġpartus":13812,"Ġpraesentis":13813,"Ġvitiose":13814,"iei":13815,"Ġcogitas":13816,"Ġcuro":13817,"Ġcuria":13818,"Ġcuriam":13819,"Ġcuravit":13820,"Ġsuperavit":13821,"Ġsuperstit":13822,"Ġsuperfl":13823,"Ġexpletum":13824,"nea":13825,"Ġmalesuada":13826,"Ġiudicum":13827,"Ġcivilibus":13828,"Ġamicam":13829,"Ġamicitiarum":13830,"Ġiuravit":13831,"Ġnominata":13832,"Ġnominavit":13833,"ugg":13834,"Ġcognatione":13835,"Ġconcurr":13836,"Ġconceptus":13837,"Ġmollibus":13838,"Ġlitem":13839,"Ġscribae":13840,"Ġscribens":13841,"Ġactiv":13842,"elia":13843,"ĠRomanam":13844,"Ġiustis":13845,"Ġvivis":13846,"Ġvivens":13847,"Ġpraecessit":13848,"ĠAmet":13849,"Ġinspi":13850,"Ġinsanos":13851,"Ġcolebat":13852,"Ġperscrib":13853,"Ġcredat":13854,"Ġcredens":13855,"Ġcreduntur":13856,"Ġcrediderit":13857,"Ġlaboribus":13858,"Ġmorbi":13859,"Ġmoriatur":13860,"tique":13861,"Ġoppressus":13862,"iensem":13863,"Ġexcid":13864,"Ġprobas":13865,"Ġdominis":13866,"Ġinveneris":13867,"Ġredund":13868,"Ġreditum":13869,"Ġprincipum":13870,"Ġcerti":13871,"Ġcertius":13872,"Ġcertissimum":13873,"Ġsummis":13874,"Ġsummae":13875,"unctum":13876,"unction":13877,"Ġjure":13878,"ĠGraecarum":13879,"Ġductum":13880,"aretra":13881,"ĠJeh":13882,"Ġreliquam":13883,"Ġsancte":13884,"Ġundecim":13885,"Ġdiligis":13886,"Ġdiligamus":13887,"Ġextr":13888,"Ġextoll":13889,"Ġnecessariae":13890,"Ġplurium":13891,"Ġvicissim":13892,"Ġmutu":13893,"Ġhonos":13894,"Ġigne":13895,"Ġignota":13896,"Ġappello":13897,"Ġpetitionem":13898,"Ġstudeo":13899,"Ġ135":13900,"Ġsenem":13901,"Ġpertinebat":13902,"Ġphantas":13903,"Ġpharetra":13904,"ĠCondit":13905,"ĠConferam":13906,"ĠUnus":13907,"Ġtantus":13908,"Ġmensur":13909,"Ġmensura":13910,"Ġfactorum":13911,"Ġ105":13912,"Ġfaciemus":13913,"Ġaccusator":13914,"iform":13915,"Ġfalso":13916,"Ġliberalis":13917,"temberg":13918,"Ð½Ð°":13919,"Ġquantus":13920,"Ġquantam":13921,"Ġquantae":13922,"lish":13923,"evum":13924,"Ġdemocrat":13925,"Ġtherm":13926,"Ġsingulorum":13927,"Ġportare":13928,"Ġdono":13929,"Ġprodig":13930,"Ġtributum":13931,"Ġtribuere":13932,"Ġuniversi":13933,"Ġuniversitatem":13934,"Ġuniversitatis":13935,"Ġferr":13936,"Ġadversarii":13937,"ĠThess":13938,"Ġtraditus":13939,"Ġtradiderunt":13940,"Ġveterrima":13941,"limus":13942,"ĠRegis":13943,"Ġmonet":13944,"Ġpossessionis":13945,"Ġconsulatus":13946,"Ġaudiebat":13947,"Ġpulcher":13948,"Ġpulchrae":13949,"Ġlicuit":13950,"Ġhabeantur":13951,"Ġamplect":13952,"Ġnolle":13953,"Ġnolui":13954,"lay":13955,"Ġchord":13956,"Ġpermis":13957,"Ġpermans":13958,"Ġcalli":13959,"Ġnegotiis":13960,"Ġpromov":13961,"Ġdeport":13962,"Ġdeprehendi":13963,"Ġsextus":13964,"landitiis":13965,"Ġdelectantur":13966,"Ġinciperemus":13967,"ĠIntellig":13968,"ĠInteger":13969,"Ġeffecit":13970,"ĠCarne":13971,"ĠSteph":13972,"ĠStatim":13973,"ĠNovo":13974,"Ġmeliore":13975,"Ġnobiles":13976,"Ġcupiditates":13977,"ĠAsiam":13978,"Ġprivatio":13979,"Ð°Ð´":13980,"Ġscriptorum":13981,
[...]
